<s>	0
<pad>	0
</s>	0
<unk>	0
▁的	-2.88475
▁,	-3.11732
▁。	-3.50067
▁和	-3.9748
▁在	-4.41482
▁.	-4.43408
▁、	-4.6339
▁了	-4.84
▁(	-4.93276
▁)	-4.94264
▁是	-5.02224
▁年	-5.22501
▁/	-5.37986
▁对	-5.43889
"	-5.54078
▁:	-5.66636
▁委员会	-5.68086
▁月	-5.68325
▁与	-5.70336
▁第	-5.70778
▁	-5.70808
▁并	-5.72082
▁中	-5.74295
▁;	-5.74672
▁我	-5.77805
▁问题	-5.78642
▁将	-5.78855
▁"	-5.8016
▁-	-5.80544
▁为	-5.81192
▁国家	-5.82076
▁》	-5.84395
▁《	-5.84908
▁有	-5.88453
▁会议	-5.88641
▁他	-5.92781
▁日	-6.01378
▁不	-6.01526
▁""	-6.02451
▁一个	-6.02998
▁联合国	-6.06128
▁或	-6.06497
▁我们	-6.08503
▁发展	-6.09487
▁报告	-6.09547
▁其	-6.12019
▁国际	-6.13301
▁这	-6.14251
▁提供	-6.14435
▁你	-6.15035
▁工作	-6.20419
▁以	-6.21282
▁上	-6.23122
▁到	-6.24752
▁1	-6.26217
▁组织	-6.27976
▁关于	-6.2851
▁进行	-6.31041
▁也	-6.31513
▁人	-6.31822
▁就	-6.32731
▁以及	-6.33464
▁所	-6.34766
▁这些	-6.35207
▁该	-6.38618
▁包括	-6.38855
▁通过	-6.40301
▁社会	-6.42384
▁方案	-6.44991
▁情况	-6.46647
▁其他	-6.4736
▁而	-6.50024
▁还	-6.51087
▁有关	-6.51441
▁特别	-6.51842
▁方面	-6.54549
▁执行	-6.55049
▁都	-6.55973
▁向	-6.57421
▁机构	-6.57548
▁他们	-6.5771
▁政府	-6.58489
▁被	-6.59251
▁2	-6.60078
▁决议	-6.61658
▁活动	-6.63482
▁可	-6.6354
▁3	-6.6416
▁地	-6.64422
▁号	-6.66071
▁没有	-6.66118
▁建议	-6.66462
▁及	-6.6663
▁所有	-6.66881
▁妇女	-6.68497
▁但	-6.69287
▁安全	-6.71361
▁经济	-6.71517
▁行动	-6.71851
▁时	-6.71874
▁项目	-6.72646
▁人权	-6.74719
▁公约	-6.7602
▁说	-6.7797
▁应	-6.78812
▁可以	-6.79184
▁需要	-6.80392
▁下	-6.81836
▁?	-6.82611
▁会	-6.83082
▁区域	-6.83591
▁4	-6.84022
▁大会	-6.84644
▁根据	-6.85211
▁规定	-6.85307
▁5	-6.8543
▁理事会	-6.86186
▁它	-6.87636
▁使	-6.88068
▁从	-6.88087
▁提出	-6.88222
▁她	-6.88912
▁合作	-6.88925
▁可能	-6.89552
▁决定	-6.90484
▁儿童	-6.9082
▁6	-6.91173
▁于	-6.92417
▁新	-6.92683
▁必须	-6.94931
▁个	-6.95661
▁已	-6.96062
▁%	-6.98348
▁支持	-6.9854
▁代表	-6.98731
▁“	-6.98742
▁A	-6.99647
▁10	-6.99885
▁更	-6.99913
▁由	-7.01085
▁技术	-7.01437
▁各	-7.03695
▁本	-7.04231
▁法律	-7.04562
▁影响	-7.04565
▁12	-7.04623
▁权利	-7.05259
▁”	-7.06301
▁认为	-7.06428
▁7	-7.07133
▁政策	-7.07553
▁要求	-7.07945
▁采取	-7.07983
▁继续	-7.09195
▁促进	-7.09242
▁一些	-7.09369
▁秘书长	-7.1007
▁要	-7.11378
▁加强	-7.11626
▁目标	-7.12238
▁来	-7.12916
▁管理	-7.13472
▁和平	-7.13546
▁保护	-7.14223
▁措施	-7.14717
▁确保	-7.17418
▁服务	-7.17556
▁提交	-7.17559
▁使用	-7.18043
▁条	-7.18321
▁主要	-7.18619
▁系统	-7.18696
▁9	-7.19352
▁能力	-7.20109
▁研究	-7.20697
▁把	-7.20832
▁缔约国	-7.21031
▁计划	-7.2115
▁内	-7.213
▁任何	-7.22551
▁努力	-7.22604
▁重要	-7.22931
▁后	-7.23387
▁这种	-7.23499
▁多	-7.23757
▁作为	-7.23857
▁建立	-7.24501
▁一	-7.24684
▁注意	-7.26361
▁已经	-7.26712
▁这个	-7.27783
▁主席	-7.28517
▁等	-7.28671
▁11	-7.29041
▁给	-7.30505
▁8	-7.3098
▁草案	-7.31553
▁请	-7.32659
▁审议	-7.33306
▁举行	-7.33503
▁如果	-7.33529
▁最	-7.34157
▁因此	-7.34334
▁资源	-7.34355
▁实现	-7.34709
▁很	-7.34937
▁先生	-7.35072
▁文件	-7.35133
▁这一	-7.35594
▁期间	-7.35789
▁·	-7.3607
▁段	-7.36428
▁之间	-7.38475
▁人员	-7.38475
▁教育	-7.38476
▁各国	-7.39209
▁因为	-7.39789
▁信息	-7.40132
▁成员	-7.40708
▁审查	-7.40987
▁行为	-7.41045
▁能	-7.41324
▁基金	-7.41701
▁得到	-7.41925
▁环境	-7.42296
▁全球	-7.42561
▁世界	-7.42583
▁实施	-7.42784
▁领域	-7.43581
▁援助	-7.43721
▁增加	-7.444
▁开展	-7.44955
▁表示	-7.45973
▁中国	-7.4608
▁考虑	-7.46874
▁持续	-7.48129
▁自己	-7.48166
▁获得	-7.48722
▁相关	-7.48871
▁地区	-7.48875
▁参与	-7.49013
▁战略	-7.49519
▁一项	-7.51018
▁议程	-7.51348
▁其中	-7.51834
▁代表团	-7.52545
▁支助	-7.53554
▁有效	-7.53794
▁协调	-7.54131
▁作出	-7.5458
▁着	-7.55097
▁讨论	-7.55876
▁及其	-7.5656
▁美国	-7.56606
▁方法	-7.56648
▁预算	-7.56708
▁正在	-7.5746
▁能够	-7.57622
▁小组	-7.57785
▁但是	-7.58299
▁政治	-7.58609
▁作用	-7.59294
▁指出	-7.59456
▁工作人员	-7.59714
▁让	-7.59911
▁一种	-7.6075
▁程序	-7.61202
▁人民	-7.61666
▁由于	-7.61761
▁资料	-7.62217
▁处理	-7.62575
▁至	-7.62981
▁许多	-7.63122
▁做	-7.63471
▁公司	-7.64019
▁开始	-7.64307
▁目前	-7.6434
▁特派团	-7.64526
▁它们	-7.64941
▁方式	-7.65206
▁解决	-7.65427
▁者	-7.66269
▁进一步	-7.66549
▁提高	-7.67043
▁机制	-7.68579
▁a	-7.68591
▁中心	-7.68794
▁秘书处	-7.69259
▁任务	-7.699
▁非洲	-7.6993
▁说明	-7.70414
▁意见	-7.70519
▁条约	-7.70597
▁参加	-7.71113
▁取得	-7.71308
▁事务	-7.71606
▁原则	-7.71628
▁培训	-7.71831
▁制定	-7.7203
▁15	-7.72512
▁评估	-7.72645
▁减少	-7.72692
▁前	-7.73687
▁调查	-7.73849
▁确定	-7.74133
▁发展中国家	-7.74246
▁人口	-7.74572
▁框架	-7.74923
▁又	-7.7521
▁次	-7.75787
▁C	-7.76902
▁进程	-7.76916
▁具有	-7.76938
▁各种	-7.77839
▁同时	-7.77865
▁30	-7.78694
▁目的	-7.79138
▁b	-7.79525
▁而且	-7.79545
▁这样	-7.7986
▁时间	-7.80245
▁不是	-7.80286
▁美元	-7.80417
▁部分	-7.80438
▁希望	-7.80706
▁去	-7.80876
▁用	-7.81816
▁成为	-7.82004
▁以便	-7.82084
▁生活	-7.8231
▁工作组	-7.82388
▁平等	-7.82655
▁强调	-7.82855
▁利用	-7.82933
▁部门	-7.83148
▁文化	-7.83317
▁国	-7.83525
▁费用	-7.83588
▁不同	-7.83663
▁同	-7.84186
▁发言	-7.84348
▁现在	-7.84713
▁应当	-7.84839
▁名	-7.85504
▁20	-7.85548
▁发生	-7.8571
▁—	-7.85997
▁那	-7.86181
▁应该	-7.86215
▁标准	-7.86736
▁里	-7.87197
▁结果	-7.87425
▁2005	-7.87928
▁是否	-7.88173
▁2008	-7.88355
▁分析	-7.88449
▁适当	-7.88697
▁地方	-7.88821
▁存在	-7.8904
▁缔约方	-7.89066
▁维持	-7.89083
▁好	-7.89273
▁接受	-7.89869
▁必要	-7.9046
▁间	-7.90565
▁为了	-7.90876
▁制度	-7.91106
▁数据	-7.91131
▁2006	-7.91781
▁基础	-7.91833
▁会员国	-7.91866
▁造成	-7.92085
▁对于	-7.92157
▁按照	-7.92159
▁什么	-7.92422
▁设立	-7.92839
▁产生	-7.93023
性	-7.93135
▁*	-7.93266
▁行政	-7.93524
▁此外	-7.93549
▁关系	-7.938
▁大	-7.94005
方面	-7.94075
▁2010	-7.94115
▁全面	-7.95241
▁范围	-7.95561
▁如	-7.95576
▁机会	-7.95672
▁即	-7.95799
▁办事处	-7.9581
▁专家	-7.95845
▁具体	-7.9591
▁2009	-7.96268
▁消除	-7.96373
▁不能	-7.96586
▁最后	-7.96598
▁投资	-7.96895
▁非	-7.97055
▁2007	-7.97401
▁办法	-7.97459
▁建设	-7.98181
▁受到	-7.98214
▁进展	-7.98236
▁14	-7.98465
▁充分	-7.9852
▁司法	-7.9908
其	-7.99146
▁承诺	-7.99164
▁2004	-7.99263
▁13	-7.99264
▁就是	-7.99303
▁家庭	-7.99366
▁帮助	-7.99392
▁各项	-7.99686
▁负责	-8.00315
▁鼓励	-8.00773
▁协助	-8.00837
▁!	-8.00882
▁一次	-8.01106
▁并且	-8.01474
▁共同	-8.02021
▁做法	-8.02289
▁知道	-8.02816
▁责任	-8.03088
▁之	-8.03239
▁吗	-8.03578
▁18	-8.03754
▁用于	-8.04239
▁想	-8.04355
▁尤	-8.04477
▁资金	-8.04598
▁如何	-8.04865
▁两个	-8.04894
▁性别	-8.05196
▁16	-8.05229
▁2011	-8.05411
在	-8.05884
▁安排	-8.05892
▁法院	-8.06629
▁涉及	-8.06778
▁监测	-8.06819
▁严重	-8.0694
▁贸易	-8.07026
▁需	-8.07419
▁咨询	-8.07722
▁过程	-8.07955
▁议定书	-8.07974
▁义务	-8.08204
▁一切	-8.08237
▁事项	-8.08303
▁人们	-8.08607
▁款	-8.0887
▁受	-8.08951
▁欢迎	-8.09796
▁基本	-8.10011
▁歧视	-8.10018
▁形式	-8.10062
▁非政府	-8.10456
▁条件	-8.10588
▁自	-8.10887
▁日至	-8.10971
▁2003	-8.11015
▁法	-8.1157
▁2000	-8.11587
▁办公室	-8.1217
▁未	-8.12184
▁批准	-8.124
▁完成	-8.12401
▁以色列	-8.12432
▁挑战	-8.12594
▁尽管	-8.12611
▁业务	-8.12817
▁企业	-8.13007
▁那些	-8.13067
▁改革	-8.13378
于	-8.1349
▁部队	-8.13559
▁冲突	-8.1382
▁2002	-8.14116
▁犯罪	-8.14794
▁个人	-8.14851
▁17	-8.15188
▁介绍	-8.15311
▁适用	-8.15525
▁国内	-8.16466
▁21	-8.16569
▁之后	-8.16607
▁当	-8.16752
▁2012	-8.16903
▁市场	-8.1699
▁c	-8.17064
▁们	-8.17198
▁自由	-8.17302
▁认识	-8.18054
▁选举	-8.18095
▁出现	-8.18135
▁例如	-8.18146
▁仍	-8.18489
▁关切	-8.18628
▁采用	-8.18656
▁难民	-8.18685
▁[	-8.18954
▁仍然	-8.18973
▁则	-8.19018
▁附件	-8.19019
▁以下	-8.19448
▁控制	-8.19638
▁B	-8.19646
▁过	-8.19953
▁协定	-8.2071
▁2001	-8.21037
▁或者	-8.21053
▁武器	-8.21179
▁成果	-8.21501
▁非常	-8.2192
▁关注	-8.22073
▁优先	-8.22146
▁一般	-8.2216
▁改善	-8.22514
▁临时	-8.22517
▁两年	-8.22639
▁比	-8.22643
▁31	-8.22788
▁直接	-8.2286
▁人道主义	-8.23216
▁生产	-8.23392
▁高	-8.23638
▁"""	-8.23787
▁19	-8.24058
▁按	-8.24115
▁表明	-8.24533
▁之前	-8.25192
▁利益	-8.2523
▁25	-8.25274
▁社区	-8.25472
▁健康	-8.25504
▁]	-8.25591
▁报告员	-8.25967
▁见	-8.25981
▁正	-8.26422
▁期	-8.26585
▁L	-8.26632
▁评价	-8.26709
▁案件	-8.26713
▁得	-8.26964
▁这项	-8.27142
▁原因	-8.27246
▁积极	-8.27259
▁时候	-8.27284
▁无法	-8.27546
着	-8.27733
▁联合	-8.27818
▁增长	-8.2782
▁当局	-8.2783
▁以来	-8.28114
▁立法	-8.28553
▁22	-8.2988
▁现有	-8.29952
▁此	-8.30229
▁最近	-8.30338
▁因	-8.30429
到	-8.30507
▁暴力	-8.30555
▁稳定	-8.30579
▁防止	-8.30627
▁独立	-8.3093
▁履行	-8.31275
▁一直	-8.3142
▁禁止	-8.31656
▁S	-8.31733
▁000	-8.32083
▁过去	-8.32259
▁限制	-8.32366
▁虽然	-8.32486
▁重申	-8.3272
▁经费	-8.32772
▁24	-8.32868
▁2013	-8.33167
▁结构	-8.33372
▁小	-8.33435
▁每	-8.33542
▁恐怖主义	-8.33655
▁E	-8.33838
▁不会	-8.34512
▁再	-8.34624
▁23	-8.34696
▁1999	-8.34705
▁巴勒斯坦	-8.34793
▁导致	-8.34912
▁发现	-8.35014
▁内容	-8.35504
▁安理会	-8.3555
▁了解	-8.3556
▁一份	-8.35604
▁另	-8.35658
▁然而	-8.35884
▁综合	-8.36179
▁需求	-8.36192
▁收到	-8.36523
▁这是	-8.36727
▁只	-8.37058
▁某些	-8.37104
▁风险	-8.37723
▁打击	-8.38155
▁广泛	-8.38443
▁监督	-8.3853
▁土著	-8.38534
▁同意	-8.38687
▁出	-8.38792
▁人类	-8.39032
▁地位	-8.39074
▁因素	-8.39207
▁状况	-8.40083
▁针对	-8.40112
▁请求	-8.40187
▁呼吁	-8.40939
▁审计	-8.4104
▁领土	-8.41531
▁推动	-8.41638
▁预防	-8.41744
▁纳入	-8.42105
▁起	-8.42211
▁承认	-8.42254
▁结束	-8.42442
▁协商	-8.42854
▁制订	-8.42942
▁面临	-8.42951
▁谈判	-8.43124
▁全国	-8.43314
▁1998	-8.43418
▁性	-8.43436
▁扩大	-8.43545
▁选择	-8.43983
▁对话	-8.44353
▁实际	-8.44376
▁长期	-8.4448
▁保障	-8.44486
▁保证	-8.44515
▁论坛	-8.4453
▁军事	-8.4476
▁作	-8.4479
▁指导	-8.45092
▁您	-8.45242
▁欧洲	-8.45732
▁定期	-8.45797
▁集团	-8.46339
▁却	-8.46412
▁只有	-8.46445
▁26	-8.46884
▁28	-8.4692
▁警察	-8.47057
▁厅	-8.47074
▁该国	-8.47288
▁总统	-8.47304
▁完全	-8.47453
▁27	-8.47569
▁材料	-8.47723
▁条款	-8.48112
▁规则	-8.48293
▁违反	-8.48318
▁联系	-8.48328
▁来自	-8.48352
▁明确	-8.48369
▁产品	-8.48508
▁发挥	-8.48867
▁发达国家	-8.48939
▁宣言	-8.49299
▁经	-8.49306
▁遵守	-8.49563
▁整个	-8.49589
▁二	-8.49612
▁上述	-8.49737
▁符合	-8.49927
▁重新	-8.50148
▁从而	-8.50395
▁非法	-8.50396
▁占	-8.50673
▁伊拉克	-8.5084
▁法庭	-8.50892
▁成功	-8.50955
▁财政	-8.50967
▁规划	-8.51566
▁网络	-8.51822
▁记录	-8.5188
▁一样	-8.51903
▁较	-8.51947
▁我国	-8.52104
▁重点	-8.52118
▁正式	-8.52281
▁侵犯	-8.52443
▁加入	-8.52878
▁你们	-8.53
▁外	-8.53012
▁员额	-8.53035
▁协议	-8.53085
▁更加	-8.53087
▁之一	-8.5312
▁威胁	-8.53205
▁设计	-8.53248
▁城市	-8.53533
▁收入	-8.53895
▁事件	-8.54251
▁还是	-8.54426
▁伙伴关系	-8.54537
▁学校	-8.54699
▁经常	-8.54777
▁普遍	-8.54821
▁程度	-8.5506
▁当地	-8.55102
▁无	-8.55438
▁土地	-8.55526
▁分	-8.55861
▁不断	-8.55979
▁成员国	-8.56332
▁29	-8.56527
▁准备	-8.56594
▁解释	-8.57071
▁拥有	-8.57434
▁确认	-8.57498
▁据	-8.58104
▁公民	-8.58288
▁每个	-8.58346
▁经验	-8.58398
▁应对	-8.58488
▁岁	-8.58795
▁改进	-8.59135
▁下列	-8.59155
▁有助于	-8.59295
▁内部	-8.59641
▁同样	-8.59682
▁项	-8.59725
▁达到	-8.59937
▁保持	-8.5996
▁感到	-8.59976
▁一起	-8.60248
▁P	-8.60427
▁变化	-8.60483
▁还有	-8.6052
▁均	-8.60576
▁旨在	-8.60942
▁做出	-8.6101
▁宪法	-8.61239
▁基于	-8.61313
▁一名	-8.61532
▁结论	-8.61601
▁就业	-8.61696
▁千年	-8.61769
▁未来	-8.62085
▁恢复	-8.62119
▁d	-8.62164
▁带来	-8.62386
▁三	-8.62832
▁给予	-8.63083
▁科学	-8.63475
▁民主	-8.63619
▁学生	-8.63891
▁申请	-8.63954
▁群体	-8.6406
▁显示	-8.64202
▁合同	-8.64316
▁约	-8.64321
▁人数	-8.64581
▁空间	-8.64618
▁编写	-8.64726
▁准则	-8.6482
▁很多	-8.64845
▁开发	-8.64929
▁刑事	-8.65052
▁50	-8.65296
▁倡议	-8.65457
▁法官	-8.65658
▁本国	-8.66097
▁日本	-8.66121
▁进入	-8.6633
▁所述	-8.66457
▁专业	-8.66469
▁女士	-8.6651
▁境内	-8.67047
▁不过	-8.67423
▁设备	-8.67439
▁改变	-8.67544
▁副	-8.67669
▁公共	-8.67722
▁设施	-8.67954
▁保健	-8.68048
▁像	-8.68159
▁贩运	-8.68229
▁重大	-8.68432
▁缺乏	-8.68449
▁运动	-8.6853
▁受害者	-8.68618
▁年度	-8.68681
▁区	-8.68719
▁看	-8.68941
▁方	-8.6901
▁支付	-8.69055
▁举办	-8.69175
▁应用	-8.6944
)	-8.69894
▁保留	-8.69968
▁现象	-8.70098
▁列入	-8.70252
▁水平	-8.70257
▁知识	-8.70363
▁才	-8.70582
▁看到	-8.70872
▁孩子	-8.7105
▁反映	-8.7105
▁实体	-8.71135
▁指标	-8.71148
▁艾滋病	-8.71592
▁有些	-8.71631
▁宣传	-8.71714
▁官员	-8.72196
▁条例	-8.72427
▁总	-8.72489
▁局势	-8.72605
▁阶段	-8.72707
▁允许	-8.72718
▁管制	-8.72754
▁60	-8.72888
▁落实	-8.73209
▁宗教	-8.73295
▁国际法	-8.73298
▁那么	-8.73611
▁价值	-8.73699
▁大量	-8.738
▁反对	-8.73845
▁传统	-8.73898
▁回顾	-8.73979
▁今天	-8.74029
▁贫穷	-8.74044
▁提到	-8.74178
▁超过	-8.74197
▁下午	-8.74213
▁最大	-8.74332
▁享有	-8.74356
▁表	-8.74436
▁拘留	-8.74456
▁构成	-8.7479
▁数量	-8.74844
▁民间	-8.74963
▁组成	-8.75023
▁女性	-8.75185
▁满足	-8.75221
▁成立	-8.75277
▁提议	-8.75296
▁宣布	-8.75404
▁类	-8.75407
▁工具	-8.75718
▁危机	-8.75739
得	-8.75762
▁危险	-8.76028
▁农业	-8.76062
▁呢	-8.76164
▁尊重	-8.76277
▁银行	-8.76423
为	-8.76605
▁调整	-8.76805
▁以上	-8.76819
▁1997	-8.7701
▁1996	-8.77026
▁实行	-8.77127
▁手段	-8.77181
▁核武器	-8.77221
▁行动计划	-8.7726
▁部	-8.77339
▁后续	-8.77437
▁D	-8.77618
▁若干	-8.77703
▁关键	-8.77755
▁2014	-8.77823
▁通知	-8.77841
▁证明	-8.77854
▁文书	-8.77967
▁伙伴	-8.78031
▁资产	-8.78091
▁大学	-8.78202
▁达成	-8.78294
▁酷刑	-8.78309
▁理由	-8.78759
▁40	-8.78801
▁基金会	-8.78909
▁补充	-8.79171
▁只是	-8.79234
▁曾	-8.79572
▁非正式	-8.79793
▁英语	-8.80058
▁裁军	-8.80312
▁签署	-8.80323
▁一点	-8.80471
▁访问	-8.80538
▁然后	-8.8064
▁一部分	-8.80665
▁处	-8.80703
▁授权	-8.80923
▁起来	-8.81197
▁艾滋病毒	-8.81223
▁出口	-8.81312
是	-8.8155
▁扩散	-8.82034
▁万美元	-8.82342
▁各方	-8.8264
人	-8.82696
▁统计	-8.8277
▁财务	-8.8278
▁采购	-8.8292
▁残疾人	-8.83191
▁支出	-8.8352
▁通常	-8.83779
▁声明	-8.83845
▁1994	-8.83946
▁所以	-8.84005
▁职能	-8.8426
▁一定	-8.84325
▁第五	-8.84431
▁编制	-8.84632
▁质量	-8.84651
▁三个	-8.84783
▁领导	-8.84806
▁协会	-8.84967
▁登记	-8.85177
▁主任	-8.85378
▁拟议	-8.85402
▁吧	-8.85551
▁权	-8.85732
▁来说	-8.85856
▁第一	-8.85892
▁亿美元	-8.85922
▁总部	-8.85995
▁信	-8.86063
▁今后	-8.86087
▁在内	-8.86327
▁为此	-8.8641
▁森林	-8.86427
▁学习	-8.86575
▁事	-8.86601
▁分配	-8.86609
▁提案	-8.86749
▁亚洲	-8.86857
▁地点	-8.86877
▁重要性	-8.87099
▁1995	-8.87223
▁第二	-8.87459
▁印度	-8.87459
▁治疗	-8.875
▁收集	-8.87528
▁困难	-8.87672
▁贡献	-8.87769
▁修订	-8.87918
▁权力	-8.88111
▁大多数	-8.88152
▁更好	-8.88207
▁尚未	-8.88441
▁外国	-8.88547
▁每年	-8.88597
▁观察员	-8.88713
▁青年	-8.8885
▁答复	-8.88902
▁证据	-8.89098
▁增强	-8.89224
▁喜欢	-8.89271
▁单位	-8.8928
▁如下	-8.89331
▁另外	-8.89377
▁告诉	-8.90032
▁拟订	-8.90098
▁一位	-8.903
▁移民	-8.9038
▁属于	-8.90466
▁气候变化	-8.90662
▁专门	-8.9084
者	-8.90884
▁首脑会议	-8.90934
▁生物	-8.90965
▁再次	-8.91255
▁模式	-8.91377
▁担任	-8.91382
▁随	-8.91396
▁苏丹	-8.91568
▁题为	-8.91699
▁阿富汗	-8.92089
▁低	-8.92436
▁比较	-8.9247
▁课程	-8.92593
▁除	-8.92596
▁从事	-8.92619
▁Add	-8.92626
▁多边	-8.93367
▁农村	-8.93431
▁自愿	-8.9346
▁十分	-8.93514
▁创造	-8.93565
▁毒品	-8.93652
▁其它	-8.93723
▁一级	-8.93756
▁反	-8.93786
▁不要	-8.93993
▁移徙	-8.93994
▁基础设施	-8.94173
▁寻求	-8.9431
▁加以	-8.94395
▁有人	-8.94403
▁罪行	-8.94484
▁常驻	-8.94539
▁特殊	-8.94561
▁来源	-8.94784
▁估计	-8.94884
▁宪章	-8.94896
▁避免	-8.95014
▁法国	-8.95117
▁财产	-8.95184
▁加拿大	-8.95284
▁核心	-8.95401
使	-8.95453
▁意义	-8.95504
▁至少	-8.95613
▁维护	-8.95785
▁步骤	-8.96009
▁而言	-8.96041
▁团体	-8.96048
▁水	-8.96067
▁以前	-8.96106
▁甚至	-8.96267
▁引起	-8.96278
▁黎巴嫩	-8.96334
▁欧洲联盟	-8.965
▁第六	-8.96548
▁她们	-8.96609
▁100	-8.96804
▁公众	-8.96951
▁敦促	-8.97191
▁议会	-8.97338
▁历史	-8.97385
▁发表	-8.97426
▁迅速	-8.97543
▁1993	-8.97605
▁鉴于	-8.9761
▁越来越	-8.97681
▁纽约	-8.9776
▁公开	-8.97923
▁统一	-8.98006
▁纲领	-8.98043
▁最终	-8.98204
▁相信	-8.98393
▁交流	-8.98736
▁不仅	-8.99018
▁一致	-8.99185
有	-8.99195
▁能源	-8.99462
▁公平	-8.99509
▁运作	-8.99514
▁主题	-8.99569
▁似乎	-8.99576
▁的话	-8.99718
▁观点	-8.99742
▁召开	-8.99815
▁流离失所	-8.99895
▁高级专员	-9.0005
▁通信	-9.00153
▁债务	-9.00168
▁损失	-9.00291
▁核准	-9.00485
▁概念	-9.00529
▁依照	-9.0053
▁最佳	-9.00588
▁工业	-9.00845
▁任命	-9.00851
▁运输	-9.00862
▁比例	-9.00951
▁新闻	-9.01137
上	-9.01348
▁民族	-9.01366
▁商定	-9.0142
▁几个	-9.01477
▁真正	-9.01519
▁医疗	-9.01575
▁预期	-9.01758
▁金融	-9.01865
▁赔偿	-9.01907
▁承担	-9.02098
▁部署	-9.0247
▁...	-9.02615
▁联盟	-9.02733
▁此类	-9.02769
▁粮食	-9.02929
▁才能	-9.02934
▁东西	-9.0296
▁战争	-9.03062
▁e	-9.03125
▁性质	-9.03137
▁供	-9.03215
▁体制	-9.03251
▁有权	-9.03338
▁贸发	-9.03342
▁予以	-9.03358
▁占领	-9.03417
▁计算	-9.03444
▁日内瓦	-9.03496
▁一年	-9.0364
▁走	-9.03869
▁传播	-9.04064
▁如此	-9.04177
▁预计	-9.04336
▁称	-9.04505
▁精神	-9.04661
▁理解	-9.0473
▁四	-9.04755
▁商业	-9.04923
▁愿意	-9.04965
▁价格	-9.05042
▁促	-9.05106
▁高级	-9.05185
▁良好	-9.05375
▁不得	-9.05431
▁指控	-9.05508
▁遭受	-9.05562
▁磋商	-9.05589
▁首先	-9.05748
▁定义	-9.05798
▁死亡	-9.06236
▁成本	-9.06269
▁双方	-9.0632
▁署	-9.06619
▁语言	-9.06706
▁表现	-9.06773
▁分别	-9.06873
▁贫困	-9.07069
▁司	-9.07108
▁举措	-9.07264
▁媒体	-9.07286
▁索赔	-9.07522
▁古巴	-9.07557
▁职位	-9.08333
▁趋势	-9.08396
▁这里	-9.08619
▁感谢	-9.0883
▁除了	-9.08839
▁邀请	-9.08947
▁平民	-9.08947
▁网站	-9.09354
▁事情	-9.09366
▁35	-9.09449
▁两性	-9.09457
▁那个	-9.09512
▁两	-9.09597
▁日期	-9.09612
▁类似	-9.09713
▁采取行动	-9.09718
以	-9.09986
▁几乎	-9.10014
▁住房	-9.10131
▁实质性	-9.10266
▁57	-9.103
▁卫生	-9.10321
▁训练	-9.10337
▁辩论	-9.1048
▁降低	-9.1061
▁职业	-9.10821
▁香港	-9.10943
▁’	-9.10982
▁德国	-9.11108
▁开发署	-9.11138
▁依据	-9.11222
▁形成	-9.11266
▁很大	-9.11372
▁55	-9.1143
▁背景	-9.11433
▁交易	-9.11445
▁00	-9.11668
▁下降	-9.11674
▁遭	-9.11733
▁当前	-9.11805
▁45	-9.11885
▁捐款	-9.12113
▁详细	-9.12153
▁资助	-9.12186
▁拒绝	-9.12186
▁生效	-9.12266
▁最高	-9.12307
▁找到	-9.12686
▁捐助	-9.1277
地	-9.12772
▁团	-9.12863
▁没	-9.12866
▁英国	-9.12869
▁工人	-9.13077
▁事实	-9.13143
▁检查	-9.13284
▁探讨	-9.13419
▁发出	-9.13443
▁立即	-9.13503
▁不可	-9.13528
▁十年	-9.1353
▁及时	-9.13715
▁电子	-9.13809
▁清单	-9.13909
▁那样	-9.14272
▁上诉	-9.14305
▁指定	-9.14316
▁特定	-9.14524
▁全部	-9.14564
▁明显	-9.14906
▁行使	-9.14908
▁讲习班	-9.14959
▁起诉	-9.15292
▁紧急	-9.15502
▁障碍	-9.15576
▁公正	-9.15594
▁65	-9.15662
▁与会者	-9.15705
▁少数	-9.15853
▁58	-9.15934
▁海洋	-9.16051
▁32	-9.16418
然	-9.16424
▁决策	-9.16471
如	-9.16496
▁律师	-9.16497
▁朋友	-9.16562
▁点	-9.16585
▁身份	-9.16599
▁主管	-9.16626
▁阿拉伯	-9.16695
▁容易	-9.16762
▁损害	-9.16775
▁一系列	-9.16855
▁59	-9.16867
▁疾病	-9.16882
▁各级	-9.17105
▁本身	-9.17249
▁体系	-9.17356
▁出席	-9.1757
▁私营部门	-9.17617
▁高级别	-9.17705
▁2015	-9.17737
往往	-9.17754
▁这次	-9.17781
▁数字	-9.1791
▁一般性	-9.17926
一	-9.1805
▁足够	-9.18176
▁致力于	-9.18257
▁破坏	-9.18676
▁效率	-9.1881
▁全	-9.18954
▁专家组	-9.19026
▁61	-9.19134
▁上午	-9.19135
▁会议室	-9.19425
▁62	-9.19513
▁接触	-9.19523
▁仅	-9.19586
▁组	-9.19803
▁至关重要	-9.19849
▁34	-9.19934
▁视为	-9.19975
▁生命	-9.20104
▁审判	-9.20123
▁33	-9.20141
▁修改	-9.20186
▁领导人	-9.2097
▁处于	-9.20995
▁36	-9.21079
▁48	-9.21132
▁届	-9.21251
▁今年	-9.21338
▁64	-9.21383
▁意味着	-9.21472
▁列	-9.21477
▁专题	-9.21509
▁赞赏	-9.21551
▁物质	-9.21573
▁相互	-9.21617
▁有限	-9.21649
▁那里	-9.21789
▁联合王国	-9.21975
▁药物	-9.22135
▁国际公约	-9.22379
▁重视	-9.22396
▁顾问	-9.22493
▁最新	-9.22508
▁索马里	-9.22616
▁核	-9.22752
▁大约	-9.22861
▁女孩	-9.22924
▁经过	-9.23063
▁澳大利亚	-9.23233
▁适应	-9.2325
▁离开	-9.23507
▁天	-9.23949
▁名单	-9.23987
▁爱	-9.2404
▁此种	-9.24264
▁地雷	-9.24472
▁53	-9.24509
▁数目	-9.24518
▁评论	-9.24538
▁干事	-9.24629
▁任择	-9.24696
▁为什么	-9.24707
▁52	-9.24975
▁居民	-9.25084
▁巨大	-9.25394
▁办	-9.25406
出	-9.25503
▁外地	-9.25554
▁63	-9.25599
▁跟	-9.25723
▁截至	-9.25747
▁开发计划署	-9.2576
▁37	-9.25794
来	-9.25831
▁吃	-9.25847
▁数额	-9.25988
▁人权委员会	-9.26218
▁监狱	-9.26391
▁第三	-9.26449
▁令人	-9.26485
▁1990	-9.26727
▁54	-9.26796
▁之外	-9.26807
▁觉得	-9.26857
▁小时	-9.27013
▁侵害	-9.27067
▁筹资	-9.27077
▁56	-9.27241
▁反应	-9.274
▁所涉	-9.27417
▁大规模	-9.27529
▁以后	-9.27664
▁平衡	-9.27724
▁所作	-9.27736
▁筹备	-9.2788
▁设	-9.27946
▁第一次	-9.27993
▁且	-9.28016
▁以外	-9.28072
▁竞争	-9.28169
▁研讨会	-9.28468
▁研究所	-9.28512
▁停止	-9.28542
▁救济	-9.28995
▁立场	-9.29129
▁机关	-9.29313
▁工作队	-9.29541
▁卢旺达	-9.29549
▁专员	-9.29559
▁66	-9.29614
▁39	-9.30003
▁即使	-9.30089
▁载	-9.30254
▁信托	-9.30299
▁部长	-9.30398
▁力量	-9.30423
▁住	-9.3061
▁理论	-9.30842
▁联	-9.30977
▁万	-9.31158
斯	-9.31375
▁欧盟	-9.31558
▁复杂	-9.31622
▁表决	-9.31702
▁最好	-9.31717
▁巴西	-9.31892
▁行	-9.31933
▁武装冲突	-9.32007
▁人士	-9.32281
▁增进	-9.3234
▁平均	-9.3236
会	-9.32419
▁俄罗斯联邦	-9.32481
▁也许	-9.32779
▁51	-9.32783
▁随后	-9.32931
▁各个	-9.3297
▁商品	-9.32988
▁各自	-9.32989
▁日益	-9.33027
▁唯一	-9.33039
▁货物	-9.33211
▁食物	-9.33587
▁38	-9.33724
▁不足	-9.33822
▁加勒比	-9.33916
▁科索沃	-9.3406
▁听	-9.34072
▁墨西哥	-9.34093
▁过渡	-9.34179
▁'	-9.3427
▁打算	-9.34272
▁谁	-9.34342
▁合理	-9.34402
▁多样性	-9.34518
▁集中	-9.34668
▁全体会议	-9.34795
请	-9.34846
▁压力	-9.3527
▁达	-9.35381
▁联邦	-9.35447
▁49	-9.35476
▁男子	-9.3552
▁职责	-9.35524
▁申诉	-9.35543
前	-9.35617
▁北京	-9.35738
▁指	-9.35964
▁制裁	-9.35972
▁大部分	-9.36018
▁延长	-9.36098
▁"(	-9.36185
▁便	-9.36197
▁电话	-9.36279
他	-9.36308
▁母亲	-9.3643
▁南	-9.36678
▁便利	-9.36794
▁巴基斯坦	-9.37065
▁1992	-9.37152
▁科威特	-9.37152
▁带	-9.37205
▁意识	-9.37451
▁一下	-9.37505
▁攸关	-9.37556
▁五	-9.37694
▁创新	-9.37761
▁67	-9.37781
▁父母	-9.37804
▁转让	-9.37855
▁享受	-9.37903
▁销售	-9.37934
▁47	-9.3798
▁41	-9.38297
▁待遇	-9.38325
▁世纪	-9.38357
▁科	-9.38369
▁CN	-9.38577
▁修正	-9.38579
▁用户	-9.38619
▁而是	-9.38647
▁是因为	-9.38727
▁工程	-9.38852
▁未能	-9.38906
▁股	-9.38971
▁供资	-9.3904
▁阿	-9.39537
▁维也纳	-9.3974
▁获取	-9.3984
▁不再	-9.40018
▁流动	-9.40086
▁无论	-9.40178
▁治理	-9.40204
▁44	-9.40222
▁重建	-9.40225
▁来文	-9.4023
▁账户	-9.40295
我	-9.40347
▁官方	-9.40366
▁率	-9.40412
▁42	-9.40497
▁武装	-9.40548
▁自然	-9.40627
▁大家	-9.40702
▁拉丁美洲	-9.40703
▁分发	-9.40707
▁总体	-9.4083
▁将会	-9.40882
▁开放	-9.40943
▁既	-9.41032
▁罪	-9.41046
▁预测	-9.412
称	-9.41277
▁检察官	-9.41353
▁清楚	-9.41371
▁后果	-9.41398
▁总是	-9.41401
▁法治	-9.41608
▁太平洋	-9.41696
▁土耳其	-9.41755
▁46	-9.41809
▁提及	-9.41851
▁公布	-9.41905
▁福利	-9.42141
▁共和国	-9.42289
▁出来	-9.42346
▁实际上	-9.42439
▁f	-9.42584
▁信任	-9.4274
▁技能	-9.43013
▁放在	-9.43086
▁效果	-9.43379
▁初步	-9.4339
▁显	-9.43435
▁变得	-9.43481
▁埃及	-9.43603
▁资格	-9.43635
▁安保	-9.4366
▁人力资源	-9.43678
▁飞机	-9.43725
▁协调员	-9.43747
▁在于	-9.43916
▁执行局	-9.44137
▁私人	-9.44138
▁攻击	-9.44184
▁虐待	-9.442
▁68	-9.4422
▁种族歧视	-9.44281
▁对此	-9.44332
▁南非	-9.44704
▁当时	-9.44722
▁看法	-9.44744
▁年龄	-9.44766
▁劳工	-9.44793
▁问	-9.44853
▁启动	-9.44911
▁刚果民主共和国	-9.45021
▁态度	-9.45086
▁查明	-9.45089
▁F	-9.45253
▁诉讼	-9.45259
▁包含	-9.45373
▁提请	-9.45574
▁获	-9.4564
▁贷款	-9.45707
▁43	-9.45776
时	-9.45839
▁制造	-9.45926
▁类型	-9.4594
▁太	-9.4602
▁数据库	-9.46069
▁更新	-9.46304
▁500	-9.4664
▁转移	-9.46686
▁劳动	-9.46805
▁外部	-9.46845
▁供应	-9.46947
▁国民	-9.47015
▁成	-9.47025
▁规范	-9.4726
▁利比里亚	-9.47314
▁用途	-9.47346
▁表达	-9.47371
▁残疾	-9.47437
▁起草	-9.47453
▁时期	-9.4757
▁海地	-9.47581
▁org	-9.47678
▁工发	-9.4785
▁返回	-9.47923
▁核查	-9.47942
▁指南	-9.47999
▁灾害	-9.48289
▁方向	-9.4836
▁相对	-9.48406
s	-9.48465
▁事实上	-9.48486
▁途径	-9.48512
▁助理	-9.48516
▁采取措施	-9.48574
▁判决	-9.48578
▁钱	-9.48621
▁组成部分	-9.48633
▁数	-9.48726
▁当然	-9.4885
▁相当	-9.4903
▁意大利	-9.49351
子	-9.49374
▁主席团	-9.49418
尔	-9.49524
▁额外	-9.4954
▁依然	-9.49685
▁不利	-9.49826
▁每天	-9.49844
▁70	-9.49844
▁怎么	-9.50006
▁期限	-9.5001
▁节	-9.50201
▁驻	-9.50346
▁我要	-9.5035
▁观察	-9.50408
届	-9.50414
▁化学品	-9.50533
▁这么	-9.50612
▁须	-9.50721
▁袭击	-9.50747
▁通报	-9.50752
▁心理	-9.51035
▁家	-9.51046
▁特点	-9.51089
▁展开	-9.51098
▁200	-9.51147
▁1991	-9.51235
▁道路	-9.51342
▁投入	-9.51352
▁候选人	-9.51389
▁根本	-9.51417
▁委会	-9.51534
▁一天	-9.51569
▁西班牙	-9.51698
▁G	-9.51766
▁全世界	-9.51782
▁国家一级	-9.51972
▁订正	-9.52049
▁简单	-9.52137
▁瑞士	-9.52166
▁双边	-9.52344
▁附属	-9.52634
▁试验	-9.52762
▁最低	-9.52772
法	-9.52961
▁俄罗斯	-9.53026
▁之中	-9.53072
▁总额	-9.53364
▁客户	-9.53388
▁可能性	-9.535
▁男女	-9.53575
▁哪些	-9.5372
二	-9.53736
说	-9.53739
▁结合	-9.53818
▁多年	-9.53974
▁议事规则	-9.5406
▁案文	-9.54137
▁规模	-9.54263
▁剥夺	-9.54285
▁种族	-9.54319
▁石油	-9.5435
部	-9.5441
要	-9.54478
▁某	-9.54492
该	-9.54564
▁试图	-9.5458
▁难民署	-9.54663
▁状态	-9.54678
▁集体	-9.54748
▁酌情	-9.5479
▁裁决	-9.54881
▁种族主义	-9.54957
▁伊朗	-9.54969
▁维和	-9.54992
▁发布	-9.55008
▁回答	-9.55013
▁事务部	-9.5506
▁中央	-9.55072
▁旅行	-9.55169
▁子女	-9.55191
▁分享	-9.55212
本文	-9.55301
▁暴力行为	-9.55476
▁主流	-9.55571
▁80	-9.5559
▁只要	-9.55645
▁语文	-9.55726
▁指示	-9.55751
▁相比	-9.55767
▁进口	-9.55777
▁所有人	-9.55831
▁77	-9.55962
▁相同	-9.56037
▁达尔富尔	-9.56077
▁强迫	-9.56083
▁透明度	-9.56129
▁妇女地位	-9.56135
▁正确	-9.56211
▁父亲	-9.56226
▁全球化	-9.56263
场	-9.56371
▁I	-9.56381
▁功能	-9.56448
▁美利坚合众国	-9.56454
▁中期	-9.56513
▁更为	-9.5652
▁医生	-9.56639
▁载有	-9.56686
▁第四	-9.56886
▁有时	-9.56932
▁多数	-9.57057
▁干预	-9.57082
▁中东	-9.57291
▁边界	-9.57333
▁错误	-9.5738
▁上升	-9.57638
▁汽车	-9.57722
▁行业	-9.57723
▁有利于	-9.57876
▁主持	-9.57928
▁叫	-9.57969
▁坚持	-9.57995
▁报道	-9.58016
▁外交	-9.58029
▁特设	-9.58306
▁经营	-9.58343
▁加	-9.58415
▁常设	-9.58511
▁解决办法	-9.58582
▁之下	-9.58644
▁现行	-9.58972
▁差异	-9.59044
▁摘要	-9.59249
▁多少	-9.59255
▁争取	-9.59445
▁工程处	-9.5953
▁执法	-9.59568
▁一条	-9.59577
▁长	-9.59622
▁女童	-9.59627
▁相应	-9.5971
▁雇员	-9.59715
▁现金	-9.59776
▁只能	-9.59833
▁一家	-9.60235
▁面前	-9.6026
▁剥削	-9.60263
▁食品	-9.6028
▁正常	-9.60348
▁逮捕	-9.60386
▁差距	-9.60417
▁资本	-9.60439
▁测试	-9.60466
▁打	-9.60519
▁原子能	-9.6062
▁协作	-9.60715
▁叙利亚	-9.60739
成	-9.60748
▁法令	-9.60842
方	-9.60845
▁担保	-9.61093
▁次级	-9.61107
▁颁布	-9.61128
▁津贴	-9.61173
▁啊	-9.61254
▁模型	-9.61319
▁男性	-9.6134
▁写	-9.61358
▁并非	-9.61426
▁去年	-9.61551
▁赞扬	-9.61708
▁原	-9.61851
▁买	-9.6192
▁补救	-9.61933
▁后勤	-9.61934
▁站	-9.6194
家	-9.61947
▁地球	-9.61947
▁失踪	-9.61948
▁感觉	-9.6195
▁科特迪瓦	-9.6201
▁现代	-9.62027
▁民众	-9.62061
▁医院	-9.62069
▁共	-9.62109
▁拉	-9.62114
▁以期	-9.62187
▁切实	-9.62225
▁购买	-9.6224
▁主权	-9.624
国	-9.62432
▁un	-9.62745
▁卫星	-9.63022
▁合法	-9.63133
▁有所	-9.63141
▁投票	-9.63232
▁进步	-9.63314
▁潜在	-9.63362
▁取消	-9.63388
▁拟定	-9.63397
▁军队	-9.63433
▁分类	-9.63514
▁法案	-9.63575
▁找	-9.63577
▁若	-9.6361
▁经历	-9.63839
▁任期	-9.63879
▁科技	-9.63892
▁建筑	-9.63925
▁M	-9.63928
▁预防犯罪	-9.63994
▁尽可能	-9.64044
▁身体	-9.64063
▁确实	-9.64108
▁「	-9.6415
▁」	-9.64254
▁气候	-9.6431
▁秘书	-9.64338
▁逐步	-9.64411
▁世界银行	-9.6447
▁派遣	-9.64588
▁第二次	-9.64641
▁大使	-9.6465
▁层面	-9.64659
▁共识	-9.64687
▁人力	-9.64739
从	-9.6477
▁份	-9.64802
▁非洲联盟	-9.65156
▁严格	-9.65186
次	-9.65288
给	-9.65351
▁阻碍	-9.65401
▁容忍	-9.65441
▁担心	-9.65468
▁货币	-9.65625
▁合并	-9.65642
▁居住	-9.6572
▁遇到	-9.65741
▁90	-9.65779
▁教师	-9.65905
▁高兴	-9.65967
▁减轻	-9.66117
▁单独	-9.663
▁惩罚	-9.66416
▁挪威	-9.66416
▁防治	-9.6657
▁仲裁	-9.6693
▁现实	-9.67089
▁高度	-9.67112
▁阁下	-9.67181
▁环境署	-9.67307
▁用来	-9.67346
▁筹措	-9.6739
▁免费	-9.6745
▁替代	-9.67515
▁青少年	-9.67696
▁女	-9.67702
▁肯定	-9.67714
▁赋予	-9.67732
▁印度尼西亚	-9.67801
▁因而	-9.67968
▁成就	-9.68122
▁即将	-9.68124
▁业绩	-9.68156
▁废物	-9.68169
▁车辆	-9.68178
德	-9.68236
▁六	-9.68279
中	-9.683
入	-9.68492
▁69	-9.68501
▁化	-9.6872
▁出版物	-9.68843
▁诸如	-9.68988
▁制止	-9.69084
▁金	-9.6913
▁实践	-9.69194
式	-9.69256
▁合作伙伴	-9.69259
▁透明	-9.69353
▁证书	-9.69372
▁证实	-9.69449
▁得以	-9.69527
▁荷兰	-9.69662
▁特征	-9.69678
▁处罚	-9.69749
▁除非	-9.69757
▁型	-9.69795
▁强烈	-9.69824
▁阿根廷	-9.69935
▁多个	-9.70064
▁逐	-9.70152
▁消费	-9.70177
未	-9.70241
▁www	-9.70289
▁年代	-9.70418
▁燃料	-9.70458
▁储存	-9.70487
▁平台	-9.70548
▁道	-9.70553
▁转	-9.70574
起	-9.70578
▁家庭暴力	-9.70761
用	-9.70788
▁同一	-9.7082
▁基地	-9.70822
▁公务员	-9.70849
区	-9.70954
▁面对	-9.7105
▁决心	-9.71176
▁满意	-9.712
▁尽	-9.71257
▁申诉人	-9.71458
▁体现	-9.71544
▁四个	-9.71644
▁类别	-9.71743
▁伤害	-9.718
能	-9.71867
▁快速	-9.71871
▁先	-9.71891
▁密切	-9.7199
▁人道主义法	-9.72033
▁法规	-9.72064
▁上文	-9.72172
▁波斯尼亚	-9.722
▁令	-9.72425
▁赞同	-9.72473
▁第一个	-9.72497
▁东帝汶	-9.72509
▁省	-9.72743
▁吁请	-9.7281
▁刑法	-9.72839
▁死	-9.72895
▁未经	-9.7293
▁弹药	-9.72936
▁高专	-9.73062
▁迄今	-9.73182
下	-9.73217
▁别人	-9.73479
▁票	-9.73497
▁调动	-9.73573
▁推进	-9.73582
▁塞拉利昂	-9.73652
▁适合	-9.73655
▁常常	-9.73834
▁级	-9.73891
▁议题	-9.73968
▁出版	-9.74053
▁付款	-9.74064
▁效力	-9.74134
▁保险	-9.74185
▁速度	-9.74213
▁开支	-9.74347
▁新西兰	-9.74384
▁取决于	-9.74404
▁寻找	-9.74549
▁讲	-9.74573
向	-9.74624
▁团结	-9.74627
▁乌克兰	-9.74741
个	-9.74749
▁着重	-9.74986
▁自身	-9.75157
选	-9.75171
▁制作	-9.7529
▁跨国	-9.75443
▁小岛屿	-9.75483
▁道德	-9.75525
▁排放	-9.75537
▁突出	-9.7558
▁以往	-9.75612
▁值得	-9.75657
▁国籍	-9.75717
▁争端	-9.75742
▁对象	-9.75896
▁推广	-9.76062
▁300	-9.76067
▁南斯拉夫	-9.76094
▁普通	-9.76105
▁认可	-9.76121
▁阐述	-9.7617
应	-9.76196
▁瑞典	-9.76221
▁混合	-9.76231
▁估计数	-9.76408
特	-9.76589
▁角度	-9.76627
▁思想	-9.76658
▁附近	-9.76695
▁示范	-9.7671
▁位于	-9.76733
▁比赛	-9.76881
▁想要	-9.76919
▁所载	-9.76929
▁整体	-9.76961
▁反恐	-9.77057
▁自治	-9.77131
▁年底	-9.77133
▁快	-9.77211
▁永远	-9.77226
▁位置	-9.77246
▁污染	-9.77452
▁派	-9.77523
▁哥伦比亚	-9.77548
▁后来	-9.77557
▁尼日利亚	-9.77587
▁监管	-9.77589
▁融资	-9.77614
▁曾经	-9.77615
内	-9.77977
▁装置	-9.78099
▁释放	-9.78128
▁回应	-9.78185
▁共同体	-9.78334
里	-9.78471
▁可靠	-9.78572
▁更大	-9.78573
▁男人	-9.78626
▁例子	-9.78634
▁妨碍	-9.78699
▁巩固	-9.78712
▁失去	-9.78777
▁儿子	-9.78873
▁一旦	-9.78879
▁g	-9.78972
▁文	-9.79016
▁难以	-9.79198
▁埃塞俄比亚	-9.79358
▁该项	-9.79522
▁咨	-9.7955
▁款项	-9.79718
▁谴责	-9.79744
同时	-9.79753
▁自然资源	-9.79799
▁拿	-9.79867
▁大楼	-9.79956
▁涵盖	-9.80005
▁放弃	-9.80067
▁危害	-9.80143
▁0	-9.80191
▁概述	-9.80196
2	-9.80271
▁武装部队	-9.80308
▁布隆迪	-9.80459
▁命令	-9.80464
▁马	-9.80506
▁老	-9.80515
化	-9.80633
▁吸引	-9.80643
▁全体	-9.80676
▁直到	-9.80852
▁参考	-9.80866
▁记者	-9.80897
▁动物	-9.80903
▁局	-9.80966
▁代理	-9.81007
预	-9.81009
▁还要	-9.81059
▁H	-9.81097
▁融入	-9.81184
▁女人	-9.81213
▁相	-9.81432
▁首次	-9.81669
▁亦	-9.81699
▁外层空间	-9.81732
▁不到	-9.81817
▁专门机构	-9.81906
▁场所	-9.81917
▁族裔	-9.81943
▁荒漠化	-9.82023
▁摩洛哥	-9.82039
▁加沙	-9.82109
▁南部	-9.82176
▁北	-9.82201
▁修正案	-9.82378
▁捐助者	-9.82401
▁婚姻	-9.82438
▁显著	-9.82454
▁几年	-9.82457
▁确立	-9.82494
后	-9.82655
▁图	-9.82662
▁谨	-9.82748
▁书面	-9.8279
▁生殖	-9.82882
▁可是	-9.82907
▁运行	-9.8301
▁死刑	-9.83013
▁无核武器	-9.83054
▁投资者	-9.83071
▁意愿	-9.83075
▁一体化	-9.83132
▁死亡率	-9.83369
▁工资	-9.83567
▁声称	-9.83576
▁近	-9.83637
▁一套	-9.83725
▁审理	-9.83772
名	-9.83829
▁受理	-9.83913
▁一道	-9.84034
▁软件	-9.84406
▁依赖	-9.8456
▁花	-9.84577
▁脆弱	-9.8471
▁恶化	-9.84754
▁庇护	-9.84835
▁政治权利	-9.84872
▁腐败	-9.84917
▁公共部门	-9.84922
▁成绩	-9.84938
▁别	-9.8495
▁证人	-9.84984
▁装备	-9.8506
▁自我	-9.85105
▁注重	-9.85143
及	-9.85212
▁产出	-9.85254
▁菲律宾	-9.85513
▁期待	-9.85523
▁联合会	-9.85542
▁消费者	-9.85617
▁实验	-9.8562
▁具备	-9.85795
▁开	-9.85803
▁共计	-9.85952
▁争议	-9.85954
▁分摊	-9.85972
▁真的	-9.86056
▁信贷	-9.86075
▁刚	-9.86079
▁信息技术	-9.86112
▁劳动力	-9.86164
▁职务	-9.86167
▁不得不	-9.86213
▁加快	-9.86305
▁中有	-9.86338
▁手册	-9.86391
作	-9.86414
▁衡量	-9.86543
▁终止	-9.86648
▁尽快	-9.86718
▁总理	-9.86793
▁怎样	-9.86837
▁受害人	-9.87029
▁神	-9.87032
▁泰国	-9.8712
▁期望	-9.87193
▁描述	-9.87331
▁年轻	-9.87348
▁仅仅	-9.87387
▁简要	-9.87496
▁感染	-9.87626
▁两种	-9.87688
▁利比亚	-9.87813
▁旅游	-9.87825
▁过境	-9.88007
▁斗争	-9.88018
条	-9.88112
▁准确	-9.88304
本	-9.88589
▁澄清	-9.88687
▁发起	-9.8874
▁英文	-9.88837
▁管辖权	-9.88927
▁T	-9.8894
▁75	-9.89011
▁乌干达	-9.89064
▁物品	-9.8913
▁讨论会	-9.8915
▁痛苦	-9.89297
▁建造	-9.89332
▁细则	-9.89361
▁清洁	-9.89464
▁州	-9.8951
▁员工	-9.89573
▁很快	-9.8968
▁征聘	-9.89708
▁监禁	-9.89783
▁情报	-9.89812
▁驱逐	-9.89842
▁认真	-9.89919
经	-9.89923
▁电影	-9.90128
▁管理局	-9.9013
具	-9.90142
▁有着	-9.90147
▁核裁军	-9.90196
▁怀疑	-9.90307
▁就此	-9.90333
▁阿尔及利亚	-9.90382
1	-9.90408
政府	-9.90509
▁部长级	-9.9052
▁引渡	-9.90535
▁本次	-9.90579
▁界定	-9.90589
▁规划署	-9.90696
▁续	-9.90896
▁图书馆	-9.90952
▁格鲁吉亚	-9.90957
▁年度报告	-9.91066
▁互动	-9.91144
▁最初	-9.91146
▁持久	-9.91188
▁很少	-9.91233
▁少	-9.91247
▁薪金	-9.91258
▁设想	-9.91318
发	-9.91396
▁列出	-9.91397
▁雇主	-9.9141
▁西	-9.91439
▁留	-9.91447
▁经委会	-9.91504
▁运用	-9.91522
▁彻底	-9.91528
▁周期	-9.91587
▁被告	-9.9161
▁卡	-9.91688
▁时代	-9.91766
▁声音	-9.91868
▁实地	-9.92035
▁计算机	-9.9206
▁询问	-9.92156
▁看见	-9.92192
▁负担	-9.92202
项	-9.92238
▁自动	-9.92311
▁赞成	-9.9233
▁和解	-9.92342
▁书	-9.92375
▁正是	-9.92437
▁重返	-9.92448
▁听取	-9.92448
▁应急	-9.92514
▁宗旨	-9.92538
▁定于	-9.92634
▁想法	-9.92645
▁言	-9.92706
▁妻子	-9.9288
▁艺术	-9.92926
▁推迟	-9.93046
▁效益	-9.93078
▁阻止	-9.93115
▁学院	-9.93125
▁刚果	-9.93178
▁三年	-9.93264
▁任意	-9.93322
▁设法	-9.93471
▁空缺	-9.93702
▁听到	-9.93768
克	-9.93799
▁提供援助	-9.94012
▁人居	-9.94014
型	-9.94059
▁好处	-9.94143
▁低于	-9.94255
▁养	-9.94258
▁少数民族	-9.94308
▁黑塞哥维那	-9.94335
▁肯尼亚	-9.94335
▁共有	-9.9435
▁称为	-9.94385
▁有利	-9.94396
▁发言者	-9.94425
▁老年人	-9.94435
▁掌握	-9.94445
▁患者	-9.94467
▁第三次	-9.94469
▁已有	-9.94722
▁设置	-9.94732
▁一场	-9.9477
▁早	-9.9478
▁会计	-9.94861
▁与其	-9.94901
▁特性	-9.94943
而	-9.95022
▁飞行	-9.95056
▁金融机构	-9.95202
▁观察团	-9.95219
▁照顾	-9.95225
▁前往	-9.9529
▁两次	-9.95378
▁斯	-9.95467
▁潜力	-9.95685
▁德	-9.95755
▁量	-9.95781
▁阿塞拜疆	-9.95867
▁与此	-9.95897
▁西非	-9.95952
▁教授	-9.96062
▁拨款	-9.96108
▁供应商	-9.96113
▁口头	-9.96168
▁案	-9.96185
机	-9.96436
▁海关	-9.96469
▁受益	-9.96513
▁规约	-9.96543
▁重复	-9.96566
▁财务报表	-9.96567
▁页	-9.96585
▁多种	-9.9662
▁讲话	-9.9662
▁操作	-9.96628
▁智利	-9.96706
▁管辖	-9.96759
▁塞浦路斯	-9.9679
渐	-9.96808
▁备	-9.96964
▁减贫	-9.96981
▁补偿	-9.97012
▁变成	-9.97017
▁克服	-9.97033
不	-9.97053
▁豁免	-9.97137
▁马来西亚	-9.97193
▁护理	-9.9725
学	-9.97406
▁机场	-9.97451
▁应付	-9.97472
▁奥地利	-9.97498
▁提名	-9.97517
▁丈夫	-9.9752
▁伊斯兰	-9.97638
▁兴趣	-9.97752
▁关心	-9.97752
悉	-9.97839
▁气体	-9.97897
▁欧元	-9.97962
▁销毁	-9.9811
▁罗马	-9.98142
▁许可证	-9.98187
▁百分比	-9.98196
▁裁军谈判	-9.98242
▁发	-9.98477
▁交换	-9.98552
▁手	-9.98633
▁恤金	-9.98637
▁教学	-9.9878
▁敏感	-9.98809
▁五年	-9.98835
▁两名	-9.98963
▁意思	-9.99083
▁厄立特里亚	-9.99088
▁谅解	-9.99277
▁事业	-9.99361
▁创建	-9.99366
▁400	-9.99437
▁公民权利	-9.99497
▁外勤	-9.99508
▁通讯	-9.99529
▁转变	-9.99605
▁排除	-9.9969
▁真	-9.99701
▁额	-9.99788
▁角色	-9.9991
▁削减	-9.99926
▁建设性	-10.0003
▁案例	-10.0007
通	-10.0017
▁检测	-10.002
▁短期	-10.0024
▁世界各地	-10.003
▁提醒	-10.0035
如果	-10.0035
▁要素	-10.0048
▁深入	-10.0051
▁安装	-10.0061
▁失败	-10.0067
▁缅甸	-10.0069
▁或许	-10.008
▁回到	-10.0082
三	-10.0084
▁注册	-10.0086
▁密切合作	-10.0094
▁大型	-10.0096
▁新闻部	-10.011
▁出于	-10.011
▁伊朗伊斯兰共和国	-10.0115
▁哪	-10.0124
▁将来	-10.014
▁联络	-10.0146
▁希腊	-10.0154
▁东道国	-10.0169
▁可行	-10.0183
▁取代	-10.0186
▁或是	-10.0201
▁初级	-10.0204
▁事先	-10.0214
▁外国人	-10.0217
头	-10.0223
点	-10.0225
▁加上	-10.0231
▁完善	-10.0241
▁出生	-10.0242
▁前景	-10.0245
▁发放	-10.0246
度	-10.0261
▁朝	-10.0286
▁七	-10.03
▁备忘录	-10.0304
▁现	-10.031
▁主张	-10.0311
▁他人	-10.0312
▁阿拉伯叙利亚共和国	-10.0315
▁当选	-10.0319
当	-10.0322
▁巴黎	-10.0334
▁许可	-10.0338
▁某种	-10.0351
▁教科文组织	-10.0354
▁伦敦	-10.0358
▁指数	-10.0365
▁总数	-10.0376
▁加速	-10.039
▁告知	-10.0392
▁收益	-10.0405
▁我会	-10.0406
过	-10.0408
▁连	-10.0414
▁协商一致	-10.0415
▁优势	-10.0418
▁经济体	-10.0421
▁五个	-10.0425
▁名字	-10.0429
▁遵循	-10.043
▁互联网	-10.0433
▁看来	-10.0444
▁早期	-10.0448
a	-10.0449
▁主动	-10.0461
▁米	-10.0464
▁名义	-10.0464
▁士兵	-10.0469
所	-10.0473
▁惯例	-10.0473
▁这份	-10.0506
▁亿	-10.0516
▁家人	-10.0528
▁会上	-10.0542
▁农民	-10.0547
▁完整	-10.055
▁600	-10.0551
▁跨	-10.0555
▁情形	-10.0562
▁发射	-10.0565
▁印发	-10.0565
▁结婚	-10.0568
▁营养	-10.0572
▁一半	-10.0573
▁上帝	-10.0581
▁几	-10.0583
▁否则	-10.0584
▁失业	-10.0584
▁单	-10.0587
▁不够	-10.0588
▁保存	-10.059
▁每月	-10.0595
▁相反	-10.0607
▁看看	-10.0617
▁另一	-10.0624
▁导言	-10.0627
▁网	-10.0629
▁陈述	-10.064
▁工会	-10.0649
▁缺少	-10.065
▁人格	-10.0653
▁体育	-10.0661
▁AC	-10.0661
▁不管	-10.0663
▁限度	-10.0678
▁这位	-10.0679
▁丹麦	-10.0679
▁出售	-10.0682
▁北部	-10.0692
▁大韩民国	-10.0696
水	-10.0699
▁十一届	-10.0704
▁议员	-10.0705
▁消息	-10.0717
▁培养	-10.0717
▁始终	-10.072
▁R	-10.0724
▁费	-10.0727
我们	-10.0731
▁有益	-10.0735
▁有用	-10.0757
▁故事	-10.0759
▁K	-10.0761
▁丰富	-10.0761
▁囚犯	-10.0762
▁拟	-10.0762
▁式	-10.0769
族	-10.0779
▁年轻人	-10.0779
▁近东	-10.0789
▁翻译	-10.0789
▁委员	-10.079
▁一只	-10.0791
▁卖淫	-10.0812
达	-10.0817
▁补贴	-10.0827
▁绝对	-10.0837
▁渔业	-10.0855
▁市	-10.0869
▁不久	-10.0871
▁明白	-10.0872
▁生态系统	-10.0873
▁人人	-10.089
▁比如	-10.0892
▁作业	-10.0899
▁约旦	-10.0904
▁心	-10.0909
▁观念	-10.0911
▁尊严	-10.0912
▁名额	-10.0915
▁不论	-10.0915
▁波兰	-10.0924
3	-10.0925
▁暂停	-10.0949
好	-10.0954
▁克罗地亚	-10.0955
▁各类	-10.0958
▁测量	-10.0962
▁星期	-10.0967
▁交付	-10.0976
▁孟加拉国	-10.0977
▁随时	-10.0994
▁任	-10.0999
▁粮农组织	-10.101
▁滥用	-10.1019
▁独特	-10.102
▁国际法庭	-10.1033
市	-10.1034
▁音乐	-10.1034
▁警方	-10.1052
▁一件	-10.1058
▁来看	-10.106
▁积极参与	-10.1061
▁致	-10.1067
▁Al	-10.1082
▁72	-10.1087
▁穿	-10.1095
▁概算	-10.1099
▁内罗毕	-10.1103
▁安哥拉	-10.1114
▁越	-10.1121
▁职等	-10.1127
▁安置	-10.1129
▁为期	-10.1143
A	-10.1145
▁兼	-10.1155
▁白俄罗斯	-10.116
▁加剧	-10.1162
▁紧张	-10.118
▁缔结	-10.1188
▁习惯	-10.1189
▁特遣队	-10.1191
▁移交	-10.12
▁基准	-10.1209
▁方便	-10.1213
▁电脑	-10.1213
▁特	-10.1216
▁芬兰	-10.1216
▁驻地	-10.1218
▁各地	-10.1226
▁分布	-10.1232
▁雇用	-10.1236
▁Rev	-10.1238
▁对待	-10.1251
大	-10.1254
▁h	-10.1265
▁自然灾害	-10.1268
▁有害	-10.1269
▁首席	-10.1286
▁组合	-10.1293
▁康复	-10.1305
▁任何人	-10.1325
▁婴儿	-10.1357
▁身上	-10.136
▁理想	-10.1365
▁生存	-10.1366
▁秘鲁	-10.1367
▁突尼斯	-10.1367
▁71	-10.1371
▁以此	-10.1381
▁极	-10.1384
▁推行	-10.1385
▁志愿人员	-10.1385
▁当事人	-10.14
▁上海	-10.1412
▁强化	-10.1413
文	-10.1415
▁可持续性	-10.1423
▁主办	-10.1424
▁房间	-10.1426
▁门	-10.1427
▁废除	-10.1429
▁坚定	-10.1431
体	-10.1433
▁充足	-10.144
▁连续	-10.1448
▁政党	-10.145
拉	-10.1455
▁分子	-10.1465
▁马里	-10.1482
▁文章	-10.1482
▁于是	-10.1483
▁男孩	-10.1495
▁毁灭性	-10.1502
▁分庭	-10.1507
▁交通	-10.1509
▁话	-10.152
▁第四次	-10.1529
▁资源管理	-10.1534
▁裁定	-10.1537
▁最高法院	-10.154
▁着手	-10.1541
▁改为	-10.1543
▁回	-10.1551
▁约束力	-10.1552
▁投诉	-10.1553
线	-10.1556
▁恐怖	-10.1557
管	-10.157
▁认定	-10.1574
▁比利时	-10.1586
▁件	-10.1587
▁扩展	-10.1589
▁体	-10.159
▁会计准则	-10.1592
▁事态	-10.1595
▁头	-10.1597
▁提升	-10.1597
生	-10.1599
▁调解	-10.1612
▁近年来	-10.1616
▁汇编	-10.1621
▁路	-10.1622
▁柬埔寨	-10.1622
▁病人	-10.1626
▁比率	-10.1627
▁信仰	-10.1631
▁第二个	-10.1631
▁月份	-10.1632
▁眼睛	-10.1632
▁耶和华	-10.1635
▁负责人	-10.1644
▁附加	-10.1649
▁文本	-10.1651
▁关闭	-10.1664
▁方针	-10.1672
▁时间表	-10.1673
▁小型	-10.1679
▁邻国	-10.1681
对	-10.1682
▁灾难	-10.1684
▁尼泊尔	-10.169
▁动态	-10.1694
▁国外	-10.1695
▁下面	-10.1695
▁性能	-10.1706
▁送	-10.1707
▁融合	-10.1718
▁策略	-10.1723
▁室	-10.1742
▁接近	-10.1747
▁海外	-10.1748
▁广告	-10.1748
▁问责制	-10.1751
所谓	-10.1751
▁总结	-10.1764
▁管理人员	-10.1766
▁危地马拉	-10.1766
▁星期一	-10.1771
▁关联	-10.1773
▁信心	-10.1776
▁地震	-10.178
▁73	-10.1787
▁於	-10.1795
▁私营	-10.1797
▁法定	-10.18
▁房屋	-10.1804
▁专门知识	-10.1804
▁星期五	-10.1811
量	-10.1814
▁电视	-10.1819
▁缺陷	-10.1825
▁衣服	-10.1826
▁持有	-10.1833
▁目录	-10.1836
▁任职	-10.1842
▁纪念	-10.1842
▁名称	-10.1848
▁国际贸易	-10.1849
▁N	-10.185
▁内陆	-10.1851
▁处境	-10.1857
▁位	-10.1857
▁八	-10.1857
▁车	-10.1864
▁热	-10.1878
▁后者	-10.1878
▁支援	-10.188
▁复员	-10.1886
▁金属	-10.1887
▁本人	-10.1888
▁突然	-10.1899
▁何种	-10.1902
▁间接	-10.1908
▁其他人	-10.1909
▁科学家	-10.1919
▁格式	-10.1921
▁极大	-10.1923
▁得出	-10.1937
▁先前	-10.194
▁协同	-10.1943
▁74	-10.1944
▁依靠	-10.1954
▁核定	-10.1958
▁移动	-10.196
▁妈妈	-10.1968
▁美洲	-10.1968
▁象	-10.1973
▁例	-10.199
科	-10.2
▁知识产权	-10.2001
▁帮	-10.2001
▁董事会	-10.2009
▁斯里兰卡	-10.2019
▁连接	-10.2027
▁渠道	-10.2028
▁800	-10.2029
期	-10.2032
▁放	-10.2058
▁行政当局	-10.2065
▁灵活	-10.2067
尼	-10.207
面	-10.2072
▁穷人	-10.2074
▁等待	-10.2078
▁核可	-10.2093
▁探索	-10.2099
▁新加坡	-10.21
▁极端	-10.2101
笔	-10.2104
4	-10.2112
▁国际法院	-10.2115
▁的确	-10.2124
▁表面	-10.2146
▁性暴力	-10.2156
▁变革	-10.2159
行	-10.216
▁固定	-10.2167
▁化学	-10.2167
制	-10.2171
▁杀伤	-10.2174
▁房子	-10.2176
▁事故	-10.2179
▁海洋法	-10.2182
▁纲要	-10.2189
▁标志	-10.2191
▁干	-10.2206
▁一国	-10.2217
▁坚决	-10.222
▁种	-10.2223
▁反腐败	-10.2227
▁南南合作	-10.223
▁推出	-10.223
▁下来	-10.2238
▁委内瑞拉	-10.2243
▁现状	-10.2244
▁企图	-10.2245
▁缓解	-10.2247
▁不人道	-10.225
▁发言人	-10.2251
▁中国政府	-10.2261
▁爆炸	-10.2265
▁考试	-10.2269
▁76	-10.2274
器	-10.2277
▁塞尔维亚	-10.2289
▁主	-10.229
▁加工	-10.2325
▁强奸	-10.2326
▁绿色	-10.2333
▁首长	-10.2334
▁地理	-10.2336
▁看起来	-10.2341
▁汞	-10.2342
▁上空	-10.2342
受	-10.2344
▁载于	-10.2348
▁植物	-10.2349
▁签名	-10.235
▁退休	-10.2351
▁单一	-10.236
▁当中	-10.2363
▁受伤	-10.2366
▁病毒	-10.2374
▁跟踪	-10.2377
▁周	-10.2379
▁深	-10.2379
▁单方面	-10.238
道	-10.2381
▁拖延	-10.2381
▁个别	-10.2385
▁彼此	-10.2388
▁贸易法	-10.239
▁巴勒斯坦人	-10.2391
▁伊	-10.2392
▁周围	-10.2392
▁那种	-10.2397
▁如今	-10.2397
早	-10.2398
▁配置	-10.2405
▁排雷	-10.2409
▁表格	-10.2415
▁有罪	-10.242
▁快乐	-10.2423
▁越南	-10.2427
▁共享	-10.2432
▁85	-10.2432
▁秘密	-10.2435
▁极为	-10.2436
▁厄瓜多尔	-10.2438
同	-10.245
利	-10.2466
▁签订	-10.2466
▁各位	-10.2479
▁社会保障	-10.2487
加	-10.249
▁大大	-10.2494
▁警告	-10.2496
▁用品	-10.25
▁暂时	-10.252
▁J	-10.2521
州	-10.2522
▁武力	-10.2531
▁分散	-10.2534
▁学会	-10.2539
▁晚上	-10.2541
▁充满	-10.2541
▁不想	-10.2543
▁民事	-10.2545
▁正义	-10.2555
▁爱尔兰	-10.2556
▁删除	-10.2576
▁说法	-10.2581
▁召集	-10.2582
▁多次	-10.2584
▁区别	-10.2586
▁78	-10.2592
▁做到	-10.2597
▁SR	-10.26
▁汇报	-10.26
▁幸福	-10.2602
▁此项	-10.2604
▁不应	-10.2605
▁可用	-10.2608
▁遣返	-10.2615
▁参数	-10.2622
这	-10.2624
卡	-10.2636
间	-10.2638
就	-10.2642
▁i	-10.2645
▁开幕	-10.2667
▁值	-10.2678
▁丧失	-10.2681
▁联合国开发计划署	-10.2683
▁援助团	-10.2685
▁法语	-10.2686
▁汇率	-10.2692
▁审评	-10.2696
长	-10.2698
▁转型	-10.2699
▁负债	-10.2703
▁之内	-10.2704
▁守则	-10.2707
▁国别	-10.2707
▁来到	-10.2708
▁网上	-10.2719
▁有力	-10.2727
▁回来	-10.2737
▁边境	-10.274
▁一方面	-10.274
▁转递	-10.2744
▁被迫	-10.2751
▁强大	-10.2754
因此	-10.2761
▁必要性	-10.2761
▁终	-10.2769
▁罪犯	-10.2771
▁半	-10.2774
▁进	-10.2782
▁偿还	-10.279
▁两项	-10.2798
▁西方	-10.2799
▁凡	-10.2799
▁从来	-10.28
去	-10.2805
▁余额	-10.2809
▁能否	-10.2809
▁订立	-10.2811
▁细胞	-10.2818
▁竞争力	-10.282
▁摊款	-10.282
▁某个	-10.2832
▁维修	-10.2846
多	-10.2847
▁沟通	-10.2848
车	-10.2856
▁协调一致	-10.2864
▁处置	-10.2873
▁残忍	-10.2878
▁秩序	-10.288
▁怀孕	-10.2882
▁上面	-10.2886
▁绩效	-10.2887
▁强	-10.2892
▁繁荣	-10.2897
▁日起	-10.2898
▁问责	-10.2907
▁分列	-10.2909
▁领空	-10.2917
▁药品	-10.2917
▁坐在	-10.2923
▁感兴趣	-10.2933
▁地带	-10.2936
▁级别	-10.2937
▁说话	-10.2937
▁披露	-10.2939
▁跑	-10.294
▁空气	-10.2961
▁有机	-10.2961
▁简化	-10.2978
▁212	-10.2979
▁空中	-10.2981
▁信号	-10.2989
▁视察	-10.2989
▁形势	-10.299
力	-10.3001
▁老师	-10.3004
▁处决	-10.3007
▁这类	-10.3008
▁强调指出	-10.3009
▁120	-10.3014
▁700	-10.3016
▁假设	-10.3021
▁外交部长	-10.3022
▁第一届	-10.3029
▁现代化	-10.3029
▁照片	-10.3038
▁京都	-10.3049
▁美	-10.3051
▁刺激	-10.3054
▁小学	-10.3072
马	-10.3072
▁阅读	-10.3074
▁远	-10.3076
▁所属	-10.3077
外	-10.3085
▁亚美尼亚	-10.3093
▁愿望	-10.3095
▁属	-10.3095
▁轻武器	-10.3104
▁紧急情况	-10.3109
▁国务院	-10.3112
▁就业机会	-10.3114
▁财富	-10.3114
▁葡萄牙	-10.3124
▁统计数据	-10.3133
▁还应	-10.3138
▁愿	-10.3147
▁应有	-10.3148
▁提	-10.3152
▁很难	-10.3154
▁产业	-10.3154
▁质疑	-10.3164
局	-10.3172
▁大幅	-10.3185
▁95	-10.319
▁中间	-10.3192
▁遗憾	-10.3202
▁帐户	-10.3204
▁职权范围	-10.3205
▁生态	-10.3211
▁以为	-10.3211
▁人群	-10.3211
▁实质	-10.3215
▁终了	-10.3216
▁短	-10.3223
▁81	-10.3224
▁难	-10.3224
▁展示	-10.3231
▁引发	-10.3237
▁塞内加尔	-10.3239
▁合适	-10.3252
▁仇外	-10.3256
▁地域	-10.327
▁明天	-10.327
▁工艺	-10.3282
▁诊断	-10.3285
▁金额	-10.3287
▁时限	-10.329
▁不妨	-10.3292
已	-10.3298
▁加纳	-10.3298
▁韩国	-10.3305
山	-10.3308
第	-10.3308
▁星期四	-10.3313
▁前提	-10.3322
▁假	-10.3323
▁尝试	-10.3327
▁北爱尔兰	-10.3328
▁解决方案	-10.3331
▁查阅	-10.3337
▁区域合作	-10.334
▁一步	-10.3342
▁多样化	-10.3342
▁朝鲜民主主义人民共和国	-10.3343
▁79	-10.335
▁轨道	-10.3352
▁双	-10.3355
▁四年	-10.3355
▁法律援助	-10.3375
▁开会	-10.3379
▁女儿	-10.3382
▁中非共和国	-10.3384
▁航空	-10.3388
此外	-10.3394
▁过度	-10.3399
▁1989	-10.3404
▁十五届	-10.3405
▁其余	-10.3408
▁文明	-10.341
▁照料	-10.3412
▁预算外	-10.3416
▁世贸组织	-10.3426
▁一张	-10.3433
▁依法	-10.3436
往	-10.3437
任	-10.345
▁这儿	-10.346
▁领取	-10.347
▁到达	-10.347
▁变动	-10.3471
▁现已	-10.3471
▁高于	-10.3487
▁游戏	-10.3492
▁重	-10.3492
▁别的	-10.3498
▁贩卖	-10.3503
▁税收	-10.3503
的	-10.3508
▁捐助国	-10.351
至	-10.3515
▁元	-10.3524
▁监察员	-10.3535
▁星期二	-10.3538
▁犯下	-10.3538
▁有辱	-10.3538
▁粮食安全	-10.3539
▁工厂	-10.3545
▁追求	-10.3547
▁本地	-10.3548
▁倾向	-10.3558
门	-10.3563
▁东部	-10.3565
▁$	-10.3569
▁规章	-10.3573
▁罗马尼亚	-10.3583
▁150	-10.359
▁乌拉圭	-10.3593
▁配合	-10.3597
▁碳	-10.3597
▁圣	-10.3601
▁有限公司	-10.3614
▁干旱	-10.3618
▁库存	-10.3618
▁破产	-10.362
款	-10.3623
▁入侵	-10.3625
▁继承	-10.3626
▁档案	-10.3631
▁一方	-10.3632
▁非殖民化	-10.3635
▁章	-10.3639
▁哥斯达黎加	-10.364
▁效应	-10.3643
▁解除武装	-10.3647
▁杀害	-10.3652
▁索赔人	-10.3655
▁留下	-10.3656
▁促成	-10.3656
▁谈到	-10.3661
▁公路	-10.3667
▁82	-10.3669
▁沙特阿拉伯	-10.3677
▁参照	-10.3677
C	-10.37
▁限	-10.3705
▁领袖	-10.3707
▁阐明	-10.3708
▁国际标准	-10.371
▁批评	-10.3712
▁98	-10.3712
▁常会	-10.3714
▁咨询服务	-10.3714
▁为止	-10.3719
▁记得	-10.3722
▁男女平等	-10.3725
和	-10.373
▁宝贵	-10.3737
▁乍得	-10.3745
▁由此	-10.3759
▁星期三	-10.376
▁至于	-10.3762
▁选出	-10.3764
▁定罪	-10.3768
▁含有	-10.377
▁有效性	-10.3771
▁升级	-10.3772
▁83	-10.3775
▁生	-10.3781
▁根源	-10.3783
▁查询	-10.3785
▁海	-10.3788
▁"1	-10.3795
处	-10.3796
▁包容性	-10.3798
▁○	-10.3803
图	-10.3803
▁真是	-10.3804
▁西亚	-10.3808
语	-10.3813
▁每次	-10.3824
比	-10.3825
▁好像	-10.3828
▁识别	-10.3833
▁经验教训	-10.3836
▁>	-10.3837
▁饥饿	-10.384
▁合格	-10.3841
▁完	-10.3843
▁诉	-10.3864
她	-10.3864
▁第二届	-10.3866
▁就要	-10.387
▁温室	-10.3876
信	-10.3878
▁不幸	-10.3881
▁没收	-10.3881
▁加大	-10.3882
▁发行	-10.3903
▁奥	-10.391
种	-10.3914
▁包	-10.3914
▁兄弟	-10.3921
▁众多	-10.3923
▁左右	-10.3935
▁净额	-10.3945
▁真实	-10.3964
▁物体	-10.397
▁海上	-10.3983
▁行事	-10.3992
▁监察	-10.4006
指出	-10.4007
▁有点	-10.4011
你	-10.4012
▁87	-10.4016
▁安全部队	-10.4018
▁当事方	-10.402
▁导弹	-10.4032
▁业	-10.4033
▁经理	-10.4044
▁选民	-10.4047
▁作品	-10.4051
▁台湾	-10.4054
▁光	-10.4054
▁检验	-10.4055
▁从未	-10.4057
▁区分	-10.4061
▁哈	-10.4069
天	-10.408
▁清除	-10.4081
▁所说	-10.4085
▁庆祝	-10.4088
▁在线	-10.4095
▁交给	-10.4106
▁消耗	-10.4106
▁赢得	-10.4109
▁抗	-10.4113
▁因特网	-10.4113
▁等等	-10.4115
▁约翰	-10.4116
▁至今	-10.4119
▁响应	-10.4131
▁利润	-10.4131
▁节目	-10.4136
▁动力	-10.4137
▁内部监督	-10.4139
▁是从	-10.414
▁外交部	-10.4149
▁基	-10.4153
▁联刚	-10.4154
▁流行	-10.4155
▁客观	-10.4159
▁种植	-10.4159
▁靠	-10.4161
▁定为	-10.417
表明	-10.4175
▁公里	-10.4175
▁亚	-10.4179
▁总干事	-10.4186
▁@	-10.4189
▁96	-10.419
布	-10.4195
些	-10.42
▁首要	-10.42
▁V	-10.4201
▁地址	-10.4202
▁打开	-10.4203
▁物资	-10.4203
▁南方	-10.4205
▁时至	-10.4205
▁最为	-10.4205
▁提起	-10.4206
▁发展权	-10.4207
▁+	-10.4209
▁万人	-10.4209
▁界	-10.4209
▁实验室	-10.4211
▁制	-10.4211
▁奥巴马	-10.4215
▁永久	-10.4217
▁坐	-10.4218
▁分钟	-10.4218
▁玻利维亚	-10.4222
▁旧	-10.4233
▁细节	-10.4234
▁84	-10.4242
▁奥运会	-10.4242
▁对付	-10.4255
▁相当于	-10.4255
▁侵略	-10.4255
▁现场	-10.4256
▁同事	-10.4256
▁穆斯林	-10.4265
▁多哈	-10.427
▁撤销	-10.4271
▁里面	-10.4272
▁思考	-10.4277
▁匈牙利	-10.428
▁标题	-10.428
▁必需	-10.4284
▁船	-10.4291
▁对策	-10.4297
▁所有权	-10.4299
▁86	-10.43
队	-10.4301
▁该法	-10.4303
▁岛屿	-10.4311
▁作出贡献	-10.4313
▁常规武器	-10.4313
▁伟大	-10.4313
▁生产总值	-10.4316
▁巴	-10.4319
▁纪律	-10.432
▁登记册	-10.4321
▁化学武器	-10.4321
▁证券	-10.4323
▁草坪	-10.4327
▁天气	-10.4327
▁对外	-10.4328
年	-10.4338
▁家里	-10.4341
▁一贯	-10.4349
▁纠正	-10.435
B	-10.4351
▁捷克共和国	-10.4355
▁必要措施	-10.4363
▁度	-10.4363
▁覆盖	-10.4367
▁九	-10.4367
▁尼加拉瓜	-10.4375
▁时刻	-10.4383
▁团队	-10.4394
▁合	-10.4395
▁1988	-10.4395
▁利	-10.4401
▁转交	-10.4407
▁动员	-10.4423
▁利率	-10.4426
▁例外	-10.4435
▁哈萨克斯坦	-10.4439
▁简报	-10.4445
▁主管部门	-10.4457
开	-10.4459
▁这件	-10.446
▁109	-10.4462
▁种种	-10.4463
▁第二条	-10.4465
森	-10.4465
▁发了	-10.4474
▁其实	-10.4475
▁图像	-10.4482
▁萨尔瓦多	-10.4485
▁均衡	-10.4488
▁制约	-10.4491
▁编辑	-10.4502
▁实例	-10.4504
▁疟疾	-10.4508
▁少年	-10.4512
▁水资源	-10.4513
▁回收	-10.452
▁大不列颠	-10.4521
▁零	-10.4522
▁超出	-10.4526
率	-10.4527
▁900	-10.4534
花	-10.4546
▁92	-10.455
▁差别	-10.4551
▁观测	-10.456
▁提高认识	-10.4562
▁往	-10.4564
▁退化	-10.4567
▁咨商	-10.4569
▁地面	-10.4578
▁发给	-10.4579
▁105	-10.4586
为止	-10.4587
将	-10.4592
▁违背	-10.4594
▁99	-10.4596
▁接收	-10.46
▁王	-10.46
▁用作	-10.4603
▁广播	-10.4607
先	-10.4609
▁中华人民共和国	-10.4617
▁吸收	-10.4626
▁待	-10.4626
▁一致性	-10.4628
▁战斗	-10.4631
▁排斥	-10.4632
▁支柱	-10.4644
▁白	-10.4648
▁保安	-10.4649
多地	-10.4652
▁O	-10.4654
▁博士	-10.4656
▁倡导	-10.4659
▁招募	-10.4673
▁先进	-10.4675
▁美丽	-10.4684
▁港口	-10.4685
▁全权	-10.4685
▁强有力	-10.4687
▁离职	-10.469
▁代表性	-10.4694
▁铭记	-10.4696
▁军备	-10.4697
▁每周	-10.47
▁船舶	-10.4704
▁一段	-10.4706
▁太阳	-10.4707
▁忽视	-10.4715
▁所在	-10.4718
▁93	-10.4719
▁金融危机	-10.4719
▁所得	-10.4724
▁认证	-10.4724
▁解除	-10.4729
▁排放量	-10.473
▁系	-10.4732
▁进度	-10.4747
▁临床	-10.4748
▁高效	-10.4757
▁‘	-10.476
▁公认	-10.4762
夫	-10.4764
▁应由	-10.477
▁独立性	-10.4772
▁算法	-10.4772
▁近期	-10.4778
▁88	-10.4779
▁祝贺	-10.478
▁é	-10.4791
▁设定	-10.4792
才	-10.4795
▁喀麦隆	-10.4796
▁学术	-10.4799
▁十三届	-10.4803
光	-10.4805
▁变	-10.4808
▁倒	-10.4808
▁负有	-10.481
▁编列	-10.4812
e	-10.4821
▁宏观经济	-10.4823
▁侧重于	-10.4823
▁大陆	-10.4825
▁审	-10.4826
▁也门	-10.4828
▁每日	-10.4831
▁一词	-10.4837
▁席位	-10.4841
▁脆弱性	-10.4842
▁不用	-10.4843
儿	-10.4844
▁关押	-10.4844
▁患	-10.4847
▁=	-10.49
▁爆发	-10.4901
▁封锁	-10.4909
▁出去	-10.4918
▁成效	-10.4923
▁强制	-10.4923
▁中学	-10.493
▁做好	-10.4937
▁黑	-10.4937
▁溴	-10.495
▁原来	-10.4952
▁会晤	-10.4955
▁日常	-10.4956
▁高等教育	-10.4961
▁判例	-10.4962
▁91	-10.4962
▁那儿	-10.4963
▁恰当	-10.4965
▁恐怖分子	-10.4968
权	-10.499
▁钻石	-10.4995
▁约束	-10.5002
▁自决	-10.5002
▁队	-10.5003
▁洗钱	-10.5005
▁手术	-10.5008
▁1980	-10.5015
▁94	-10.5025
见	-10.5028
▁963	-10.5029
▁摆脱	-10.503
非	-10.5037
▁价值观	-10.5041
▁判断	-10.5044
▁日子	-10.5045
纳	-10.5045
▁同等	-10.5045
数	-10.5049
▁97	-10.5053
▁一所	-10.5062
手	-10.5062
▁禁运	-10.507
西	-10.5072
▁结论性	-10.5073
▁情绪	-10.5079
▁回家	-10.5096
▁污染物	-10.5103
派	-10.5104
▁易	-10.5104
▁环境保护	-10.5112
▁技术转让	-10.5113
委员会	-10.5113
▁决策者	-10.5114
▁报纸	-10.5115
▁家属	-10.5118
▁含	-10.5121
▁夫人	-10.5123
▁陷入	-10.5124
▁裁谈会	-10.5129
▁办理	-10.5131
▁沿海	-10.5133
▁尽量	-10.5136
▁培训班	-10.5136
▁亚太经社会	-10.5138
▁作者	-10.5149
▁为何	-10.5156
▁薪酬	-10.5162
▁国内法	-10.5171
气	-10.5172
▁版本	-10.5172
带	-10.5173
▁脱离	-10.5173
▁毛里求斯	-10.5174
▁限于	-10.5187
▁辅助	-10.5187
▁沿	-10.5188
▁布	-10.5199
▁89	-10.5201
▁迹象	-10.5203
▁卡塔尔	-10.5207
▁学	-10.5208
▁顺利	-10.5218
▁s	-10.5219
▁选定	-10.5234
▁安	-10.5236
▁联合国大会	-10.5243
▁配偶	-10.5243
▁政权	-10.5246
▁份额	-10.5248
类	-10.5258
▁形象	-10.5268
▁al	-10.5268
▁优化	-10.5269
▁常	-10.5272
▁会费	-10.5275
▁较大	-10.528
▁两国	-10.5285
▁灵活性	-10.5288
▁直至	-10.529
▁信息系统	-10.529
▁谢谢	-10.5295
▁削弱	-10.5296
格	-10.5306
▁输入	-10.5306
▁那时	-10.5314
▁股票	-10.5331
▁和平利用	-10.5332
▁网页	-10.5333
▁词	-10.5334
▁of	-10.5335
▁未成年人	-10.5337
▁土壤	-10.534
▁面向	-10.5344
如此	-10.5344
▁授予	-10.5345
▁营地	-10.5351
新	-10.5358
▁包容	-10.536
▁喝	-10.5366
▁成长	-10.537
▁绑架	-10.5374
▁参与者	-10.5374
▁十二届	-10.5379
▁工作文件	-10.5379
▁强制性	-10.5386
▁Corr	-10.5389
▁答案	-10.5395
▁全球性	-10.54
▁迈	-10.5401
▁分为	-10.5414
▁开办	-10.542
▁代价	-10.5427
▁克	-10.5439
▁旅游业	-10.5448
▁种类	-10.5453
▁哪里	-10.5454
▁谈	-10.5461
▁歧视性	-10.5471
▁国家元首	-10.5472
▁温度	-10.5477
▁首都	-10.5478
▁申请人	-10.5484
▁被占领土	-10.5484
▁牙买加	-10.5487
▁分离	-10.5489
路	-10.549
须	-10.549
▁分歧	-10.5492
▁仔细	-10.5492
▁计量	-10.5494
▁本法	-10.5496
▁依	-10.5502
▁东	-10.5503
▁散发	-10.5504
▁填补	-10.551
▁模拟	-10.5512
▁鱼	-10.5517
▁一支	-10.5518
▁常见	-10.5519
▁增多	-10.5522
▁另有	-10.553
▁流程	-10.5531
▁字	-10.5533
▁年初	-10.5538
▁得不到	-10.5538
▁编	-10.5543
▁蒙古	-10.5553
心	-10.5554
▁n	-10.5555
▁言论自由	-10.5557
▁指称	-10.5558
▁朝鲜	-10.5561
▁色情	-10.5562
▁距离	-10.557
位	-10.5571
▁顾客	-10.5574
▁迫切需要	-10.5578
亚	-10.5581
▁消失	-10.5581
▁"2	-10.5587
▁村	-10.5588
▁下次	-10.5588
▁会谈	-10.5592
▁单元	-10.56
▁试点	-10.56
▁调查结果	-10.5611
▁清理	-10.5617
▁十届	-10.5623
▁再生能源	-10.5626
▁CP	-10.5628
▁改造	-10.5628
检	-10.5629
▁赞比亚	-10.5629
▁不错	-10.5637
▁不必	-10.5637
▁初次	-10.5638
案	-10.5643
▁希	-10.5643
▁华盛顿	-10.5646
▁生计	-10.5649
▁论述	-10.5653
▁共同努力	-10.5653
网	-10.5654
▁必	-10.5654
▁颜色	-10.5661
▁系列	-10.5663
▁行政部门	-10.567
▁入境	-10.567
▁农村妇女	-10.568
仅仅	-10.5686
▁人为	-10.5694
咨询	-10.5699
▁债权人	-10.5701
▁下去	-10.5703
▁些	-10.5703
▁报	-10.5716
5	-10.5718
▁政府首脑	-10.5727
▁马上	-10.5728
▁富有	-10.5728
▁狗	-10.5734
▁意图	-10.5738
巴	-10.5744
▁几内亚比绍	-10.5745
▁极其	-10.5746
▁更改	-10.575
▁昨天	-10.575
▁和谐	-10.5774
▁见到	-10.5775
▁暂行	-10.5775
塔	-10.5779
▁军	-10.5781
▁广大	-10.5783
▁革命	-10.5784
▁条文	-10.5797
▁张	-10.5805
▁十	-10.5818
表	-10.5827
基	-10.5828
▁联塞	-10.5833
▁卫生组织	-10.5835
▁第六条	-10.5836
▁管理系统	-10.5837
▁著名	-10.5838
▁新型	-10.5841
▁消灭	-10.5848
▁详情	-10.5851
▁复苏	-10.5855
▁指导方针	-10.586
▁复原	-10.5861
▁公报	-10.5863
分	-10.5864
▁给出	-10.5875
▁有待	-10.5877
▁意外	-10.5881
▁优惠	-10.5883
▁附	-10.5886
▁我谨	-10.5886
▁面积	-10.5891
▁http	-10.5899
费	-10.5904
▁委托	-10.5908
▁HRC	-10.5909
▁民兵	-10.5919
▁巴塞尔	-10.5919
▁所列	-10.5921
▁犯罪行为	-10.5922
▁吨	-10.5925
▁核实	-10.5927
▁增编	-10.5938
▁援引	-10.5947
▁本来	-10.5949
▁阿尔巴尼亚	-10.5952
▁新兴	-10.5955
▁计划生育	-10.5956
▁足以	-10.5957
▁大小	-10.5961
▁西岸	-10.5966
▁大力	-10.5966
▁缓慢	-10.5971
▁人生	-10.5975
▁激励	-10.5978
林	-10.598
▁预定	-10.598
▁净	-10.598
▁保加利亚	-10.5983
▁中部	-10.5984
▁接	-10.599
▁家庭成员	-10.5994
▁买卖	-10.5998
▁会见	-10.5999
▁除外	-10.6
进	-10.6
▁合法性	-10.6001
▁难民营	-10.6002
▁管理层	-10.6002
▁免遭	-10.6006
▁前面	-10.6009
▁同次	-10.6017
▁是不是	-10.602
▁国会	-10.6023
▁国王	-10.6026
▁土	-10.6027
索	-10.6029
▁多么	-10.603
▁月底	-10.6032
▁机遇	-10.6033
▁童工	-10.6034
合	-10.6041
▁人权法	-10.605
▁增长率	-10.6055
▁实物	-10.6056
▁埃	-10.6057
▁成熟	-10.6058
▁保密	-10.6062
▁杂志	-10.6065
▁期内	-10.6066
▁电子邮件	-10.6069
▁建筑物	-10.6071
▁局面	-10.608
▁迫使	-10.6081
▁无害	-10.6088
▁刚刚	-10.6089
研	-10.6089
▁250	-10.6094
▁上次	-10.6094
▁审查会议	-10.6096
▁de	-10.6099
▁定居点	-10.6099
▁110	-10.6105
▁基本上	-10.6106
▁X	-10.6108
▁纳	-10.6111
▁普及	-10.6112
▁基因	-10.6116
▁物	-10.6117
▁不罚	-10.6118
▁后面	-10.6119
▁船只	-10.6128
▁对方	-10.6129
▁含量	-10.6132
▁`	-10.6141
▁降	-10.6147
▁事宜	-10.6154
▁俱乐部	-10.6155
▁弱势群体	-10.6158
▁下文	-10.6158
▁文职人员	-10.6161
▁气	-10.6178
i	-10.6179
▁主义	-10.6179
望	-10.6184
员	-10.6186
口	-10.6189
▁安全部门	-10.619
▁养护	-10.6193
层	-10.6194
▁草稿	-10.6197
▁围绕	-10.621
四	-10.6213
▁指挥官	-10.6227
▁class	-10.6228
▁失望	-10.6228
▁言论	-10.623
系	-10.6234
▁免受	-10.6236
▁论文	-10.6239
▁常规	-10.624
级	-10.6247
定	-10.6248
▁FCCC	-10.6248
▁电信	-10.6249
▁经济委员会	-10.6261
▁节省	-10.6263
▁蒙特利尔	-10.6276
▁接着	-10.628
象	-10.6284
▁青年人	-10.6295
▁年前	-10.6296
▁自由化	-10.6297
▁循环	-10.6304
▁剩余	-10.6306
▁友好	-10.6306
▁第十四条	-10.6307
▁上涨	-10.6311
▁不当	-10.6316
▁想象	-10.6321
▁生产力	-10.6321
以来	-10.6327
▁视	-10.6334
▁添加	-10.6335
▁世界人权宣言	-10.6346
▁机器	-10.6347
▁亚太	-10.6349
▁税	-10.635
▁下述	-10.6357
▁次数	-10.6357
▁任用	-10.636
▁健全	-10.6366
▁_	-10.6373
▁缩小	-10.6373
▁轻	-10.6374
因	-10.6375
自	-10.6379
他们	-10.6386
▁被捕	-10.6388
▁发动	-10.6389
▁罚款	-10.639
▁互相	-10.6392
▁莫桑比克	-10.6394
▁对抗	-10.6396
▁传真	-10.64
▁机械	-10.6401
▁线	-10.6403
▁此事	-10.6414
▁要是	-10.6415
业	-10.6418
▁设有	-10.6423
▁筹备工作	-10.6425
▁离	-10.6426
所以	-10.6428
▁担忧	-10.6434
勒	-10.6435
▁非正规	-10.6435
h	-10.6445
▁免疫	-10.6447
▁飞	-10.6449
▁弃权	-10.6451
此	-10.6452
▁验证	-10.6455
▁麽	-10.6461
▁知情	-10.6462
▁尚	-10.6463
▁病	-10.6464
▁失业率	-10.6465
▁正当	-10.6465
▁老人	-10.6467
▁辐射	-10.6469
▁所示	-10.6469
▁山	-10.6471
▁收费	-10.6472
▁报酬	-10.6476
▁开设	-10.6478
片	-10.6482
▁联黎	-10.6486
▁西部	-10.6496
▁第三届	-10.6497
▁害怕	-10.6497
额	-10.6497
▁当代	-10.65
▁不少	-10.6511
▁世界卫生组织	-10.6512
▁多项	-10.6513
省	-10.6517
▁熟悉	-10.6518
▁工作者	-10.6521
事	-10.6526
▁&	-10.6545
▁家长	-10.6547
▁真相	-10.6549
▁电	-10.6554
▁司长	-10.6556
▁津巴布韦	-10.6556
▁核试验	-10.6558
▁发挥作用	-10.6558
▁姓名	-10.6561
▁生育	-10.6562
▁受害	-10.6562
▁冻结	-10.6567
▁气氛	-10.6575
▁分段	-10.6578
▁圆桌会议	-10.6583
▁一架	-10.6585
▁署长	-10.6586
▁习俗	-10.6588
▁跨界	-10.6597
▁联合国秘书处	-10.6599
姆	-10.6606
关于	-10.6607
▁生长	-10.6611
▁应为	-10.6613
岛	-10.6615
▁置于	-10.6618
▁定	-10.6621
▁波	-10.663
▁短缺	-10.6631
获	-10.6634
▁标准化	-10.6634
▁计	-10.6635
▁队伍	-10.6637
▁能量	-10.665
▁罗	-10.6654
▁一块	-10.6657
▁权能	-10.6658
▁司法部	-10.6662
▁承受	-10.6666
▁权限	-10.6673
曼	-10.6684
▁油	-10.6684
▁忘记	-10.6684
▁恐惧	-10.6686
▁修复	-10.6686
▁学科	-10.6689
▁冲击	-10.669
但是	-10.6691
▁编号	-10.6695
▁布基纳法索	-10.6695
▁爱情	-10.6698
▁电力	-10.6705
▁每一	-10.6707
▁教训	-10.671
▁施加	-10.6711
▁煽动	-10.6712
▁特权	-10.6714
▁地图	-10.6724
▁第三方	-10.6725
满	-10.6731
▁补助金	-10.6732
▁联合国环境规划署	-10.6738
▁─	-10.6741
▁找出	-10.6743
▁事务处	-10.6744
物	-10.6748
▁雷	-10.6748
▁社会主义	-10.675
▁老板	-10.6754
报	-10.6758
▁爸爸	-10.6759
▁开列	-10.6759
▁几内亚	-10.6761
▁活力	-10.6761
▁无效	-10.6768
▁持	-10.6773
▁梦想	-10.6775
▁驳回	-10.6778
▁振兴	-10.6781
▁经合组织	-10.6781
▁特使	-10.6784
▁国际劳工组织	-10.6787
▁文字	-10.679
▁修建	-10.6796
▁看着	-10.6806
▁一周	-10.6809
▁欺诈	-10.6816
▁应用程序	-10.6819
▁远远	-10.6822
▁申明	-10.683
▁斯洛文尼亚	-10.6832
▁爆炸物	-10.6833
▁签证	-10.6833
▁招聘	-10.6841
▁波动	-10.6847
▁海事	-10.6853
▁其次	-10.6855
▁通用	-10.6855
▁六个	-10.6858
▁办公	-10.6859
▁支配	-10.686
▁作物	-10.686
▁所用	-10.6861
河	-10.6862
▁人均	-10.6864
▁技巧	-10.6867
▁整合	-10.6878
▁风险管理	-10.6889
取	-10.6889
▁某一	-10.689
▁1986	-10.6892
▁杀	-10.6893
▁干涉	-10.6895
▁CEDAW	-10.6905
▁美好	-10.6907
▁缴款	-10.6907
▁入	-10.6911
▁指挥	-10.6917
▁截止	-10.6923
▁残疾儿童	-10.693
▁中非	-10.6931
▁六个月	-10.6933
▁赠款	-10.6935
▁开采	-10.6936
明	-10.694
▁中等	-10.6942
▁村庄	-10.6947
▁旅费	-10.695
▁诉诸	-10.695
日	-10.6952
▁教	-10.6953
诺	-10.6953
▁红	-10.6956
▁几天	-10.6956
▁毫无	-10.6956
▁批款	-10.6958
▁转向	-10.6959
▁总共	-10.6965
▁斯洛伐克	-10.6969
声	-10.6978
▁领土完整	-10.6982
▁较为	-10.6992
▁巡逻	-10.6992
▁分开	-10.6993
▁想到	-10.6995
▁盟约	-10.6998
▁力	-10.6998
▁产量	-10.7002
根据	-10.7002
▁运送	-10.7002
▁空	-10.7011
▁要点	-10.7013
罗	-10.7013
▁判处	-10.7021
▁命运	-10.7023
▁下跌	-10.7023
▁转化	-10.7028
▁投	-10.7031
▁引入	-10.7032
▁分担	-10.7035
板	-10.7036
▁达成协议	-10.7037
▁职类	-10.7043
▁福祉	-10.7047
▁一座	-10.7047
▁人事	-10.7049
▁刑事法庭	-10.7059
▁如同	-10.7061
▁发达	-10.7066
▁UNEP	-10.7068
▁公园	-10.7075
▁毛额	-10.7083
▁划分	-10.709
▁力求	-10.7096
▁影响力	-10.7098
▁铁路	-10.7103
▁W	-10.7115
▁疫苗	-10.7116
组	-10.7125
米	-10.7128
▁撒哈拉	-10.713
▁黑山	-10.713
▁"3	-10.714
▁相似	-10.7143
▁犯	-10.7146
▁第七条	-10.7147
▁紧迫	-10.7152
▁仇恨	-10.7153
▁一句	-10.7153
▁计划署	-10.7162
▁岛	-10.7163
▁贝宁	-10.7165
▁陈	-10.7166
▁工业化	-10.7168
▁高质量	-10.7168
▁采纳	-10.717
▁殖民地	-10.7173
▁显得	-10.718
▁序言	-10.7182
▁此后	-10.7182
界	-10.7185
▁颁发	-10.7185
▁弱势	-10.7187
6	-10.7189
▁带有	-10.719
▁今日	-10.719
住	-10.7201
▁辩护	-10.7203
▁乌兹别克斯坦	-10.7205
予	-10.721
▁"4	-10.7212
▁记忆	-10.7212
▁基本权利	-10.7214
▁送交	-10.7214
▁不结盟运动	-10.7219
▁医学	-10.7226
▁奖励	-10.7227
▁男	-10.7228
▁一部	-10.7236
▁CRP	-10.7239
▁回返	-10.724
▁页次	-10.7245
▁架	-10.7247
▁性虐待	-10.7249
▁运营	-10.7251
▁救助	-10.7251
▁离婚	-10.7256
流	-10.7257
▁深刻	-10.726
▁130	-10.7264
剂	-10.7266
▁欧洲委员会	-10.7268
▁塞	-10.7272
▁人才	-10.7273
▁提前	-10.7278
正	-10.7278
▁总务	-10.7284
▁收购	-10.7284
▁市民	-10.7285
▁西藏	-10.7285
▁购置	-10.7289
▁取得成功	-10.7292
▁契约	-10.7293
▁认捐	-10.7297
▁产妇	-10.7302
▁长时间	-10.7304
▁防范	-10.731
▁抗议	-10.7311
▁注	-10.7317
▁动机	-10.7319
▁指令	-10.732
▁比额	-10.7328
▁债券	-10.7328
色	-10.7333
▁法律文书	-10.7339
动	-10.734
▁无疑	-10.7341
▁警察部队	-10.7353
▁坦桑尼亚联合共和国	-10.7362
▁边缘	-10.7365
▁玩	-10.7366
▁必不可少	-10.7367
▁联邦政府	-10.7367
▁即便	-10.7368
▁作出努力	-10.7374
军	-10.7378
▁环保	-10.7393
▁民警	-10.7396
▁CONF	-10.7402
▁首	-10.7409
▁核能	-10.7409
▁走向	-10.7412
▁缴纳	-10.7419
▁东耶路撒冷	-10.7439
▁会议议程	-10.7441
▁微	-10.7444
▁各个方面	-10.7451
▁大众	-10.7453
之	-10.7461
▁发送	-10.7465
▁矛盾	-10.7467
▁架构	-10.7474
▁年间	-10.7477
▁工作量	-10.7483
迪	-10.7484
▁联利	-10.7488
▁耶路撒冷	-10.7496
万	-10.7496
▁漂亮	-10.7503
▁东盟	-10.7504
▁手机	-10.7506
▁第十届	-10.7507
▁干扰	-10.7514
▁卖	-10.7514
▁INF	-10.7516
▁员	-10.7518
▁打电话	-10.7524
▁经济危机	-10.7528
▁谨慎	-10.7532
▁撤回	-10.7547
▁奠定	-10.7547
▁叙述	-10.755
▁台	-10.755
b	-10.7551
▁关税	-10.7551
▁付出	-10.7556
▁住宅	-10.7558
▁包装	-10.756
▁副本	-10.7565
▁皮肤	-10.7572
▁流	-10.758
有效	-10.7595
▁102	-10.7604
▁人物	-10.7607
怕	-10.7612
▁运动员	-10.7617
▁II	-10.7622
▁演讲	-10.7622
▁塞族	-10.7625
易	-10.7625
▁敌人	-10.7626
▁身	-10.7631
▁有趣	-10.7639
▁卫生部	-10.7641
▁跳	-10.7642
▁大幅度	-10.7643
▁术语	-10.7643
▁m	-10.7648
▁物种	-10.7652
▁系统地	-10.7652
▁案情	-10.7662
▁谋求	-10.7663
▁协调会	-10.7664
▁延迟	-10.7665
▁代替	-10.7668
▁小心	-10.7669
▁裂变	-10.767
8	-10.7676
▁制品	-10.7679
y	-10.7684
▁调	-10.7685
▁之日起	-10.7688
▁印刷	-10.7689
▁典型	-10.7694
▁家园	-10.7695
▁机	-10.7696
▁之际	-10.7698
▁1967	-10.7698
块	-10.7703
▁必然	-10.7704
▁马耳他	-10.7709
▁过于	-10.7711
▁治安	-10.7712
▁其后	-10.7713
值	-10.7713
▁一段时间	-10.7717
▁演变	-10.7718
▁真诚	-10.772
▁出发	-10.7725
▁"5	-10.7729
▁读	-10.7731
▁j	-10.7737
▁中亚	-10.7737
▁塔吉克斯坦	-10.7739
▁网址	-10.7746
▁持久性	-10.7747
▁塔	-10.7751
▁不愿	-10.7752
▁和平解决	-10.7754
高	-10.7762
▁增至	-10.7767
▁麻醉药品	-10.7773
▁感受	-10.7777
▁林	-10.7782
▁中小企业	-10.7785
▁退出	-10.7786
▁明年	-10.7791
▁库	-10.7794
▁西撒哈拉	-10.7794
▁正规	-10.7814
▁范畴	-10.7815
▁超越	-10.7818
▁活跃	-10.7827
▁心里	-10.7831
▁说道	-10.7833
▁有所增加	-10.7845
套	-10.7849
病	-10.785
▁古	-10.7861
▁抵达	-10.7863
▁停火	-10.7864
萨	-10.789
主义	-10.7893
▁重组	-10.7894
▁针对性	-10.7896
▁渴望	-10.7899
▁一边	-10.7901
▁德班	-10.7902
▁多名	-10.7911
o	-10.7916
▁101	-10.792
▁世界贸易组织	-10.7922
▁体面	-10.7923
▁转换	-10.7924
▁国际原子能机构	-10.7934
▁花费	-10.7935
▁巴林	-10.7936
▁妇发	-10.7938
▁换	-10.7941
▁既定	-10.7943
▁报表	-10.7944
▁尊重人权	-10.7952
▁主导	-10.7952
▁章程	-10.7968
▁画	-10.7972
▁撤出	-10.7974
▁群岛	-10.7978
▁反馈	-10.7984
▁怎么样	-10.7988
▁准许	-10.7995
▁准备金	-10.7996
列	-10.7997
▁103	-10.7997
▁中美洲	-10.7999
▁含义	-10.801
▁经社理事会	-10.8012
▁联合国儿童基金会	-10.8017
▁中所	-10.802
▁储备	-10.8023
▁追踪	-10.8023
代	-10.8026
波	-10.8026
▁生成	-10.8029
▁补编	-10.8041
▁引导	-10.8043
▁休息	-10.8045
▁可怕	-10.8047
▁结余	-10.8047
意	-10.8049
▁中所载	-10.8051
▁紧密	-10.8058
▁礼物	-10.8067
▁哦	-10.8077
▁权威	-10.8079
▁深信	-10.8079
石	-10.808
▁养恤	-10.8086
▁弄	-10.809
▁稍	-10.8095
▁COP	-10.8104
▁谈话	-10.8105
▁111	-10.8106
▁李	-10.8106
▁科学技术	-10.8112
▁否认	-10.8121
▁勘探	-10.8129
▁积累	-10.813
▁第五次	-10.8131
▁两级	-10.8133
▁呀	-10.8134
台	-10.8137
▁呈	-10.8141
▁低收入	-10.8141
海	-10.8142
▁部落	-10.8144
这些	-10.8148
▁逻辑	-10.8151
▁一再	-10.8153
▁1987	-10.8153
▁第四条	-10.816
▁104	-10.8161
▁选	-10.8162
▁三分之一	-10.8163
▁成人	-10.8164
▁品牌	-10.8166
▁分裂	-10.8167
▁第三条	-10.8171
▁驱动	-10.8175
▁手中	-10.8178
▁骚扰	-10.8181
▁统治	-10.8185
▁外联	-10.8191
▁风	-10.8191
▁采矿	-10.8199
小	-10.8203
▁跨国公司	-10.8211
▁器	-10.8211
▁小额	-10.8214
▁行动者	-10.8215
▁第二章	-10.8215
▁掉	-10.8215
▁莫	-10.8217
▁小姐	-10.8228
▁透过	-10.823
▁第五条	-10.8232
▁铁	-10.8233
▁公共行政	-10.8234
▁浓度	-10.8239
▁老年	-10.8241
▁视频	-10.8241
▁林业	-10.8242
▁权益	-10.8244
▁中文	-10.8247
▁巴拿马	-10.825
▁搜索	-10.8254
▁纳米比亚	-10.8268
▁余	-10.8271
▁营养不良	-10.8276
▁党	-10.8278
▁实在	-10.8281
书	-10.8283
▁利息	-10.8286
▁打破	-10.8286
▁寿命	-10.8288
▁两位	-10.8297
▁闭会	-10.8307
▁胜利	-10.8309
▁关键作用	-10.8311
▁目的地	-10.8313
城	-10.8313
▁确切	-10.8313
▁108	-10.8314
▁减缓	-10.8316
▁使命	-10.8316
▁第四届	-10.8316
▁活	-10.8319
金	-10.832
▁爱沙尼亚	-10.8323
▁1985	-10.8326
试	-10.833
▁签发	-10.8337
▁口译	-10.8341
▁承包商	-10.8342
▁隔离	-10.8343
▁一片	-10.8343
▁源	-10.8345
▁酒店	-10.8349
▁初	-10.8351
▁我能	-10.8363
▁战斗人员	-10.8364
▁弥补	-10.8378
▁苏丹政府	-10.8378
▁南部非洲	-10.8379
▁差	-10.8383
▁征求	-10.8383
▁一类	-10.8387
▁树	-10.8389
▁表示感谢	-10.8392
▁106	-10.8402
▁完美	-10.8405
▁毕业	-10.8407
▁两者	-10.8418
▁住所	-10.8422
▁经济社会	-10.8426
▁荷	-10.8432
▁一辆	-10.8436
▁会员	-10.8437
▁路线图	-10.8438
▁还会	-10.8439
由于	-10.8439
▁无需	-10.8448
▁提倡	-10.846
约	-10.846
▁智慧	-10.8463
▁之上	-10.8465
司	-10.8466
▁麻烦	-10.8466
▁乡村	-10.8467
▁军事行动	-10.847
▁求	-10.8471
件	-10.8472
▁美国政府	-10.8478
▁某人	-10.848
▁国防	-10.8482
▁犯有	-10.8484
▁遭遇	-10.8497
▁借此	-10.8497
▁手续	-10.8497
然而	-10.8509
▁组建	-10.851
▁服务器	-10.8511
▁学者	-10.8511
▁虽	-10.8511
▁and	-10.8514
它	-10.8516
▁记住	-10.8518
▁大西洋	-10.8522
▁面	-10.8522
▁偏见	-10.8522
▁普遍性	-10.8525
▁消极	-10.8527
▁城镇	-10.8528
▁摧毁	-10.8533
▁接纳	-10.8537
▁到来	-10.8538
▁经共体	-10.8538
▁供水	-10.8544
▁租赁	-10.8545
安	-10.8546
▁商店	-10.8549
▁遏制	-10.8553
阶段	-10.8557
▁艰难	-10.8558
▁一届	-10.8558
▁咖啡	-10.856
▁闭门	-10.8561
▁顾及	-10.8561
五	-10.8563
▁班	-10.8565
▁上学	-10.8566
▁拉加	-10.8567
▁使用者	-10.857
▁预	-10.8571
▁司法制度	-10.8573
▁推荐	-10.8574
▁子	-10.8578
▁碎片	-10.8579
▁啦	-10.8582
▁么	-10.8583
▁可否	-10.8583
▁届会	-10.8585
▁排	-10.8588
▁当作	-10.8591
▁联科	-10.8592
▁自主	-10.8595
▁抓住	-10.8596
▁基本建设	-10.8596
▁赞助	-10.8599
▁理念	-10.8599
▁税务	-10.8601
▁拉脱维亚	-10.8601
▁成分	-10.8602
▁天然气	-10.8604
▁倍	-10.8605
▁鱼类	-10.8609
▁补助	-10.861
▁宗	-10.8614
▁签字	-10.8616
▁冲	-10.8618
▁巴拉圭	-10.8621
▁假如	-10.863
▁112	-10.8634
▁糟糕	-10.8641
▁竞选	-10.8651
▁本书	-10.8653
▁双重	-10.8656
▁尼	-10.866
▁一人	-10.8662
▁160	-10.8662
▁负面影响	-10.8666
▁早上	-10.867
▁the	-10.8671
▁看上去	-10.8673
▁最多	-10.8675
▁联合国总部	-10.8676
▁自行	-10.8677
▁施行	-10.8686
▁洪都拉斯	-10.8688
▁充分利用	-10.869
▁操守	-10.8697
▁预警	-10.8704
▁遗产	-10.8714
需	-10.8715
▁呆	-10.8718
速	-10.8725
▁边	-10.8725
▁次序	-10.8729
▁看出	-10.8732
▁禁	-10.8734
▁事物	-10.8738
▁斯德哥尔摩	-10.874
▁107	-10.8744
▁堕胎	-10.875
▁塞人	-10.8752
▁过来	-10.8761
▁IDB	-10.8763
▁统筹	-10.8766
▁臭氧	-10.8771
▁更换	-10.8774
▁直升机	-10.8795
▁1373	-10.8797
▁种族灭绝	-10.8801
▁l	-10.881
座	-10.8812
▁热情	-10.8813
但	-10.8814
▁边缘化	-10.8817
▁激烈	-10.8822
▁证件	-10.8822
▁人体	-10.8826
票	-10.8827
9	-10.8831
▁迁移	-10.8832
▁该司	-10.8836
▁通	-10.8837
▁施工	-10.8841
▁路线	-10.8844
▁前进	-10.8851
▁合作社	-10.8851
▁1982	-10.8853
▁第一章	-10.8856
▁向前	-10.8857
▁原籍	-10.8859
▁作法	-10.8859
▁冰岛	-10.886
▁英	-10.8862
▁金钱	-10.8862
▁地中海	-10.8865
▁绝不	-10.8866
d	-10.8867
▁管	-10.8868
▁错	-10.8869
▁酒	-10.8869
▁中断	-10.8874
▁所指	-10.8876
▁便于	-10.8878
▁木材	-10.888
▁收取	-10.8887
▁会期	-10.8892
证	-10.8899
▁尽力	-10.89
▁饮食	-10.8903
▁全面禁止	-10.8907
▁警官	-10.8907
▁115	-10.8911
▁GC	-10.8912
南	-10.8913
▁挑选	-10.8917
▁订约	-10.892
▁代码	-10.8923
令	-10.8924
▁构建	-10.8924
▁原理	-10.8928
▁一个月	-10.8929
▁元素	-10.8933
▁却是	-10.8933
▁地说	-10.8934
▁团长	-10.8936
▁社会福利	-10.8936
▁萨	-10.8937
▁土库曼斯坦	-10.894
▁海底	-10.8944
▁遗留	-10.8945
▁戴	-10.8954
▁流入	-10.8956
▁困境	-10.8957
▁减免	-10.896
▁宣称	-10.896
▁欣见	-10.8961
▁优质	-10.8967
▁归	-10.897
▁绝大多数	-10.8973
▁普通照会	-10.8976
▁立陶宛	-10.8977
▁表演	-10.8979
▁申报	-10.8981
▁外债	-10.8982
▁中止	-10.8987
▁不好	-10.8989
▁140	-10.8989
▁斐济	-10.8993
▁项下	-10.8996
▁交	-10.8997
▁感到遗憾	-10.8999
设	-10.9001
▁有没有	-10.9008
▁更正	-10.9017
▁护照	-10.9017
▁人民政府	-10.9018
▁代	-10.9021
油	-10.9024
▁军火	-10.9028
▁出色	-10.9035
▁人民币	-10.904
▁114	-10.9041
▁到底	-10.9044
▁外空	-10.905
▁不予	-10.9056
▁升	-10.9064
▁聘用	-10.907
▁检查组	-10.9082
▁参观	-10.9083
▁创业	-10.9084
▁构想	-10.9086
▁训	-10.9093
球	-10.9096
▁通货膨胀	-10.9107
▁追究	-10.9118
▁集会	-10.9127
蒂	-10.9128
▁头发	-10.9133
▁高级官员	-10.9136
▁感情	-10.9143
▁从中	-10.9144
▁一生	-10.9146
感	-10.9157
鱼	-10.9159
▁职业培训	-10.916
▁精确	-10.9163
载	-10.9163
▁反对派	-10.9171
▁老龄	-10.9173
▁继	-10.9176
▁教堂	-10.9178
▁统计数字	-10.9183
▁十四届	-10.9184
▁重叠	-10.9188
▁第三个	-10.9191
▁动议	-10.9194
▁日前	-10.9195
▁企业家	-10.9198
▁三名	-10.9201
▁考察	-10.9204
▁传递	-10.9205
▁层	-10.9205
▁垃圾	-10.9206
▁看作	-10.9207
船	-10.9216
▁专用	-10.9217
▁预先	-10.922
▁气象	-10.9222
▁合成	-10.9226
▁U	-10.923
眼	-10.9233
▁瓦	-10.924
▁采访	-10.9241
▁动作	-10.9246
▁愉快	-10.9249
▁拨	-10.9254
▁传	-10.9254
▁睡	-10.9256
▁撤离	-10.9257
▁几次	-10.926
▁耶稣	-10.926
▁孕妇	-10.926
▁维护者	-10.9267
▁进出口	-10.9269
▁争论	-10.927
▁下载	-10.9271
▁措辞	-10.9273
▁惩处	-10.9274
▁先决条件	-10.9277
▁个案	-10.9278
▁脸	-10.9282
风	-10.9284
▁乐观	-10.9288
▁审讯	-10.9289
足以	-10.9289
▁蔓延	-10.9296
▁严峻	-10.9298
▁第九条	-10.93
▁116	-10.9301
▁聪明	-10.9302
强调	-10.9308
▁该条	-10.931
▁土著人	-10.9319
▁捍卫	-10.9319
▁汤姆	-10.9321
▁联海	-10.9324
▁吉尔吉斯斯坦	-10.9326
▁救援	-10.9328
可	-10.9329
▁以南	-10.933
▁毫米	-10.933
▁动荡	-10.9335
▁指明	-10.9336
▁禁毒	-10.9337
n	-10.9337
▁海盗	-10.9339
顿	-10.934
▁要么	-10.934
▁优秀	-10.9341
▁名册	-10.9345
▁一笔	-10.9346
▁奇怪	-10.9346
▁对应	-10.9348
控	-10.9356
▁传染病	-10.9356
▁频率	-10.9357
▁】	-10.9364
站	-10.9365
▁集	-10.9365
▁DP	-10.9372
▁牵头	-10.9374
▁注意力	-10.9376
▁成年人	-10.9376
▁有意	-10.9379
▁具体措施	-10.938
▁危及	-10.9381
▁县	-10.9383
▁可行性	-10.9384
▁眼	-10.939
▁目前为止	-10.9395
▁刑法典	-10.9395
▁一组	-10.9396
▁抑制	-10.9402
▁房	-10.9403
▁超	-10.9405
▁立刻	-10.9407
留	-10.9411
▁资讯	-10.9414
▁113	-10.9419
▁电邮	-10.9422
▁当今	-10.9424
▁三次	-10.9426
▁职员	-10.9426
▁清	-10.9435
▁饮用水	-10.9438
▁地上	-10.944
▁捐赠	-10.9442
▁全文	-10.9442
身	-10.9442
▁混乱	-10.9444
G	-10.9452
▁塔利班	-10.9455
▁阿拉伯联合酋长国	-10.9473
▁储蓄	-10.9475
▁配备	-10.9476
▁接到	-10.9482
▁拯救	-10.9483
皮	-10.9486
质	-10.9488
▁尔	-10.9489
▁层次	-10.9489
▁癌症	-10.9496
▁毛	-10.95
▁物理	-10.95
▁损坏	-10.9501
▁多哥	-10.9504
▁敌	-10.9505
7	-10.9513
▁实务	-10.9517
▁家具	-10.9519
▁借	-10.9522
▁延误	-10.9524
▁执法人员	-10.9526
支	-10.9532
装	-10.9537
▁估算	-10.954
▁印象	-10.954
▁街	-10.9544
▁公共卫生	-10.955
▁法律事务	-10.9552
▁惩治	-10.9554
▁公共政策	-10.9556
▁像是	-10.9557
▁调节	-10.9558
▁两人	-10.9558
▁监控	-10.9559
▁股东	-10.9565
▁建	-10.9565
▁房地产	-10.9569
▁甚	-10.9576
▁浪费	-10.9576
▁180	-10.9577
▁确信	-10.9581
▁第五十九	-10.9582
▁议定	-10.9586
▁刑事诉讼	-10.9587
▁团伙	-10.959
▁122	-10.9596
▁公共服务	-10.9597
▁初期	-10.9597
▁118	-10.96
▁娱乐	-10.96
▁刑事责任	-10.9611
▁经济学家	-10.9613
▁大多	-10.9613
▁非索	-10.9616
▁西班牙语	-10.9617
▁原始	-10.9618
▁禁令	-10.9618
工	-10.9619
▁具体情况	-10.9625
▁追加	-10.9628
▁谈论	-10.9634
▁教会	-10.9634
▁个体	-10.9635
▁装	-10.9638
士	-10.9642
▁海岸	-10.9649
▁精简	-10.9652
▁相关性	-10.9653
▁撒	-10.9654
▁电子商务	-10.9661
▁看待	-10.9662
▁报复	-10.9663
▁自杀	-10.9667
▁工程师	-10.9669
▁肉	-10.9681
▁应予	-10.9688
▁样子	-10.9691
▁游客	-10.9692
▁旅馆	-10.9699
▁儿基会	-10.9702
▁119	-10.9704
▁租金	-10.9705
▁117	-10.9705
▁定位	-10.9717
恩	-10.9717
▁穷国	-10.9719
▁无国籍	-10.9722
▁对比	-10.9725
▁马其顿共和国	-10.9726
▁解放	-10.9726
▁羁押	-10.9727
▁农场	-10.9728
▁笑	-10.9728
常	-10.9731
▁国民议会	-10.9732
▁WP	-10.9736
▁本案	-10.9744
▁有时候	-10.9746
▁语	-10.9753
▁2.1	-10.9762
▁内地	-10.9763
▁假定	-10.9767
▁只会	-10.9768
c	-10.9772
▁恶劣	-10.9774
▁放松	-10.9774
▁象征	-10.9775
▁变更	-10.9777
▁大脑	-10.9779
▁测定	-10.978
▁法文	-10.9785
▁主人	-10.9786
犯	-10.9788
▁兰	-10.9797
▁分至	-10.9803
▁一大	-10.9804
▁穿着	-10.9806
▁仪式	-10.9812
▁曼谷	-10.9814
▁展览	-10.9817
▁明	-10.9817
er	-10.9819
▁得出结论	-10.9819
▁顺序	-10.9829
▁听说	-10.9833
▁毫无疑问	-10.9834
▁法人	-10.9834
▁不受	-10.9837
▁关	-10.9837
别	-10.9838
▁概况	-10.9839
▁复制	-10.984
▁理事	-10.9842
室	-10.9844
▁参加者	-10.9844
▁指责	-10.9846
▁信函	-10.9846
▁明确规定	-10.9847
▁收	-10.9854
▁放射性	-10.9855
▁财务报告	-10.9857
维	-10.9861
▁将近	-10.9862
▁无人	-10.9862
▁等级	-10.9864
▁练习	-10.9868
问	-10.9872
▁不满	-10.9873
▁商	-10.9873
宗	-10.9875
▁增	-10.9879
▁环	-10.9881
▁玻璃	-10.9883
▁解决问题	-10.9886
▁第九届	-10.9886
▁城	-10.9889
▁冷	-10.9891
▁两份	-10.9893
▁专	-10.9894
▁一事	-10.9895
▁几十年	-10.9897
▁吉布提	-10.9899
▁将军	-10.9909
▁筹集	-10.9909
价	-10.991
▁第五十八	-10.9911
▁皮	-10.9925
▁令人满意	-10.9925
▁标记	-10.9925
▁收回	-10.9926
▁早日	-10.9931
▁概要	-10.9933
▁满	-10.9938
▁提取	-10.9939
▁著	-10.9942
▁警察局	-10.9946
▁萨摩亚	-10.9948
▁谋杀	-10.9955
▁街头	-10.9955
▁抱	-10.9957
▁竟	-10.9958
▁今晚	-10.9958
▁存储	-10.996
▁职	-10.9962
▁不变	-10.9963
▁据此	-10.9968
▁列举	-10.997
▁抱怨	-10.9971
▁扩张	-10.9971
▁黑暗	-10.9978
▁Mr	-10.9982
▁买方	-10.9982
状	-10.9992
▁敌对行动	-10.9994
▁CRC	-10.9995
▁照	-10.9999
▁WG	-11.0002
▁沙	-11.0007
形	-11.001
美	-11.0011
▁少女	-11.0012
▁过渡时期	-11.0012
▁身边	-11.0016
▁尼日尔	-11.0019
▁大气	-11.002
▁梦	-11.0022
▁索	-11.0024
▁志愿	-11.0028
▁文献	-11.0032
▁综合性	-11.0036
▁服装	-11.004
▁进来	-11.0056
▁制造商	-11.0056
实	-11.0058
▁纸	-11.0058
▁占有	-11.0062
▁内政部	-11.0064
▁力度	-11.0064
▁作战	-11.0068
▁卢森堡	-11.0068
▁概览	-11.0076
▁球	-11.0078
▁标签	-11.0087
▁数学	-11.0088
▁具	-11.009
▁政府部门	-11.009
▁主体	-11.009
▁切	-11.009
▁适足	-11.0091
▁论点	-11.0094
▁毫不	-11.0095
▁遗传	-11.0095
▁势头	-11.01
▁递交	-11.01
▁核证	-11.0105
▁解雇	-11.0108
▁周年	-11.0112
▁收养	-11.0112
▁马拉维	-11.0117
▁布什	-11.012
▁脚	-11.0121
章	-11.0124
▁证词	-11.0124
▁检察长	-11.0131
▁区内	-11.0133
▁挂	-11.0133
▁女子	-11.0138
▁负	-11.0141
▁南亚	-11.0141
主	-11.0151
▁一本	-11.0153
兰	-11.0164
▁k	-11.0165
▁峰会	-11.0168
▁1.1	-11.017
▁进行谈判	-11.0173
▁地下	-11.0176
机会	-11.0177
▁风格	-11.0177
▁清晰	-11.0185
一个	-11.0186
▁教育部	-11.0193
▁司机	-11.0194
▁灵魂	-11.0195
D	-11.0196
▁附录	-11.0201
▁普查	-11.0211
▁生境	-11.022
▁亲爱	-11.0221
▁转型期	-11.0221
▁行径	-11.0223
▁电台	-11.0223
署	-11.0226
▁捕捞	-11.0229
▁坚信	-11.023
底	-11.0232
▁三分之二	-11.0234
▁流行病	-11.0239
▁无线电	-11.0243
▁内阁	-11.0245
▁灭绝种族	-11.0246
▁<	-11.0255
▁过分	-11.0256
▁欧洲人	-11.0258
▁刑事诉讼法	-11.0262
▁聚集	-11.0264
▁文职	-11.0266
▁展望	-11.0274
▁苏	-11.0276
▁派出	-11.0277
付	-11.0277
▁奖学金	-11.0282
份	-11.0285
▁尊敬	-11.0286
▁汇款	-11.0287
▁大会决议	-11.029
▁营	-11.029
▁取	-11.0292
号	-11.0296
▁既然	-11.0296
▁划界	-11.0303
▁救灾	-11.0305
▁内在	-11.0308
▁黄	-11.0308
▁严厉	-11.0308
▁搞	-11.0309
▁减	-11.0311
▁外面	-11.0314
▁托克劳	-11.032
▁1978	-11.032
▁见解	-11.0323
▁见下文	-11.0324
▁入学	-11.0324
▁博物馆	-11.0325
▁故意	-11.0329
▁详尽	-11.0329
▁楼	-11.0339
▁警务	-11.034
▁情感	-11.0344
▁相互依存	-11.0345
▁邮政	-11.0346
指	-11.0349
回	-11.0353
▁化合物	-11.0355
▁前任	-11.0357
▁军官	-11.0357
▁维	-11.0357
▁根除	-11.0359
▁呈现	-11.036
▁路上	-11.0363
轮	-11.0364
▁贩卖人口	-11.0367
▁缩短	-11.0371
▁入学率	-11.0373
▁卫生保健	-11.0379
▁专题讨论	-11.0386
▁服务中心	-11.039
▁蒙特雷	-11.0391
▁编纂	-11.0393
▁引用	-11.0394
▁Y	-11.0397
▁北方	-11.0397
都	-11.0399
托	-11.0401
▁女生	-11.0402
▁指派	-11.0406
▁观众	-11.0412
▁征	-11.0415
▁归还	-11.0416
▁人民法院	-11.0418
▁获益	-11.0423
县	-11.0427
▁周末	-11.043
▁研制	-11.0435
▁那位	-11.0435
▁p	-11.0445
▁课	-11.0445
雷	-11.045
▁罗姆人	-11.045
▁多米尼加共和国	-11.046
▁市场准入	-11.0462
▁流通	-11.0467
▁125	-11.047
联	-11.0472
▁苦难	-11.0475
▁公务	-11.0483
▁马达加斯加	-11.0487
▁欧安组织	-11.049
▁枪支	-11.0504
▁三种	-11.0507
▁公	-11.0512
▁剩下	-11.0512
▁携带	-11.0513
▁异常	-11.0515
▁河	-11.0518
▁牺牲	-11.0521
▁药	-11.053
▁般	-11.0532
▁司法部门	-11.0532
▁伊斯兰会议组织	-11.0537
▁抵消	-11.0538
▁抵抗	-11.054
▁第二阶段	-11.0542
▁恩	-11.0545
▁妥善	-11.0546
▁回报	-11.0547
▁续会	-11.0548
▁"6	-11.0553
▁恐吓	-11.0555
▁模糊	-11.0558
伊	-11.0561
▁基督教	-11.0563
据	-11.0563
▁自决权	-11.0567
▁示威	-11.0568
▁即可	-11.0569
▁无关	-11.057
▁慢慢	-11.0573
核	-11.058
▁读者	-11.0581
▁123	-11.0584
▁附上	-11.0585
▁持久和平	-11.0586
▁群众	-11.059
▁延期	-11.0591
▁1981	-11.0595
▁创	-11.0595
▁哪个	-11.0597
▁第五十七届	-11.0598
▁巴巴多斯	-11.0607
计	-11.0615
▁配额	-11.0618
▁一揽子	-11.0618
▁七个	-11.062
▁邮件	-11.0624
▁国际货币基金组织	-11.0629
▁题目	-11.0631
▁改组	-11.064
▁何时	-11.064
▁炸弹	-11.0644
▁非国家	-11.0644
▁大赦	-11.0646
▁伤亡	-11.0649
▁贵	-11.0652
▁种子	-11.0652
▁支持者	-11.0653
t	-11.0656
【	-11.0659
读	-11.0664
▁这时	-11.0665
▁港	-11.0672
▁助长	-11.0675
▁东欧	-11.0679
▁海洋环境	-11.0682
▁施政	-11.0684
▁列支敦士登	-11.0684
▁不了	-11.0686
▁盖	-11.0686
▁部委	-11.0689
▁东京	-11.0693
▁以供	-11.0695
▁不但	-11.0696
为了	-11.0698
▁本质	-11.0719
▁文学	-11.0726
▁原料	-11.0731
▁民族和解	-11.0733
▁司法机关	-11.0734
▁医疗保健	-11.0736
▁所在地	-11.0742
▁卫生设施	-11.0745
▁扭转	-11.0747
▁模块	-11.0756
▁二十一	-11.0761
▁代理人	-11.0763
相	-11.0766
▁1970	-11.0769
▁回合	-11.0771
▁拒	-11.0774
▁属性	-11.0776
▁处以	-11.0776
▁信念	-11.0778
▁推	-11.0779
▁借鉴	-11.0782
▁专利	-11.0783
▁导航	-11.0785
▁博茨瓦纳	-11.0786
▁第七届	-11.0787
▁数值	-11.0792
▁预见	-11.0793
▁航行	-11.0796
▁借口	-11.0796
品	-11.0799
热	-11.0801
▁场	-11.0804
▁西欧	-11.0805
▁声	-11.0807
▁复杂性	-11.0816
▁121	-11.0825
▁抵押	-11.0834
▁燃烧	-11.0836
▁第一步	-11.0841
▁职工	-11.0841
▁节约	-11.0841
▁小孩	-11.0843
▁诊所	-11.0844
▁评注	-11.085
▁忆及	-11.0851
▁接待	-11.0852
▁太太	-11.0858
▁阳光	-11.0866
▁空运	-11.0867
▁o	-11.0868
▁配	-11.0868
▁复兴	-11.0871
建	-11.0874
素	-11.0876
▁第三国	-11.0882
▁神经	-11.0888
▁政	-11.0891
▁清洗	-11.0896
▁一会儿	-11.0897
▁无条件	-11.0898
由	-11.0904
▁违法	-11.0909
▁核不扩散	-11.0909
液	-11.0919
赛	-11.0924
▁病例	-11.0925
▁General	-11.0926
▁职权	-11.0926
▁审计员	-11.093
▁思维	-11.0933
▁用尽	-11.0934
▁平	-11.0942
▁书记	-11.0951
▁微笑	-11.0951
▁体重	-11.0953
▁马尔代夫	-11.0953
▁为主	-11.0954
▁乘	-11.0954
▁优点	-11.0957
▁一群	-11.0961
▁认同	-11.0961
▁预算编制	-11.0963
▁联合国日内瓦办事处	-11.0965
环	-11.0972
▁山区	-11.0972
▁微型	-11.0974
立	-11.0978
▁托	-11.0981
▁Original	-11.0986
▁稳定性	-11.0987
▁区域性	-11.099
神	-11.099
▁难道	-11.1001
▁商务	-11.1006
▁涉嫌	-11.1006
▁诸多	-11.1009
节	-11.1014
▁境外	-11.1026
▁品	-11.103
▁淘汰	-11.1033
▁悲剧	-11.1034
▁深切	-11.1036
▁强度	-11.1039
存	-11.1041
▁什么样	-11.1045
▁劳动者	-11.1051
▁扮演	-11.1052
▁雇佣军	-11.1052
▁那天	-11.1052
▁研发	-11.1058
▁特色	-11.1059
▁听见	-11.1062
▁1984	-11.1064
▁结	-11.1066
班	-11.1067
房	-11.1067
干	-11.1068
▁借助	-11.1068
▁抓	-11.1068
▁农产品	-11.107
▁频繁	-11.1078
▁吸引力	-11.1083
若	-11.1085
▁究竟	-11.1088
▁连续性	-11.1089
▁套	-11.1091
▁哪儿	-11.1095
▁忽略	-11.1097
料	-11.1098
▁三项	-11.1098
▁加深	-11.11
▁文中	-11.1108
S	-11.111
根	-11.1113
▁技术支持	-11.1117
▁违法行为	-11.1117
▁火车	-11.1118
▁幸运	-11.1118
▁决不	-11.112
▁何	-11.1123
▁俄	-11.1124
▁Q	-11.1127
▁实用	-11.1135
▁权力下放	-11.114
▁体罚	-11.114
▁关键问题	-11.114
▁扫盲	-11.1148
▁场地	-11.115
▁赤贫	-11.1151
▁忙	-11.1153
▁现任	-11.1163
▁东南亚	-11.1165
▁症状	-11.1165
▁股份	-11.1171
▁第六届	-11.1172
▁全民投票	-11.1179
▁国内外	-11.1182
《	-11.1185
▁慷慨	-11.1186
▁各部	-11.1187
▁尸体	-11.1201
▁免	-11.1203
▁平静	-11.1208
▁举	-11.1212
▁姆	-11.1219
▁通道	-11.1226
▁选项	-11.1228
▁第六次	-11.1228
▁晚	-11.1229
▁虚拟	-11.123
▁布鲁塞尔	-11.123
in	-11.1232
▁透露	-11.1238
▁时说	-11.1242
▁他会	-11.1242
▁2020	-11.1244
▁图片	-11.1244
▁简	-11.1246
▁海牙	-11.1249
▁名为	-11.1251
▁品质	-11.1254
▁保	-11.1255
▁定居	-11.1257
▁苹果	-11.1263
▁第五届	-11.1266
地区	-11.1269
▁绳之以法	-11.1269
▁第十一届	-11.1271
▁火	-11.1272
▁回复	-11.1274
▁存款	-11.1276
▁境况	-11.1276
瓦	-11.1278
▁重大进展	-11.1279
▁得知	-11.1282
▁友谊	-11.1284
▁吸烟	-11.1289
想	-11.1289
▁缺点	-11.1292
▁欧洲共同体	-11.1296
▁固有	-11.1296
▁回归	-11.1301
▁中将	-11.1309
▁盘旋	-11.131
▁调查团	-11.131
▁场合	-11.1312
▁集束	-11.1315
▁等于	-11.1315
▁苏联	-11.1317
▁替代品	-11.1318
▁天空	-11.1319
▁玻利瓦尔	-11.1321
▁毛里塔尼亚	-11.1326
▁日历	-11.1329
▁预防措施	-11.1329
▁卷入	-11.1329
▁引进	-11.133
▁世卫	-11.1331
架	-11.1337
▁有个	-11.1337
▁出台	-11.1337
▁占据	-11.1341
▁进攻	-11.1343
▁紧张局势	-11.1344
▁矿物	-11.1349
▁加紧努力	-11.135
▁小说	-11.135
▁二氧化碳	-11.1356
▁黄金	-11.1359
▁界限	-11.136
▁假期	-11.1361
▁血	-11.1366
▁陆地	-11.1366
▁大概	-11.1368
▁红色	-11.1368
▁完整性	-11.137
▁上周	-11.1379
▁宇宙	-11.1381
▁鉴定	-11.1382
al	-11.1383
▁作家	-11.1384
▁作出反应	-11.1384
▁制造业	-11.1387
实现	-11.139
任何	-11.1391
▁财务状况	-11.1392
▁适宜	-11.1393
▁孕产妇	-11.1404
▁遵照	-11.1405
▁124	-11.1406
库	-11.1408
▁1973	-11.1411
厂	-11.1413
▁联合国人口基金	-11.1416
▁甄选	-11.1417
▁各项规定	-11.1418
重	-11.1418
▁信中	-11.1419
▁无视	-11.142
▁管理机构	-11.1426
▁章节	-11.143
▁卷	-11.1431
▁伊斯兰教	-11.1433
▁而已	-11.1435
▁益处	-11.1439
▁第七	-11.1445
▁氟	-11.145
▁镇	-11.1451
▁138	-11.1454
▁莫斯科	-11.1457
▁累积	-11.1459
▁实效	-11.146
▁费率	-11.1462
▁中午	-11.1467
▁可信	-11.1468
▁相结合	-11.1469
▁荣幸	-11.1473
▁邮票	-11.1474
▁承付	-11.1474
▁监视	-11.1478
▁独立宣言	-11.1481
平	-11.1481
▁细菌	-11.1486
▁贩毒	-11.1487
▁性骚扰	-11.149
▁停	-11.1497
▁English	-11.1498
▁火箭	-11.1502
▁氯化	-11.1512
▁补救措施	-11.1515
▁公私	-11.152
▁艾	-11.1521
▁不知	-11.1523
▁经社	-11.1524
▁128	-11.1525
▁十六届	-11.1531
▁乘客	-11.1533
▁自动化	-11.1534
▁家中	-11.1536
▁刑罚	-11.1541
▁北约	-11.1543
▁笔	-11.1546
▁根	-11.1547
▁134	-11.1551
▁可靠性	-11.1553
▁赚	-11.1555
▁背	-11.1556
版	-11.1559
段	-11.156
▁旅客	-11.1564
除	-11.1566
▁2.2	-11.1567
▁1.2	-11.1569
▁Z	-11.1575
兹	-11.1581
▁自行车	-11.1581
▁外来	-11.1582
▁躺	-11.1585
▁3.1	-11.1586
▁慈善	-11.1587
▁极为重要	-11.1587
▁两天	-11.1589
等	-11.1589
▁不可或缺	-11.159
▁愤怒	-11.1598
▁段落	-11.1601
火	-11.1604
▁受过	-11.1605
▁实力	-11.1605
▁非洲大陆	-11.1609
▁牛	-11.1609
▁对手	-11.1609
▁切割	-11.1612
▁抱歉	-11.1617
▁同行	-11.1623
▁迫害	-11.1624
▁大卫	-11.1634
▁第二天	-11.164
▁改	-11.1641
▁查	-11.1644
▁常用	-11.1645
▁一批	-11.1646
▁裁减	-11.1647
▁Distr	-11.1655
▁背后	-11.1658
▁庞大	-11.1663
▁想起	-11.1665
▁合约	-11.1667
▁无论如何	-11.1668
▁损伤	-11.1671
▁通告	-11.1675
▁第八届	-11.1677
▁非统组织	-11.1678
▁当事	-11.1678
民	-11.1687
▁事务司	-11.169
▁坏	-11.1691
无	-11.1695
▁收容	-11.1697
▁民用	-11.1699
▁2016	-11.1701
▁1949	-11.1703
▁不丹	-11.1704
▁译文	-11.1711
▁调集	-11.1714
▁旁边	-11.1718
▁区域间	-11.1719
▁输出	-11.172
▁介入	-11.172
▁纠纷	-11.1721
▁第十九条	-11.1724
▁天然	-11.1724
▁支	-11.1726
▁155	-11.1727
国际	-11.1733
▁致命	-11.174
▁衰退	-11.1741
▁警卫	-11.1744
▁妥协	-11.1745
▁卖方	-11.1751
▁马德里	-11.1751
▁圭亚那	-11.176
▁直	-11.1762
丝	-11.1765
▁生产能力	-11.1766
▁农药	-11.1768
▁焦点	-11.177
▁接下	-11.1775
▁极端主义	-11.1776
▁暂定	-11.1777
▁藏	-11.1782
▁增设	-11.1782
教	-11.1782
▁远程	-11.1784
▁崩溃	-11.1785
▁126	-11.179
▁印	-11.179
▁进而	-11.1791
▁贝	-11.1792
▁股市	-11.1792
▁"7	-11.1799
▁早晨	-11.18
▁甲基	-11.1802
▁官长	-11.1803
▁迫切	-11.1811
▁拖	-11.1817
边	-11.182
▁摩尔多瓦共和国	-11.1821
商	-11.1823
股	-11.1824
▁压	-11.1826
▁公告	-11.1832
▁中小型	-11.1832
▁独立国家	-11.1833
▁扶持	-11.1836
▁学术界	-11.1842
▁分娩	-11.1843
▁称赞	-11.1844
ing	-11.1846
▁穿过	-11.185
▁曼	-11.185
▁主持人	-11.1854
▁受欢迎	-11.1855
▁如上	-11.1855
▁第一阶段	-11.1858
至于	-11.1863
情	-11.1864
▁1979	-11.1864
▁地名	-11.1868
▁总量	-11.187
▁受益人	-11.1871
▁口	-11.1871
▁资金来源	-11.1872
普	-11.1877
▁所致	-11.1879
▁专长	-11.188
▁追回	-11.1883
▁草	-11.1884
▁送到	-11.1884
▁人身	-11.1885
▁连同	-11.1889
▁猫	-11.1891
▁相一致	-11.1895
▁白色	-11.1898
▁难题	-11.1908
▁球员	-11.1911
华	-11.1915
▁纤维	-11.1917
▁函数	-11.1919
▁款额	-11.1919
▁普	-11.1921
▁寄	-11.1923
愿	-11.1926
▁各种各样	-11.1927
▁基层	-11.1928
▁规律	-11.193
▁呼吸	-11.193
▁乌	-11.1938
▁聚会	-11.1944
▁久	-11.1946
▁债务人	-11.1947
▁客人	-11.195
奇	-11.195
▁不安	-11.1954
▁一面	-11.1964
▁铜	-11.1968
▁暴露	-11.197
认为	-11.1971
▁05	-11.1972
▁交叉	-11.1972
▁缴付	-11.1978
▁CO	-11.1981
▁管道	-11.1984
▁夫妇	-11.1986
▁阿拉伯国家联盟	-11.1988
▁凯	-11.1988
▁到期	-11.1989
▁这两项	-11.1992
▁第一条	-11.1993
▁玛丽	-11.1994
▁哥本哈根	-11.2001
▁脸上	-11.2002
▁护士	-11.2005
▁庭长	-11.2006
解	-11.2006
▁板	-11.2013
▁自卫	-11.2014
▁不必要	-11.2018
▁信用	-11.2026
▁轮	-11.2039
▁大批	-11.2041
▁约翰内斯堡	-11.2042
▁运	-11.2042
▁违约	-11.2045
▁产假	-11.2047
▁精力	-11.205
▁投标	-11.2052
▁版	-11.2053
药	-11.2053
▁应是	-11.2054
▁史	-11.2055
▁波多黎各	-11.2058
▁抢劫	-11.206
▁阵线	-11.2069
▁充当	-11.2069
▁用水	-11.2072
▁轻松	-11.2072
▁样本	-11.2075
▁无障碍	-11.2077
▁征收	-11.2078
团	-11.2079
▁房舍	-11.208
▁无辜	-11.2082
▁1540	-11.2083
▁鼓舞	-11.2084
▁立法会	-11.2086
言	-11.2088
▁第十二届	-11.2094
▁与会	-11.2095
▁充分考虑	-11.2095
▁董事	-11.2095
▁托管	-11.2103
▁不让	-11.2109
▁系数	-11.2112
▁改动	-11.2114
▁花园	-11.2115
▁不良	-11.2116
▁妇女组织	-11.2118
▁体验	-11.2119
▁走私	-11.212
▁运转	-11.2123
▁金融市场	-11.2124
▁相符	-11.2126
据报	-11.2129
▁拖欠	-11.2132
▁城市化	-11.2134
▁不确定性	-11.2135
▁拆除	-11.2142
▁报导	-11.2142
▁赛	-11.2142
▁大学生	-11.2145
▁限额	-11.2152
▁学员	-11.2153
▁烟草	-11.2154
▁惠益	-11.2156
▁高层	-11.216
▁带到	-11.2161
▁生命权	-11.2162
▁小组讨论	-11.2171
▁信件	-11.2173
▁令人遗憾	-11.2175
▁戈兰	-11.2182
▁姑娘	-11.2189
▁划拨	-11.2191
▁2017	-11.2194
▁枚	-11.2194
▁伴随	-11.2205
▁服务业	-11.2206
▁132	-11.2208
▁吸毒	-11.2209
▁三方	-11.2209
▁靠近	-11.221
▁这部	-11.221
▁亲属	-11.2212
▁简直	-11.2212
▁好好	-11.2212
▁走进	-11.2214
▁法律顾问	-11.2215
▁153	-11.222
▁地向	-11.2225
▁联委会	-11.2237
▁唱	-11.2238
▁侧重	-11.2239
▁杜	-11.2241
▁昂贵	-11.2244
▁加重	-11.2245
▁挂钩	-11.225
▁窗口	-11.225
▁杰克	-11.2252
▁梅	-11.2253
▁x	-11.2254
交	-11.2256
▁十二	-11.2257
▁核算	-11.226
▁浏览	-11.2263
知	-11.2264
▁使人	-11.2267
初	-11.2267
放	-11.2269
理	-11.2275
▁遥感	-11.2276
▁所提	-11.2277
▁蔬菜	-11.2279
▁软	-11.2286
▁简介	-11.2287
▁身份证	-11.2288
▁孤立	-11.2288
▁产	-11.2291
▁麻醉品	-11.2291
角	-11.2292
▁形态	-11.2293
▁不可分割	-11.2295
▁举报	-11.2297
▁毕业生	-11.2297
▁巴格达	-11.2302
▁修理	-11.2306
▁落后	-11.2306
▁扣押	-11.2306
▁信誉	-11.2312
▁加蓬	-11.2315
▁延伸	-11.2316
▁迎接	-11.2316
▁动用	-11.2318
▁财政部	-11.2321
▁抵制	-11.2321
▁宽容	-11.2324
▁之二	-11.233
▁奇	-11.2334
▁算	-11.2335
▁对本	-11.2338
白	-11.2342
▁幅度	-11.2344
▁附注	-11.2345
▁人工	-11.2345
▁幸存者	-11.2347
办	-11.2349
▁几项	-11.2351
▁不适	-11.2352
期间	-11.2352
洛	-11.2358
▁129	-11.2359
▁太阳能	-11.236
▁保护措施	-11.2361
▁年份	-11.2362
▁号法	-11.2365
▁插入	-11.2365
▁惊讶	-11.2366
▁古老	-11.2366
▁福	-11.2368
▁勇气	-11.2368
▁论	-11.237
▁注射	-11.237
▁说服	-11.2381
r	-11.2384
▁一致意见	-11.2385
▁第五十四届	-11.2386
▁流动性	-11.2387
▁密集	-11.2388
▁偷运	-11.2388
▁创伤	-11.2394
▁伊拉克政府	-11.2394
▁可疑	-11.2394
翼	-11.2395
▁发明	-11.2396
▁教育权	-11.2399
▁135	-11.24
▁养老金	-11.2402
▁反复	-11.2403
▁影片	-11.2404
▁2.5	-11.2404
▁桌子	-11.2406
▁关岛	-11.2411
▁前所未有	-11.2412
▁战略性	-11.2415
▁宪法法院	-11.2417
死	-11.2419
▁支撑	-11.2422
▁创作	-11.2435
树	-11.2438
▁"8	-11.2438
▁TD	-11.244
▁拘押	-11.2445
▁健康状况	-11.2445
▁各州	-11.2449
▁群	-11.2449
党	-11.2449
▁军人	-11.2455
▁这会	-11.2455
▁热带	-11.2457
▁127	-11.2458
▁远离	-11.2458
▁全国性	-11.2459
▁恐	-11.2463
▁季度	-11.2473
▁良心	-11.2475
▁奖	-11.2476
▁伴侣	-11.2477
▁时应	-11.248
例如	-11.2483
▁奴役	-11.2484
星	-11.2485
▁辞职	-11.2486
个月	-11.2486
▁182	-11.2491
叶	-11.2492
近	-11.2493
爱	-11.2495
▁生气	-11.2496
▁文化遗产	-11.2497
▁联苏	-11.2497
▁一篇	-11.2497
▁兼顾	-11.2499
▁度过	-11.2501
▁蓄意	-11.2503
▁布雷顿	-11.2507
▁侦查	-11.2509
▁同学	-11.251
▁杰出	-11.2512
▁不法行为	-11.2517
谓	-11.2519
▁隔离墙	-11.252
与	-11.2521
▁辅导	-11.2524
强	-11.2529
▁殴打	-11.2541
▁查看	-11.2541
▁经济学	-11.2544
▁明智	-11.2547
▁闭幕	-11.255
▁理性	-11.2555
▁市长	-11.2556
迟	-11.2561
▁卡尔	-11.2562
▁哲学	-11.2565
▁减灾	-11.2565
▁指引	-11.2566
塞	-11.2568
▁心灵	-11.2568
▁170	-11.2569
▁拍	-11.2569
▁免除	-11.257
▁乔	-11.2571
▁撰写	-11.2587
▁耶	-11.2589
▁早些时候	-11.2593
▁判定	-11.2593
▁过时	-11.2594
▁兹	-11.2598
▁公然	-11.26
▁记	-11.2603
▁海军	-11.2606
▁夏天	-11.2606
▁吉	-11.2606
▁里程碑	-11.2608
▁主管机构	-11.2609
▁新增	-11.2619
▁写作	-11.262
▁此案	-11.2622
▁格	-11.2624
▁联网	-11.2625
▁出席会议	-11.2626
厅	-11.2637
▁大程度	-11.2639
▁院长	-11.2639
▁诗	-11.264
▁官	-11.2641
▁卡车	-11.2643
▁公寓	-11.2643
▁最小	-11.2643
▁这座	-11.2644
做	-11.2646
六	-11.2647
▁141	-11.2649
▁易于	-11.2649
▁后代	-11.265
▁替换	-11.265
▁联合国粮食及农业组织	-11.2651
▁延续	-11.2651
▁夫妻	-11.2653
▁到处	-11.2653
▁石	-11.2654
▁拿出	-11.2656
▁133	-11.2661
词	-11.2662
▁同步	-11.2662
▁胁迫	-11.2662
▁多重	-11.2672
▁杀死	-11.2673
▁睡眠	-11.2674
话	-11.2675
▁感	-11.2677
活	-11.268
▁忘	-11.2685
▁斡旋	-11.2686
▁第三章	-11.2687
▁防御	-11.2694
大学	-11.2695
▁载列	-11.2696
▁1983	-11.2698
▁之类	-11.27
▁法外	-11.2703
▁卢	-11.2705
▁分组	-11.2707
▁遵约	-11.2708
▁强劲	-11.2709
▁招标	-11.2712
▁英译汉	-11.2713
▁亚的斯亚贝巴	-11.2715
▁严肃	-11.2723
则	-11.2724
▁疑问	-11.2724
▁原文	-11.2725
▁体内	-11.2729
▁可怜	-11.2734
▁很小	-11.2734
▁术	-11.2734
公司	-11.2735
▁博	-11.2741
▁话题	-11.2742
骨	-11.2744
▁述及	-11.2745
▁判刑	-11.2748
▁阵地	-11.2749
▁发病率	-11.2751
▁科学研究	-11.2751
▁严格遵守	-11.2754
▁钢	-11.2756
▁什	-11.2758
▁从前	-11.2758
样	-11.2759
▁僵局	-11.2761
▁孤儿	-11.2763
▁犯人	-11.2764
▁幼儿	-11.2764
▁特别法庭	-11.2764
▁王国	-11.2766
▁故障	-11.2767
▁东亚	-11.2769
▁驾驶	-11.2769
▁血液	-11.2772
▁认知	-11.2774
钱	-11.2775
▁形状	-11.2776
▁创立	-11.2776
▁色彩	-11.2784
▁不可避免	-11.2788
▁荣誉	-11.2794
ed	-11.2796
▁深化	-11.2798
▁录音	-11.28
▁按时	-11.2801
▁有毒	-11.2802
▁编入	-11.2803
▁调查表	-11.2804
▁课题	-11.2804
▁水果	-11.2807
▁决定性	-11.2809
▁第十条	-11.2811
▁深感	-11.2811
▁翻	-11.2813
▁成年	-11.2817
▁全额	-11.2821
▁131	-11.2822
▁艰苦	-11.2824
▁海啸	-11.2825
▁自治区	-11.2827
▁辆	-11.2828
▁时机	-11.2837
▁便是	-11.2838
▁立	-11.2842
▁整	-11.2843
▁填写	-11.2846
▁高效率	-11.2849
▁只不过	-11.2849
▁商人	-11.285
▁阶层	-11.2851
▁下令	-11.2853
▁洗	-11.2858
▁自信	-11.2861
▁药物滥用	-11.2861
▁发言稿	-11.2863
▁亲自	-11.2868
▁欣赏	-11.2868
▁洛	-11.2868
▁军备竞赛	-11.2872
▁谈谈	-11.2873
▁GDP	-11.2875
▁睡觉	-11.2876
▁无数	-11.2877
▁仿真	-11.2877
▁黑色	-11.2879
▁阿曼	-11.2879
▁自主权	-11.288
▁国防部	-11.288
▁拍卖	-11.2884
▁落	-11.2887
▁高度重视	-11.2887
▁物流	-11.2893
单	-11.2894
▁"9	-11.2896
▁136	-11.2897
▁心中	-11.2899
▁吸取	-11.29
▁第一款	-11.2901
▁发育	-11.2903
▁经常性	-11.2905
▁09	-11.2906
▁再也	-11.2908
▁黑人	-11.291
▁169	-11.2914
▁á	-11.2917
张	-11.2917
▁暗示	-11.292
▁执行机构	-11.2922
▁心脏	-11.2933
▁措词	-11.2937
▁防	-11.2937
▁左	-11.294
▁派驻	-11.2943
▁营销	-11.2946
▁整理	-11.2948
▁胡	-11.2948
击	-11.2949
▁赤字	-11.2949
▁足	-11.295
▁交存	-11.295
境	-11.2953
▁街道	-11.2954
掉	-11.2959
▁令人鼓舞	-11.2961
▁右	-11.2966
▁接种	-11.2969
▁互助	-11.2969
所作	-11.2972
▁订单	-11.2975
F	-11.2976
▁通知书	-11.2977
▁正面	-11.2984
▁主意	-11.2984
▁供应链	-11.2986
▁in	-11.2987
▁部件	-11.2996
▁艺术家	-11.2998
源	-11.3001
▁替	-11.301
不过	-11.3013
▁性别歧视	-11.3014
▁"10	-11.3015
▁增效	-11.3017
▁连贯	-11.3018
▁营业	-11.3019
虽然	-11.3019
▁播放	-11.302
▁硬	-11.3022
▁建制	-11.3022
▁医疗保险	-11.3025
▁进去	-11.3028
▁通胀	-11.3029
▁急剧	-11.3029
▁沉重	-11.3033
▁第十三届	-11.3034
▁源自	-11.3043
▁中央银行	-11.3045
▁构造	-11.3047
委	-11.3047
养	-11.3048
▁住宿	-11.3051
▁航空公司	-11.3051
▁彼得	-11.3052
▁几种	-11.3054
大会	-11.3056
▁内外	-11.3064
▁小规模	-11.3065
▁法典	-11.3065
▁意志	-11.3067
▁生意	-11.3069
▁附表	-11.308
▁匹配	-11.3081
▁抽	-11.3085
▁非洲人	-11.3086
▁联合行动	-11.3091
▁搬	-11.3093
▁观看	-11.3094
▁液体	-11.3094
▁雪	-11.3099
▁审核	-11.3102
▁样品	-11.3108
▁便宜	-11.3111
▁历史性	-11.3114
▁应收款	-11.3117
▁长远	-11.3118
▁百	-11.3119
思	-11.3119
龙	-11.312
▁差旅	-11.3121
来说	-11.3122
▁多方	-11.3122
▁困扰	-11.3126
▁高等法院	-11.3134
▁交谈	-11.3135
▁茶	-11.3138
▁临	-11.3138
▁贴	-11.3143
边贸易	-11.3143
▁各省	-11.3149
▁简短	-11.3149
压	-11.3149
▁环境影响	-11.3151
女	-11.3154
▁冒	-11.3157
即	-11.3159
▁似的	-11.316
▁未决	-11.3162
▁当天	-11.3169
▁保卫	-11.3175
▁传送	-11.3178
▁犹太人	-11.318
▁生产性	-11.3184
▁逃离	-11.3186
▁前后	-11.3189
▁奥运	-11.3193
▁薄弱	-11.3193
▁冷战	-11.3194
▁八届	-11.3199
尽管	-11.3202
▁兑现	-11.3207
▁预审	-11.3207
际	-11.3207
▁国有	-11.3207
▁递	-11.3212
▁民政	-11.3214
▁高中	-11.3215
▁犯罪活动	-11.3221
▁保持一致	-11.3225
▁塑料	-11.3226
▁足球	-11.3227
▁活性	-11.3228
▁传感器	-11.3229
▁尺寸	-11.323
▁制备	-11.3232
▁机器人	-11.3232
▁吹	-11.3233
▁贵国	-11.3235
▁对不起	-11.3236
▁电视台	-11.3236
▁阿布哈兹	-11.3238
▁吃饭	-11.3242
▁毒性	-11.3247
▁传输	-11.3248
▁民航	-11.3248
▁1.5	-11.3248
▁有效率	-11.3252
▁约定	-11.3254
▁居留	-11.3254
▁用语	-11.3256
▁一向	-11.3257
▁局长	-11.3259
▁地质	-11.3261
▁拘禁	-11.327
▁皇家	-11.3271
▁书籍	-11.3272
木	-11.3274
▁木	-11.3285
▁晋升	-11.3286
估计	-11.3288
伦	-11.3289
▁深度	-11.3289
▁局部	-11.3292
▁世界粮食计划署	-11.3293
▁链接	-11.3296
▁现况	-11.3297
电	-11.33
▁剂	-11.33
▁相辅相成	-11.3302
▁省级	-11.3305
▁八个	-11.3307
▁问卷	-11.331
▁仅限	-11.3312
▁扶贫	-11.3313
▁复审	-11.3313
战	-11.3313
▁一把	-11.3317
▁乔治	-11.332
▁公斤	-11.3321
▁扫描	-11.3323
▁162	-11.3323
▁抚养	-11.3323
▁面试	-11.3327
▁立法机构	-11.3327
▁鹿特丹	-11.3333
▁红十字	-11.3335
▁舒适	-11.3337
▁开车	-11.3339
▁第六十六	-11.334
▁冈比亚	-11.3341
▁推翻	-11.3341
▁行李	-11.3344
盘	-11.3344
▁暴行	-11.3346
▁市场经济	-11.3352
▁心情	-11.3357
通过	-11.3358
▁统计资料	-11.3359
▁协商会议	-11.3359
之间	-11.3363
▁否定	-11.3363
▁特立尼达和多巴哥	-11.3363
▁贯彻	-11.3364
▁致力	-11.3364
▁球队	-11.3368
▁承担责任	-11.337
▁众所周知	-11.3373
▁救	-11.3376
属	-11.3377
▁石头	-11.3379
几个	-11.3382
▁仓库	-11.3382
▁民主党	-11.3392
▁省份	-11.3392
▁该次	-11.3394
▁桥梁	-11.3395
▁相互作用	-11.3395
让	-11.3396
▁伊斯坦布尔	-11.3396
院	-11.3401
视	-11.3409
了	-11.341
▁宽	-11.341
▁答辩	-11.3412
▁懂	-11.3413
娜	-11.3415
▁日常生活	-11.3415
▁El	-11.3417
▁以色列政府	-11.3418
▁诚实	-11.3426
丽	-11.3427
f	-11.3432
▁社团	-11.3434
▁探测	-11.3438
▁传达	-11.3441
货币基金	-11.3442
▁生产率	-11.3442
▁裔	-11.3443
▁深深	-11.3446
▁解散	-11.3447
▁巴哈马	-11.3447
▁后裔	-11.3452
较	-11.3461
▁领	-11.3461
▁宣读	-11.3462
▁弹性	-11.3462
▁句子	-11.3465
▁长度	-11.3466
▁可爱	-11.347
▁着眼于	-11.3473
▁限制性	-11.3475
▁爬	-11.3475
▁结构调整	-11.3482
▁奴隶	-11.3483
▁暴力事件	-11.3484
M	-11.3493
▁财政年度	-11.3495
▁多元化	-11.3495
▁实时	-11.3496
▁1960	-11.3497
▁研训	-11.3498
▁点击	-11.3499
▁平等权利	-11.3502
▁大麻	-11.3506
▁战胜	-11.3509
▁保守	-11.3511
▁流量	-11.3511
▁索取	-11.3511
▁细	-11.3514
▁种群	-11.3519
▁巴布亚新几内亚	-11.3522
全	-11.3523
▁莱索托	-11.3525
▁量化	-11.3526
▁欧	-11.3527
▁战略方针	-11.3527
▁而定	-11.3528
▁社会保险	-11.3528
▁冒险	-11.3528
▁糖	-11.3529
▁工	-11.353
▁刑事犯罪	-11.353
▁空白	-11.3532
▁CD	-11.3532
N	-11.3532
变	-11.3533
▁月初	-11.3533
▁强制执行	-11.3534
▁分区	-11.3534
▁太空	-11.3536
世	-11.3539
▁142	-11.354
▁第八条	-11.354
▁战略规划	-11.3545
▁尽量减少	-11.3546
▁上班	-11.3547
▁餐厅	-11.3548
▁弱点	-11.355
▁详细资料	-11.355
▁t	-11.355
▁季节	-11.3551
▁直布罗陀	-11.3551
▁屠杀	-11.3554
▁千	-11.3555
▁避孕	-11.3556
▁肇事者	-11.3558
▁飞离	-11.3559
▁被害人	-11.3561
▁交往	-11.3561
▁上市	-11.3562
▁便利化	-11.3565
▁征税	-11.3565
▁同情	-11.357
▁航班	-11.3579
▁声援	-11.3582
原	-11.3583
▁中立	-11.3585
沙	-11.3585
▁品种	-11.3587
▁智能	-11.3589
▁哭	-11.3592
▁略	-11.3594
▁开罗	-11.3594
持	-11.3597
▁勇敢	-11.36
▁游泳	-11.3604
▁汲取	-11.3606
▁2.3	-11.3608
▁三大	-11.3609
常任理事	-11.3609
▁丧生	-11.3609
▁负面	-11.3613
▁资讯科技	-11.3614
▁受益者	-11.3615
▁在职	-11.3615
古	-11.3615
师	-11.3616
▁罢工	-11.3616
▁注销	-11.3621
▁扎	-11.3622
▁143	-11.3627
▁管理部	-11.3629
▁鲁	-11.3634
▁突破	-11.3639
▁列表	-11.3639
ar	-11.3641
▁保护区	-11.3642
▁消耗性	-11.3644
▁洪水	-11.3645
▁不如	-11.3645
▁从不	-11.3646
▁强行	-11.3646
▁选择性	-11.365
▁管理工作	-11.3655
▁小册子	-11.3656
▁和平部队	-11.3656
博	-11.3658
▁冰	-11.3659
▁保罗	-11.3661
▁土著居民	-11.3662
晚	-11.3663
▁部长会议	-11.3666
伯	-11.3666
▁盐	-11.3667
▁承办	-11.3668
▁南北	-11.3669
▁差不多	-11.3673
es	-11.3674
▁承包者	-11.3678
▁下滑	-11.3679
▁合办	-11.3679
奥	-11.368
▁137	-11.3684
▁仪器	-11.3688
▁大国	-11.3693
▁源于	-11.3694
▁捕鱼	-11.3697
论	-11.3698
▁初始	-11.3698
▁学位	-11.3701
▁创造性	-11.3709
▁沙特	-11.371
▁外汇	-11.371
▁基线	-11.3711
▁搜查	-11.3713
▁密切相关	-11.3714
▁"11	-11.3714
▁答应	-11.3715
▁生物武器	-11.3718
▁家族	-11.3726
▁变为	-11.3729
居	-11.3734
▁震惊	-11.3735
▁忧虑	-11.3738
▁复合	-11.3741
致	-11.3741
▁没什么	-11.3743
▁供给	-11.3743
▁两周	-11.3744
▁外界	-11.3748
▁筹备会议	-11.375
▁逃	-11.375
▁民主化	-11.3751
▁约会	-11.3755
▁词汇	-11.3755
▁重量	-11.3755
▁飞越	-11.3756
▁220	-11.3759
▁潜能	-11.3759
户	-11.3765
▁此时	-11.3766
▁兵	-11.3767
▁第六十	-11.3768
▁揭示	-11.3771
东	-11.3772
▁勒	-11.3772
▁雇佣	-11.3772
▁在场	-11.3772
▁环境卫生	-11.3773
▁老挝人民民主共和国	-11.3774
▁装饰	-11.3775
▁欧元区	-11.3776
P	-11.3778
▁去世	-11.3778
▁新闻稿	-11.3781
▁第二十届	-11.3782
▁解	-11.3782
▁跨部门	-11.3784
▁尤为	-11.3786
▁获准	-11.379
▁第八	-11.379
▁存放	-11.3792
E	-11.3794
▁08	-11.3797
▁第二十三届	-11.3797
▁面包	-11.3798
而言	-11.3801
▁偏	-11.3805
▁习惯法	-11.3808
▁央行	-11.3811
▁1974	-11.3811
▁裁撤	-11.3812
▁"19	-11.3813
▁发表意见	-11.3815
▁一体	-11.3818
▁年内	-11.3818
▁容器	-11.3818
▁高速	-11.382
▁3.2	-11.3823
▁以免	-11.3823
▁145	-11.3825
快	-11.3828
▁1975	-11.3828
▁崇高	-11.3833
▁中欧	-11.3835
现在	-11.3835
▁泡沫	-11.3838
▁财力	-11.3838
▁发动机	-11.3841
▁战略目标	-11.3842
▁温	-11.3842
▁分项	-11.3843
▁必要条件	-11.3847
脚	-11.385
▁国家计划	-11.3851
an	-11.3854
赫	-11.3854
▁搭	-11.3855
▁波恩	-11.3855
▁汽油	-11.3859
▁早已	-11.386
▁回国	-11.386
▁旋转	-11.3868
▁二苯醚	-11.3868
▁混凝土	-11.3868
▁第十二条	-11.3873
▁144	-11.3874
▁战	-11.3875
▁盈余	-11.3881
▁媒介	-11.3883
▁发展部	-11.3887
▁可见	-11.3889
▁危险废物	-11.389
▁动	-11.389
▁惊人	-11.389
村	-11.3891
▁澳门	-11.3892
▁比尔	-11.3893
▁开心	-11.3894
▁附有	-11.3898
▁富	-11.39
▁成千上	-11.3902
▁4.1	-11.3902
▁时所	-11.3904
▁麦	-11.3908
▁神圣	-11.391
▁莱	-11.3914
▁犯罪者	-11.3918
▁原件	-11.3924
▁PV	-11.3925
▁赋权	-11.3933
▁密码	-11.3935
▁走上	-11.3936
▁一间	-11.394
职	-11.3942
▁一对	-11.3944
▁人口普查	-11.3945
▁儿	-11.3948
市场	-11.3949
▁不利于	-11.3954
▁不太	-11.3954
▁技术性	-11.3957
▁重计	-11.3957
H	-11.3959
▁厂	-11.3964
▁传染性	-11.3967
▁牛奶	-11.3967
▁146	-11.3968
▁块	-11.3973
纸	-11.3976
▁很长	-11.3978
▁私有化	-11.398
▁厨房	-11.3981
▁原子	-11.3982
最后	-11.3982
▁电池	-11.3982
▁猪	-11.3983
▁联合国安全理事会	-11.3983
▁徒刑	-11.3983
▁草拟	-11.3984
莱	-11.3985
▁一颗	-11.3987
▁铲除	-11.3988
吉	-11.3989
▁喜爱	-11.3994
▁迪	-11.3995
▁凭	-11.3996
▁土地利用	-11.3999
▁疗效	-11.4
▁附带	-11.4001
▁依赖于	-11.4002
▁引	-11.4003
▁最低工资	-11.4006
▁综述	-11.4008
▁139	-11.4011
▁新闻界	-11.4011
▁讨厌	-11.4012
▁云	-11.4013
▁干净	-11.4017
▁目	-11.4018
系统	-11.4021
粉	-11.4022
▁大选	-11.4022
切	-11.4022
▁第四章	-11.4027
▁苏格兰	-11.4031
▁书记官	-11.4031
▁旁	-11.4031
▁毁坏	-11.4032
▁届满	-11.4033
▁保险公司	-11.4036
▁市政	-11.4037
▁加紧	-11.4043
目	-11.4046
▁回去	-11.4054
▁组件	-11.4061
▁智力	-11.4065
▁势力	-11.4066
▁日刊	-11.4068
▁某种程度	-11.4078
▁族群	-11.4078
0	-11.408
▁缔约	-11.4082
▁身心	-11.4082
▁二级	-11.4084
▁军方	-11.4085
▁禁产	-11.4085
▁富裕	-11.4086
▁玩具	-11.4089
▁饮料	-11.4094
▁多人	-11.4098
▁乃	-11.4102
▁懂得	-11.4105
▁购物	-11.4107
▁纪录	-11.4107
▁饮水	-11.4112
▁岗位	-11.4114
▁一并	-11.4115
▁放缓	-11.4117
“	-11.4118
▁公职人员	-11.4119
什	-11.4123
▁劳动法	-11.4127
土	-11.4133
国家	-11.4134
▁腿	-11.4138
▁女工	-11.4138
落	-11.414
▁偶	-11.4144
▁节日	-11.4146
▁注入	-11.4151
▁角	-11.4154
▁近来	-11.4156
▁英里	-11.4158
▁社	-11.4158
k	-11.4159
▁应计	-11.4162
▁邦	-11.4163
那	-11.4164
▁视角	-11.4165
▁继续加强	-11.417
▁拍摄	-11.4172
▁235	-11.4173
▁保养	-11.4173
▁医药	-11.4173
▁这点	-11.4178
▁糖尿病	-11.418
▁总计	-11.4181
▁展现	-11.4181
▁人选	-11.4183
▁合理化	-11.4185
批	-11.4185
▁鸟	-11.4189
▁侵权行为	-11.419
▁司法程序	-11.4195
▁西撒	-11.4197
▁坦桑尼亚	-11.4202
▁急需	-11.4206
▁竞争性	-11.4207
▁隐藏	-11.4209
▁帕	-11.4211
▁以致	-11.4213
罪	-11.4219
▁急性	-11.4219
▁进出	-11.4221
▁定价	-11.4222
▁婚礼	-11.4223
▁交易所	-11.4226
▁性健康	-11.4227
▁我方	-11.4229
▁关键因素	-11.423
▁民	-11.4232
▁革新	-11.4233
▁跨越	-11.4235
▁安盟	-11.4239
▁大致	-11.4241
▁脱	-11.4242
▁蓝色	-11.4245
▁实况	-11.4246
▁锻炼	-11.4246
▁157	-11.4247
▁无力	-11.4248
▁硬件	-11.4253
▁家伙	-11.4256
▁有形	-11.4257
▁第二期	-11.4257
▁北美	-11.4262
▁不停	-11.4262
▁青	-11.4264
▁特许	-11.4268
▁马克	-11.427
▁试	-11.4271
▁出资	-11.4271
▁147	-11.4272
▁1000	-11.4276
▁切实有效	-11.4285
▁含水层	-11.4285
▁穆罕默德	-11.4285
▁紧缩	-11.4285
▁漫长	-11.4285
▁受到限制	-11.4285
▁日后	-11.4287
▁传染	-11.4294
▁意	-11.4296
▁社交	-11.43
▁06	-11.4301
▁金融服务	-11.4301
▁剂量	-11.4301
▁激发	-11.4302
▁步伐	-11.4303
▁审批	-11.4303
▁复	-11.4303
▁收获	-11.4306
像	-11.4309
▁上限	-11.4312
▁见面	-11.4313
▁河流	-11.4317
▁扔	-11.4317
▁道理	-11.4321
▁窗户	-11.4322
▁十七届	-11.4325
▁估值	-11.4327
▁阿尔	-11.4329
负	-11.4332
▁天内	-11.4339
▁故	-11.4344
▁推定	-11.4348
有关	-11.4349
▁後	-11.4353
▁联合国贸易和发展会议	-11.4353
▁不敢	-11.4362
▁定稿	-11.4364
算	-11.437
▁外交政策	-11.4376
目前	-11.4379
▁同期	-11.438
▁服从	-11.4381
▁疯狂	-11.4383
▁审视	-11.4383
▁r	-11.4386
▁纯粹	-11.4386
▁采集	-11.4388
▁叫做	-11.439
▁破坏性	-11.4394
调	-11.4395
▁扭曲	-11.4395
▁文盲	-11.4398
▁操纵	-11.4399
▁殖民主义	-11.44
▁学年	-11.4403
▁156	-11.4405
▁导	-11.4406
▁多万	-11.4408
▁愿景	-11.4411
▁第七章	-11.4413
▁申请书	-11.4419
▁百万美元	-11.4419
▁350	-11.4421
▁西班牙文	-11.4426
▁注明	-11.4427
▁大会堂	-11.4434
▁封闭	-11.4438
▁发电机	-11.4443
难	-11.4443
▁	-11.4444
这个	-11.4446
▁免于	-11.4465
▁海运	-11.4465
▁金伯利	-11.4467
▁指望	-11.4471
▁基础教育	-11.4474
▁拥挤	-11.4474
▁摩加迪沙	-11.4474
酸	-11.4474
所述	-11.4476
▁节余	-11.4478
▁火器	-11.448
▁经由	-11.448
▁信用证	-11.4481
▁飓风	-11.4485
铁	-11.4487
▁嫌疑人	-11.4489
▁防护	-11.4489
▁下属	-11.4491
▁讲述	-11.4494
▁健康权	-11.4495
▁沮丧	-11.4497
▁载入	-11.4497
▁210	-11.4498
▁上网	-11.45
王	-11.4501
▁墙	-11.4504
▁视觉	-11.4504
对于	-11.4504
▁中央政府	-11.4508
▁151	-11.4509
▁污水	-11.4513
▁资源分配	-11.4513
▁杀人	-11.4521
▁本周	-11.4523
▁激光	-11.4523
▁各项措施	-11.4524
▁表决权	-11.4529
▁ST	-11.4531
▁第二节	-11.4533
提	-11.4534
▁曲线	-11.4538
▁1977	-11.4541
▁宗教信仰	-11.4541
▁培训中心	-11.4542
▁往来	-11.4544
▁联阿	-11.4547
著	-11.4548
▁并不	-11.4548
▁出入	-11.4549
▁创意	-11.455
▁新生儿	-11.4552
▁1961	-11.4554
▁号码	-11.4554
术	-11.4557
▁一同	-11.456
▁咱们	-11.4561
▁安全性	-11.4563
▁族	-11.4568
▁"12	-11.4569
▁蓝	-11.457
▁手里	-11.4572
▁1971	-11.4574
▁监督机构	-11.4576
▁特派	-11.4576
▁欠	-11.4576
▁噢	-11.4579
▁270	-11.458
▁脑	-11.4584
▁表述	-11.4594
▁裁判	-11.4595
▁一节	-11.4598
▁座	-11.4599
▁联络小组	-11.46
▁红十字国际委员会	-11.4602
▁脂肪	-11.4603
▁古代	-11.4612
关	-11.4613
▁166	-11.4615
▁参议院	-11.462
▁过多	-11.462
▁华	-11.4621
▁粗	-11.4621
▁控告	-11.4622
▁钥匙	-11.4622
▁哈利	-11.4623
▁大陆架	-11.4624
▁演出	-11.4625
▁蒙	-11.4625
▁七年	-11.4625
▁三天	-11.4628
▁邻居	-11.4629
▁终身	-11.4636
▁年来	-11.4637
▁疗法	-11.4641
▁联大	-11.4643
▁无意	-11.4646
▁生产者	-11.4647
▁请愿	-11.4648
▁普遍存在	-11.4652
▁水域	-11.4655
▁自豪	-11.4657
▁新鲜	-11.4658
▁感激	-11.4663
▁布朗	-11.4663
▁树立	-11.4663
▁受援国	-11.4666
▁片	-11.4669
▁产物	-11.467
▁阿拉伯语	-11.4673
▁支票	-11.4674
▁大臣	-11.4676
▁出庭	-11.4678
▁大使馆	-11.4679
▁不论是	-11.4683
▁应收	-11.4684
▁逾期	-11.4686
▁列报	-11.4687
▁领事	-11.4688
▁第二款	-11.4689
▁日向	-11.469
▁148	-11.469
▁圆	-11.4692
▁牧师	-11.4701
▁概括	-11.4704
▁被判	-11.4705
▁2.4	-11.4708
义	-11.471
求	-11.4712
▁平行	-11.4712
▁底	-11.4713
乐	-11.4716
▁基伍	-11.472
▁敌对	-11.4723
▁监护人	-11.4726
▁条中	-11.4726
▁降至	-11.4727
▁提高效率	-11.4728
▁显而易见	-11.4728
▁编码	-11.4732
▁室内	-11.4733
▁得益	-11.4738
▁陪同	-11.4739
▁这句	-11.4739
▁仆人	-11.474
▁耐心	-11.474
打	-11.4741
▁几位	-11.4745
▁策划	-11.4746
▁诺	-11.4746
▁保护环境	-11.4746
照	-11.4747
▁独联体	-11.4748
▁第二项	-11.4752
▁货运	-11.4753
▁全力支持	-11.4753
送	-11.4754
▁破	-11.4754
▁竞争法	-11.4756
▁大声	-11.4761
审	-11.4761
▁撞	-11.4761
▁前途	-11.4766
▁158	-11.4766
▁高达	-11.4767
▁变量	-11.4769
▁讲座	-11.4772
▁长久	-11.4774
▁控制系统	-11.4774
▁检查站	-11.4775
▁07	-11.4776
▁资发	-11.4778
▁线路	-11.4779
产	-11.4782
菜	-11.4782
▁挖掘	-11.4783
▁之友	-11.4784
▁154	-11.4785
▁顶	-11.4787
▁行政长官	-11.4788
▁考验	-11.4789
▁定居者	-11.4789
▁党派	-11.4792
▁走廊	-11.4792
▁起飞	-11.48
伤	-11.4801
▁所定	-11.4802
▁新喀里多尼亚	-11.4803
哈	-11.4803
▁活着	-11.4809
▁系统性	-11.4809
▁总收入	-11.481
▁减至	-11.481
▁增大	-11.4812
▁修	-11.4813
▁南斯拉夫联盟共和国	-11.4816
▁多方面	-11.4817
▁煤	-11.4818
▁演员	-11.4819
▁岩石	-11.4819
▁佛得角	-11.482
▁规格	-11.4822
▁长大	-11.4823
▁内战	-11.4823
▁审计报告	-11.4825
▁仲裁庭	-11.4826
▁同性恋	-11.4828
▁毁灭	-11.483
▁人会	-11.4832
▁已知	-11.4833
▁昨日	-11.4837
▁求助	-11.4839
▁麻	-11.4839
▁回忆	-11.4842
▁交流信息	-11.4843
▁出身	-11.4844
▁法制	-11.4844
▁科摩罗	-11.485
▁创收	-11.4852
▁审慎	-11.4853
▁报价	-11.4857
▁侦察机	-11.4859
▁垄断	-11.4861
排	-11.4865
▁标识	-11.4866
▁路径	-11.4868
▁疼痛	-11.4872
▁首相	-11.4872
▁基石	-11.4872
▁该处	-11.4873
▁停留	-11.4874
▁PC	-11.4882
▁也就是说	-11.4884
▁医务	-11.4889
▁III	-11.489
▁宁	-11.489
膜	-11.4892
▁座位	-11.4892
▁英雄	-11.4896
▁交通运输	-11.4897
准	-11.4897
▁履约	-11.4897
▁镇压	-11.4899
▁内心	-11.4899
▁在此	-11.4903
▁慢性	-11.4904
记	-11.4904
▁估价	-11.4907
▁251	-11.4908
▁∶	-11.491
▁分析师	-11.4911
▁提示	-11.4911
▁艰巨	-11.4914
▁贫民窟	-11.4916
▁树木	-11.4918
▁摩纳哥	-11.4918
▁149	-11.492
▁严重性	-11.4921
K	-11.4923
▁条所	-11.4927
▁PRST	-11.4927
▁随函	-11.4927
it	-11.4933
▁半数	-11.4934
▁鞋	-11.4934
l	-11.4935
▁误解	-11.4944
▁起源	-11.4944
▁业主	-11.4946
▁句	-11.4951
▁一台	-11.4952
▁多元	-11.4952
▁特有	-11.496
▁集合	-11.4961
▁肿瘤	-11.4962
▁这条	-11.4963
▁对照	-11.4963
▁玉米	-11.4965
▁履行职责	-11.4969
▁湖区	-11.497
▁表示满意	-11.497
▁不同于	-11.4978
▁肌肉	-11.4982
▁储备金	-11.4985
▁发电	-11.4985
▁240	-11.4988
▁时尚	-11.4988
▁夏季	-11.499
▁文档	-11.4992
▁走出	-11.4994
▁大纲	-11.4994
▁贾	-11.5001
▁函件	-11.5001
▁生日	-11.5004
差	-11.5004
▁烟	-11.5004
▁技术咨询	-11.5005
▁欺骗	-11.501
▁餐馆	-11.5017
▁拿到	-11.5018
z	-11.5019
▁马丁	-11.502
基础	-11.5021
▁1976	-11.5023
▁重债	-11.5023
▁星期六	-11.5024
▁六种	-11.5027
▁参与性	-11.5028
▁继续执行	-11.5028
▁性行为	-11.5033
▁头脑	-11.5037
▁发票	-11.5037
▁口粮	-11.5044
▁152	-11.5047
集	-11.5049
查	-11.5055
▁英格兰	-11.5057
▁过渡政府	-11.5058
▁地下水	-11.5058
▁兴奋	-11.5062
▁消费量	-11.5065
▁4.2	-11.5066
链	-11.5066
▁组成员	-11.5072
▁英镑	-11.5076
▁志愿者	-11.5076
九个	-11.5076
en	-11.5078
▁撤消	-11.5081
▁严重威胁	-11.5083
▁贯穿	-11.5083
▁十一	-11.509
▁枪	-11.5092
▁送给	-11.5093
▁致函	-11.5095
▁竞赛	-11.5099
▁范例	-11.51
▁1.3	-11.5102
▁控制措施	-11.5104
▁国家主权	-11.5106
▁伪造	-11.5107
▁热烈	-11.5108
▁臭氧层	-11.5108
▁我愿	-11.5109
▁油价	-11.5109
▁丢	-11.511
▁表示遗憾	-11.5112
▁实习	-11.5113
▁第九	-11.5121
▁一根	-11.5122
▁英尺	-11.5123
▁转达	-11.5125
▁划	-11.5126
▁猜	-11.5133
▁传媒	-11.5138
▁非盟	-11.514
▁名誉	-11.514
▁限定	-11.5142
▁史密斯	-11.5145
▁素质	-11.5146
▁大胆	-11.5146
▁市镇	-11.5147
▁专注	-11.5149
▁作证	-11.5149
▁大厦	-11.515
看	-11.515
▁生育率	-11.5153
▁集装箱	-11.5158
▁190	-11.5159
▁保管	-11.5165
▁01	-11.5168
▁纯	-11.517
▁扣除	-11.5171
▁除此	-11.5173
▁毒素	-11.5174
盖	-11.5175
▁161	-11.5177
▁域	-11.5179
▁无须	-11.5179
离	-11.519
▁务实	-11.5193
▁一声	-11.5193
▁总督	-11.5195
▁王子	-11.5197
福	-11.5202
▁广场	-11.5203
▁目光	-11.5206
▁挺	-11.5207
T	-11.5207
▁温暖	-11.521
▁神秘	-11.5223
▁仿佛	-11.5223
▁准	-11.5223
▁大于	-11.5224
▁极其重要	-11.5229
▁银	-11.5229
酒	-11.5229
▁越境	-11.5229
▁松	-11.5231
▁不限	-11.5233
▁冠军	-11.5244
▁舒服	-11.5244
▁味道	-11.5246
▁嗯	-11.5249
▁260	-11.5255
▁教材	-11.5261
▁不明	-11.5262
▁打死	-11.5262
齐	-11.5266
▁休	-11.5271
▁两倍	-11.5271
少	-11.5274
▁..	-11.5275
▁偷	-11.5277
▁签	-11.5278
▁急	-11.528
▁城乡	-11.528
元	-11.5281
▁意识形态	-11.529
▁五名	-11.529
▁政治家	-11.5291
▁情景	-11.5292
▁简易	-11.5292
▁性格	-11.5296
▁该案	-11.5297
▁波黑	-11.5297
港	-11.53
圈	-11.53
▁汇集	-11.5305
▁累计	-11.5305
▁圣诞节	-11.5306
群	-11.5308
▁春天	-11.5314
曾	-11.5315
▁检讨	-11.5316
▁反叛	-11.5317
▁产权	-11.5321
箱	-11.5321
▁公营	-11.5328
▁前体	-11.5328
▁眼前	-11.5333
▁分成	-11.5333
▁数码	-11.5338
▁怎么办	-11.5339
▁全民	-11.5339
▁侵入	-11.534
▁叛乱	-11.5343
▁主管机关	-11.5349
▁选票	-11.535
▁老鼠	-11.5356
▁菜	-11.5357
▁评级	-11.5357
▁全新	-11.536
▁野生	-11.5361
▁结核病	-11.5361
▁伦理	-11.5361
▁零售	-11.5362
▁登	-11.5363
▁亿元	-11.5363
▁围	-11.5364
▁证	-11.5367
▁相称	-11.5367
▁前者	-11.5371
▁教练	-11.5371
一份	-11.5377
▁沉默	-11.5378
▁事例	-11.5383
m	-11.539
空	-11.5392
▁单个	-11.5395
▁参见	-11.5396
▁货币政策	-11.5398
▁车队	-11.5402
▁该股	-11.5408
▁密度	-11.541
▁叶	-11.5411
▁氢	-11.5417
▁甲	-11.542
▁阻挠	-11.5423
▁日本政府	-11.5423
▁休假	-11.5424
▁美洲国家组织	-11.5426
孔	-11.5427
待	-11.5429
▁差额	-11.5433
乎	-11.5434
▁椅子	-11.5436
安全	-11.5437
▁营造	-11.5438
▁专业知识	-11.544
▁公式	-11.5443
画	-11.545
▁1972	-11.5452
▁侮辱	-11.5454
▁烧	-11.5455
▁情节	-11.5458
▁灯	-11.5459
▁缺口	-11.5464
保	-11.5465
▁经典	-11.5474
▁随机	-11.5474
▁朱	-11.5474
▁伯利兹	-11.5475
▁携手	-11.5475
▁六年	-11.5476
▁义务教育	-11.5476
▁真理	-11.5477
▁信用卡	-11.5479
▁北极	-11.5481
显示	-11.5481
▁顺	-11.5485
▁龙	-11.5489
▁接口	-11.549
▁铝	-11.5491
▁热线	-11.5494
▁淡水	-11.5498
▁教室	-11.5499
▁认	-11.5501
玛	-11.5504
▁骑	-11.5504
▁摆	-11.5505
▁当年	-11.5509
▁横向	-11.5511
▁饭店	-11.5512
▁堆	-11.5514
▁精	-11.5515
▁器官	-11.5519
▁供其	-11.5521
▁赢	-11.5523
▁核对	-11.5524
▁值得注意	-11.5529
随	-11.553
▁com	-11.5534
▁火灾	-11.554
▁最长	-11.5541
▁贸易协定	-11.5542
▁录像	-11.5543
▁否决	-11.5551
▁振动	-11.5551
▁提问	-11.5552
▁制成	-11.5553
▁少量	-11.5555
▁为例	-11.5557
句	-11.5557
▁掩盖	-11.5559
▁切实可行	-11.5563
▁短暂	-11.5565
▁罪名	-11.5566
▁残酷	-11.5569
▁监护	-11.5579
▁利害关系	-11.5581
▁补	-11.5581
错	-11.5582
▁爵士	-11.5583
▁够	-11.5586
校	-11.5586
▁扫雷	-11.5587
▁数百万	-11.5588
▁在家	-11.5589
▁总产值	-11.5589
▁筛选	-11.5589
▁总之	-11.5591
▁床上	-11.5594
▁哥哥	-11.5595
▁平等待遇	-11.5597
▁一次性	-11.5597
食	-11.5599
▁导向	-11.5602
▁禁毒署	-11.5605
▁每届	-11.5608
▁日志	-11.5609
▁流域	-11.5611
▁为本	-11.5617
▁下表	-11.5619
▁简称	-11.562
▁159	-11.5623
▁绝望	-11.5625
▁租用	-11.5631
▁水泥	-11.5635
▁联络点	-11.5638
▁拓展	-11.564
▁原本	-11.5644
▁小计	-11.5645
el	-11.5646
▁酒吧	-11.5646
▁第二十四届	-11.5646
▁廉价	-11.565
▁宣告	-11.5652
▁搬迁	-11.5652
▁208	-11.5653
▁单身	-11.5655
湖	-11.5656
▁四分之一	-11.5658
▁惩戒	-11.5658
桥	-11.5658
▁两家	-11.5662
▁香	-11.5664
▁被告人	-11.5664
否	-11.5666
▁变形	-11.5668
▁印度洋	-11.5668
▁项目管理	-11.5672
▁广	-11.5672
▁例句	-11.5673
▁东欧国家	-11.5674
▁精神病	-11.5675
▁移	-11.5675
命	-11.5679
▁优先权	-11.5682
走	-11.5685
▁奉行	-11.5686
▁渗透	-11.569
▁程序性	-11.5692
▁第一项	-11.5694
▁三年期	-11.5698
刚	-11.5698
▁手指	-11.57
课	-11.5707
▁230	-11.5708
▁人称	-11.5708
▁逃避	-11.5709
▁申请者	-11.5711
▁刊登	-11.5712
▁美联储	-11.5714
▁深表	-11.5715
▁望	-11.5717
▁天主教	-11.5723
▁等国	-11.5728
▁总的来说	-11.5728
久	-11.5729
这种	-11.573
镜	-11.5731
▁管理制度	-11.5732
▁不动产	-11.5739
▁差旅费	-11.5742
▁雷达	-11.5743
▁缉获	-11.5744
▁悲伤	-11.5744
▁213	-11.5745
▁更是	-11.5745
▁第二十六条	-11.5746
还	-11.5747
10	-11.5757
▁结成	-11.5757
▁不行	-11.576
▁蛋白质	-11.576
鲁	-11.5762
▁Dec	-11.5763
杯	-11.5764
▁一阵	-11.5767
店	-11.5768
▁事务局	-11.577
▁端	-11.577
字	-11.577
▁祈祷	-11.5772
▁冬天	-11.5772
▁正好	-11.5775
▁最早	-11.5777
▁商业银行	-11.5779
▁研究生	-11.578
▁牲畜	-11.5782
▁定性	-11.5787
▁祖国	-11.5788
虫	-11.5788
血	-11.5789
▁失	-11.5793
▁永久性	-11.5795
▁雨	-11.5795
▁保育	-11.5798
岩	-11.5799
▁血管	-11.5802
田	-11.5803
▁建成	-11.5803
▁校园	-11.581
▁启用	-11.581
症	-11.5815
▁休会	-11.5815
▁有何	-11.5816
▁吓	-11.5817
▁既有	-11.5819
瑞	-11.582
▁国情	-11.5821
▁就此结束	-11.5826
登	-11.5827
▁此处	-11.5828
▁霍	-11.5831
▁种族隔离	-11.5834
▁3.3	-11.5838
▁167	-11.5839
▁上半年	-11.584
▁着重于	-11.5843
▁获释	-11.5845
▁执政	-11.5845
接	-11.585
▁四名	-11.5851
▁悲惨	-11.5855
▁无限	-11.5855
▁索偿	-11.5859
▁汇	-11.586
▁165	-11.5861
▁丁	-11.5862
▁不合理	-11.5862
之外	-11.5865
▁商品价格	-11.5867
▁"13	-11.5868
▁乱	-11.5871
▁称之为	-11.5875
▁施	-11.5876
▁国际金融	-11.5878
▁划定	-11.5881
▁Sub	-11.5887
希	-11.5888
▁联络处	-11.5891
▁交货	-11.5892
技术	-11.5896
▁第七次	-11.5896
▁魅力	-11.5897
▁Ali	-11.59
us	-11.5901
▁制度化	-11.5903
▁赶	-11.5911
▁犹太	-11.5911
▁温和	-11.5916
▁电讯	-11.5916
p	-11.5919
▁乃至	-11.5919
▁构成威胁	-11.592
▁发表声明	-11.5922
丹	-11.5924
▁阿拉伯人	-11.5928
▁已婚	-11.5928
坏	-11.5929
老	-11.5932
▁例外情况	-11.5932
▁生理	-11.5933
▁奉	-11.5936
▁反过来	-11.5937
▁紧急状态	-11.5938
▁192	-11.5938
▁咨询机构	-11.5939
▁泰	-11.594
▁亟	-11.594
▁海域	-11.5942
八	-11.5944
奖	-11.5944
▁议	-11.5947
▁理事国	-11.5949
▁分工	-11.5956
▁农业部门	-11.5957
▁节能	-11.596
▁超级	-11.5961
▁适用范围	-11.5963
刀	-11.5965
▁通往	-11.5965
▁帮忙	-11.5967
▁地为	-11.5968
▁更高	-11.597
▁承运人	-11.5971
▁第六十九	-11.5972
▁第十七条	-11.5977
▁结算	-11.5979
湾	-11.598
▁痛	-11.5985
▁深远	-11.5987
清	-11.5992
▁毕竟	-11.5996
▁辩护律师	-11.5997
▁煤炭	-11.5999
▁酸	-11.6
▁阿拉伯文	-11.6004
▁可取	-11.6007
▁本函	-11.601
▁舆论	-11.6014
▁众议院	-11.6015
▁门口	-11.6015
▁或非	-11.6015
▁妹妹	-11.6016
▁愚蠢	-11.6016
▁183	-11.6019
▁大体	-11.6021
▁排名	-11.6021
▁佩	-11.6027
毛	-11.6029
▁登记处	-11.6029
▁这名	-11.6029
▁骄傲	-11.6031
▁签署国	-11.6033
▁红十字会	-11.6034
▁独自	-11.6037
▁242	-11.6038
at	-11.6039
g	-11.604
▁此一	-11.6041
▁沙漠	-11.6047
▁借贷	-11.6049
▁废料	-11.6051
▁驻科	-11.6052
▁少于	-11.6052
步	-11.6057
微	-11.6057
▁评审	-11.6057
▁效能	-11.6057
▁转运	-11.6066
▁亲	-11.6068
▁共和党	-11.6069
▁灌溉	-11.6078
▁迈克尔	-11.6079
▁一处	-11.6079
▁负担得起	-11.608
▁受损	-11.6083
▁赤道几内亚	-11.6084
▁骨	-11.6089
▁工作日	-11.6092
戈	-11.6093
▁商标	-11.6094
▁无权	-11.6096
▁生产商	-11.6098
▁混	-11.6102
▁随意	-11.6104
▁其所	-11.6106
▁奴隶制	-11.6107
▁机理	-11.6107
▁保留意见	-11.6109
贝	-11.6109
▁总裁	-11.6114
▁中为	-11.6117
▁汇总	-11.6117
▁三角	-11.6119
▁先例	-11.612
▁创造条件	-11.6124
▁行列	-11.6126
▁原告	-11.6129
史	-11.613
▁蒂	-11.6131
▁民法	-11.6133
▁贝鲁特	-11.6134
▁模板	-11.6136
▁占用	-11.6137
▁记载	-11.6138
▁两大	-11.6141
▁合作项目	-11.6144
▁交换意见	-11.6146
▁226	-11.6148
▁熟练	-11.6149
▁参议员	-11.6151
▁完全符合	-11.6151
邦	-11.6154
▁积压	-11.6155
▁会面	-11.6159
▁发生变化	-11.6161
▁#	-11.6162
▁定型	-11.6177
▁大门	-11.618
man	-11.618
▁横	-11.6181
▁隐私	-11.619
re	-11.6193
▁造林	-11.6193
▁一层	-11.6194
▁结社自由	-11.6197
▁道歉	-11.6197
▁居	-11.6198
▁163	-11.6199
▁付诸	-11.6201
▁227	-11.6203
▁团聚	-11.6205
▁航天	-11.6206
▁XV	-11.6207
▁211	-11.6207
▁苏里南	-11.6207
▁第四十九届	-11.6207
▁斯威士兰	-11.6209
▁序列	-11.6211
▁萨赫勒	-11.6211
▁名叫	-11.6212
▁退休金	-11.6212
上述	-11.6215
▁负有责任	-11.6216
▁内向	-11.6219
▁164	-11.6223
▁干燥	-11.6225
▁大家庭	-11.6225
▁各届	-11.6226
▁时光	-11.6226
▁食用	-11.6226
▁射击	-11.6226
▁解放军	-11.6226
▁速效	-11.6228
▁下落	-11.6229
▁碰到	-11.6233
转	-11.6234
客	-11.6235
包	-11.6237
▁一遍	-11.6238
▁个性	-11.6241
▁把握	-11.6242
▁175	-11.6242
▁en	-11.6245
▁税率	-11.6246
▁虚假	-11.6247
▁铀	-11.6256
▁页面	-11.6257
▁船上	-11.6259
▁信仰自由	-11.6262
丁	-11.6262
▁付	-11.6264
▁塞浦路斯共和国	-11.6266
▁调解人	-11.6268
▁精神药物	-11.6268
▁校长	-11.6268
▁重大贡献	-11.627
▁陪伴	-11.6272
▁201	-11.6273
▁增值	-11.6275
▁一枚	-11.6275
▁出示	-11.628
▁万名	-11.6282
▁大力支持	-11.6283
红	-11.6283
▁该科	-11.6283
▁昨晚	-11.6288
印	-11.6291
▁局限于	-11.6291
草	-11.6292
运	-11.6292
▁白宫	-11.6294
▁经营者	-11.6295
▁预备	-11.6296
▁宪政	-11.6298
▁姐姐	-11.6298
▁高昂	-11.6299
▁词语	-11.6301
梅	-11.6303
▁图表	-11.6303
例	-11.6304
▁巧克力	-11.6305
▁第五章	-11.6305
▁末	-11.6306
▁防扩散	-11.6306
▁双手	-11.6307
▁威	-11.6315
▁之害	-11.6316
▁自然人	-11.6318
▁189	-11.6327
▁极度	-11.6334
▁升高	-11.6334
牌	-11.634
▁第一批	-11.6342
▁家务	-11.6347
▁每人	-11.6347
▁头上	-11.6348
▁批	-11.6348
▁引擎	-11.6349
▁5.1	-11.635
▁房地	-11.6351
立即	-11.6352
▁庄严	-11.6355
▁财务管理	-11.6356
▁统计局	-11.6356
发援	-11.6357
▁多久	-11.6358
▁先后	-11.6361
▁两类	-11.6365
▁那边	-11.6365
▁第三节	-11.6367
▁转入	-11.6368
▁v	-11.6368
▁摆在	-11.6369
▁03	-11.637
▁访谈	-11.6372
▁开枪	-11.6373
le	-11.6374
▁全氟	-11.6387
▁法律依据	-11.6396
下来	-11.6397
▁缩减	-11.6404
▁取缔	-11.6406
▁折磨	-11.641
题	-11.6414
▁韦	-11.6418
▁缓和	-11.6419
▁阿卜耶伊	-11.6421
▁轰炸	-11.6423
▁四周	-11.6423
▁立足	-11.6423
▁几周	-11.6424
▁肤色	-11.6426
▁检察	-11.6427
▁议会选举	-11.6432
▁服	-11.6433
▁月球	-11.6436
▁巴勒斯坦国	-11.6443
▁新政府	-11.6445
▁地理信息系统	-11.6445
▁随之	-11.6448
▁啤酒	-11.645
▁168	-11.6454
▁另一方	-11.6456
*	-11.6461
▁准确性	-11.6464
▁1.4	-11.6465
▁忍受	-11.6466
▁兵力	-11.6467
▁管理员	-11.6467
▁近几年	-11.6471
▁继续下去	-11.6474
▁缺席	-11.6484
▁生病	-11.6487
▁248	-11.6487
现	-11.6488
▁下放	-11.6489
味	-11.6491
▁伤	-11.6492
▁西非国家	-11.6493
▁东非	-11.6495
▁发布会	-11.6495
▁刀	-11.6495
▁颗粒	-11.6496
似	-11.6497
▁调查员	-11.65
音	-11.6503
▁其管辖	-11.6505
▁渐渐	-11.6505
▁卡拉	-11.6506
▁齐	-11.6509
肉	-11.651
▁状	-11.6512
▁住户	-11.6513
▁日程	-11.6515
▁天使	-11.6515
▁薪水	-11.6516
▁一案	-11.6522
观	-11.6526
▁杨	-11.6528
▁小国	-11.653
▁陆	-11.653
▁度假	-11.6531
▁问道	-11.6532
▁盯	-11.6538
▁高校	-11.6544
▁以色列国防军	-11.6549
▁舞台	-11.6549
▁耳朵	-11.6558
▁初等教育	-11.6559
▁符号	-11.6561
▁贝尔	-11.6565
▁嘴	-11.6574
▁广阔	-11.6575
▁余地	-11.6579
▁到位	-11.658
▁地板	-11.6582
作为	-11.6583
▁贿赂	-11.6583
▁礼貌	-11.6586
▁力图	-11.6588
▁电流	-11.6591
▁注视	-11.6595
宁	-11.6595
▁抛弃	-11.6599
▁控诉	-11.6599
▁内政	-11.6601
▁一艘	-11.6603
▁男童	-11.6603
▁"16	-11.6603
▁克林顿	-11.6605
▁"14	-11.6607
▁在外	-11.6607
乱	-11.6609
▁1969	-11.6613
衣	-11.6614
▁外勤人员	-11.6614
▁金融体系	-11.6618
▁及早	-11.6621
▁安静	-11.6627
▁电路	-11.6633
▁合计	-11.6634
▁公共秩序	-11.6638
ra	-11.6643
▁一新	-11.6645
▁增列	-11.6645
▁鸿沟	-11.6647
▁增添	-11.6651
▁街上	-11.6654
果	-11.6654
▁瓦努阿图	-11.6655
述	-11.6659
▁师	-11.6661
▁起点	-11.6662
na	-11.6671
▁百分点	-11.6673
▁会计师	-11.6674
▁非洲统一组织	-11.6675
▁法医	-11.6676
▁擦	-11.6676
供	-11.6678
▁说出	-11.6679
▁安全措施	-11.6692
▁有损	-11.6697
▁消极影响	-11.6697
▁调度	-11.6698
▁放置	-11.67
▁议案	-11.6702
▁上去	-11.6708
▁追查	-11.6708
▁考	-11.6712
▁北非	-11.6713
灾后	-11.6716
▁铅	-11.6721
▁读书	-11.6722
▁公共汽车	-11.6722
▁生殖器	-11.6726
▁各个领域	-11.6728
▁低下	-11.6729
▁链	-11.6731
▁浓缩	-11.6735
飞	-11.6735
▁跟着	-11.6741
▁巴拉	-11.6744
▁1951	-11.6747
▁千克	-11.6748
▁人员编制	-11.6751
▁定量	-11.6758
▁中介	-11.6759
▁通行	-11.6761
▁报名	-11.6762
▁借款	-11.6763
▁牌照	-11.6764
▁下达	-11.6764
▁环节	-11.6765
▁陪	-11.6768
▁培育	-11.6768
▁总局	-11.6769
▁坐下	-11.6772
▁中等教育	-11.6773
▁受伤害	-11.6773
la	-11.6774
▁最有	-11.6776
▁失效	-11.6778
▁疡	-11.6782
▁前来	-11.6784
▁技术人员	-11.6785
▁委任	-11.6786
▁封	-11.6788
▁慢	-11.6789
▁微生物	-11.679
▁玛	-11.679
收	-11.6796
▁牢固	-11.6797
▁小组会议	-11.6798
▁Co	-11.6798
▁忠诚	-11.6799
▁穆	-11.68
▁绿	-11.6801
▁出缺	-11.6805
▁机会均等	-11.6808
▁扩充	-11.6812
▁检索	-11.6814
▁圣卢西亚	-11.6817
▁挑衅	-11.6818
▁散	-11.6822
▁与非	-11.6825
▁挫折	-11.6826
▁不准	-11.6826
on	-11.6834
▁下半年	-11.6835
▁桥	-11.6837
▁一轮	-11.6837
▁遥远	-11.6839
▁武装力量	-11.6844
▁所罗门群岛	-11.6846
▁海水	-11.6847
▁彻底消除	-11.6848
▁管理者	-11.685
▁访问团	-11.6851
▁国防军	-11.6851
订	-11.6851
▁to	-11.6852
▁防卫	-11.6855
▁碰	-11.6855
写	-11.6857
税	-11.6857
▁利益冲突	-11.6857
▁手工	-11.686
li	-11.6864
▁事务所	-11.6864
莉	-11.6868
▁公主	-11.687
▁压缩	-11.6872
▁本港	-11.6872
▁空气污染	-11.6875
▁并入	-11.6878
▁214	-11.6878
▁充	-11.6879
▁不符	-11.688
▁偏离	-11.688
▁管理处	-11.6889
▁即决	-11.689
▁股价	-11.689
▁帽子	-11.6891
▁分割	-11.6893
▁聘请	-11.6893
▁暗	-11.6894
▁核设施	-11.6896
▁双语	-11.6899
▁RES	-11.6899
弗	-11.6901
▁185	-11.6902
▁判处死刑	-11.6904
松	-11.6907
▁薪资	-11.6909
▁逾	-11.6909
兵	-11.691
▁喀布尔	-11.6913
▁异议	-11.6914
楼	-11.6914
▁刺	-11.6916
▁政策措施	-11.6919
▁榜样	-11.692
▁列明	-11.6922
▁174	-11.6924
▁造福	-11.6925
苏	-11.6925
▁噪音	-11.6929
▁精算	-11.6929
▁殖民	-11.6929
▁未成年	-11.693
七	-11.6932
▁偿付	-11.6934
▁无线	-11.6936
▁建立联系	-11.6936
▁关键性	-11.6937
▁祝福	-11.6938
▁所知	-11.6939
▁有效期	-11.6941
▁调用	-11.6942
▁172	-11.6943
▁第十九届	-11.6943
▁评委	-11.6944
▁逐字	-11.6946
▁戏剧	-11.6949
▁教廷	-11.6954
▁四方	-11.6955
▁箱	-11.6956
▁想想	-11.6956
▁联格	-11.6958
▁法律法规	-11.6958
▁查验	-11.6968
▁码头	-11.6968
▁联合体	-11.697
▁基本法	-11.6971
▁诚意	-11.6972
▁博客	-11.6977
▁尼亚	-11.6979
▁蛋白	-11.6985
▁人身安全	-11.6986
id	-11.6989
▁罗伯特	-11.6993
雅	-11.7003
▁总会	-11.7003
▁池	-11.7003
▁改良	-11.7004
▁心脏病	-11.7006
▁顿	-11.7009
▁接管	-11.7009
▁目睹	-11.701
▁滑	-11.7012
▁有所改善	-11.7013
▁泛	-11.7013
▁祝	-11.7015
▁答	-11.7015
▁法律义务	-11.7015
▁最少	-11.7018
▁四项	-11.702
▁伯	-11.7021
▁安慰	-11.7029
▁押	-11.7029
▁稳步	-11.7029
▁CMP	-11.7031
▁视听	-11.7031
开展	-11.7034
灯	-11.7035
▁坚实	-11.7036
▁风暴	-11.7037
▁开来	-11.7037
▁激动	-11.7038
▁断	-11.704
ia	-11.7041
▁育儿	-11.7043
▁第纳尔	-11.7043
▁县级	-11.7045
▁"18	-11.7046
▁等同	-11.7047
▁低估	-11.7049
▁床	-11.7064
▁从业人员	-11.7065
▁沃	-11.7066
▁格局	-11.7068
▁for	-11.7069
▁重新考虑	-11.7071
▁各不相同	-11.7072
▁教育领域	-11.7072
▁破裂	-11.7074
▁夜晚	-11.7075
▁东方	-11.7075
▁农发	-11.7079
月	-11.708
▁刘	-11.7081
▁部位	-11.7082
▁战术	-11.7083
▁图瓦卢	-11.7086
20	-11.7087
▁中应	-11.7088
▁承包	-11.7092
▁218	-11.7095
▁索引	-11.7097
▁死去	-11.71
▁覆盖面	-11.7103
▁使用权	-11.7109
▁零件	-11.7109
▁压迫	-11.7111
▁夹	-11.7112
▁略有	-11.7113
▁实	-11.7113
▁综管	-11.7113
▁起因	-11.7115
▁密封	-11.7115
▁等候	-11.7117
▁断定	-11.7121
降	-11.7121
▁强加	-11.7123
低	-11.7124
▁搜寻	-11.7125
▁173	-11.7126
▁股权	-11.713
必	-11.7132
▁拜	-11.7132
▁轻微	-11.7134
▁乘坐	-11.7136
太	-11.7138
▁移植	-11.7139
▁5.2	-11.7143
▁二零零	-11.7146
▁阿里	-11.7147
▁太多	-11.7149
▁以求	-11.7149
远	-11.7151
▁民用航空	-11.7153
▁诸	-11.7154
▁分支	-11.7154
▁数年	-11.7155
▁基督	-11.7157
▁在实践中	-11.7159
▁检疫	-11.7159
▁―	-11.7159
▁村民	-11.7162
▁压制	-11.7162
▁弗	-11.7164
▁伤残	-11.7164
势	-11.7164
▁战士	-11.7164
▁无罪	-11.7167
▁天基	-11.7172
▁弹	-11.7172
▁屏幕	-11.7174
之下	-11.7176
▁跳舞	-11.7178
▁研究者	-11.718
▁率为	-11.7185
▁封信	-11.7188
▁加共体	-11.7192
联保	-11.7193
▁执行官	-11.7194
茨	-11.7194
▁提供者	-11.7195
▁知名	-11.7196
▁新生	-11.7196
▁个人资料	-11.7198
▁开辟	-11.7199
▁六月	-11.7202
▁岛上	-11.7204
北	-11.7206
▁英国人	-11.7207
▁户主	-11.7208
▁抵触	-11.7213
▁律师协会	-11.7213
▁机密	-11.7216
首	-11.7217
▁麦克	-11.7222
ie	-11.7222
▁船长	-11.7223
▁第十一条	-11.7227
W	-11.7227
副	-11.723
▁利亚	-11.7231
▁详细情况	-11.7231
▁侵权	-11.7236
▁学费	-11.7237
▁占领军	-11.7237
含	-11.7245
且	-11.7247
▁时常	-11.725
▁欢乐	-11.7252
服	-11.7253
▁伸出	-11.7253
▁出境	-11.7253
▁相关者	-11.7255
▁特区	-11.7255
▁轴	-11.7256
▁会议厅	-11.7257
▁银行业	-11.7257
▁感染者	-11.7261
▁案子	-11.7261
▁欧共体	-11.7262
▁一倍	-11.7262
▁科研	-11.7264
▁3.5	-11.7264
▁规划系统	-11.7264
▁新年	-11.7274
▁见证	-11.7274
▁即时	-11.7274
▁克制	-11.7274
钢	-11.7275
▁诞生	-11.7277
▁喂	-11.7277
▁微软	-11.728
▁侵蚀	-11.7283
▁游	-11.7285
墙	-11.7285
▁安南	-11.7285
端	-11.7287
▁海洋生物	-11.7288
▁02	-11.7289
▁第十五届	-11.729
▁摩根	-11.7294
联邦	-11.7294
告	-11.7296
▁大屠杀	-11.7299
▁冬季	-11.7299
人员	-11.7301
▁水中	-11.7303
▁那次	-11.7304
▁不结盟	-11.7315
▁敏感性	-11.7317
▁酒精	-11.7321
▁店	-11.7322
▁预警系统	-11.7323
▁奖金	-11.7323
th	-11.7323
▁181	-11.7324
杰	-11.7325
▁描绘	-11.7326
▁塞舌尔	-11.7329
▁偶然	-11.7335
▁哈马斯	-11.7337
▁谢	-11.7339
▁防空	-11.7339
▁光明	-11.734
▁奇迹	-11.7341
▁期限内	-11.7342
▁"15	-11.7342
▁分解	-11.7344
杆	-11.7346
▁军用	-11.7347
尽	-11.735
▁发生率	-11.7353
▁这张	-11.7353
▁邻近	-11.7355
▁我来	-11.7356
▁外聘	-11.7356
▁监察组	-11.7361
▁锁	-11.7361
们	-11.7363
升	-11.7363
▁萨米	-11.7365
▁225	-11.7366
▁母婴	-11.7367
▁子弹	-11.7367
▁当今世界	-11.7369
温	-11.7371
▁全人类	-11.7372
▁元首	-11.7372
V	-11.7374
▁命名	-11.7374
▁赫	-11.7379
甲	-11.7381
▁版权	-11.7381
域	-11.7382
十六届	-11.7382
▁丢失	-11.7384
▁209	-11.7386
▁领先	-11.7386
▁评定	-11.7386
▁搜集	-11.7387
▁公职	-11.7388
▁丹	-11.7389
▁见表	-11.7392
▁法律效力	-11.7393
▁研究员	-11.7399
▁171	-11.74
▁膜	-11.74
▁增订	-11.7402
▁国民经济	-11.7403
▁混合物	-11.7411
▁鸡	-11.7412
▁承	-11.7412
▁俩	-11.7412
▁就算	-11.7414
▁旅	-11.7415
▁信息管理	-11.7416
▁再生	-11.7416
▁香港特别行政区	-11.7416
▁尚待	-11.7417
▁精度	-11.7419
▁迁徙	-11.7421
▁有所不同	-11.7422
隔	-11.7422
▁它会	-11.7423
毒	-11.7424
▁监	-11.7428
▁开启	-11.7431
▁178	-11.7442
▁声誉	-11.7443
▁加勒比地区	-11.7444
▁184	-11.7448
▁墙上	-11.7449
▁走过	-11.7449
▁令人担忧	-11.7452
▁奥林匹克	-11.7453
▁孔	-11.7456
▁0.7	-11.7456
▁矿业	-11.7457
▁sc	-11.7458
▁弹道导弹	-11.7466
▁星	-11.7468
▁监督管理	-11.747
▁乙	-11.7471
▁"17	-11.7471
▁加倍努力	-11.7471
is	-11.7473
▁效用	-11.7478
香	-11.7479
▁南极	-11.7479
▁186	-11.7485
▁性取向	-11.7485
▁177	-11.7488
▁夜	-11.7488
▁450	-11.7488
▁氧化	-11.7488
▁应力	-11.7489
▁联伊	-11.749
阵	-11.749
▁匮乏	-11.7493
▁亿人	-11.7494
经济	-11.7495
▁阿鲁沙	-11.7495
▁愈	-11.7496
▁充分发挥	-11.7497
▁卫生部门	-11.7499
▁新建	-11.7502
▁邪恶	-11.7502
▁盈利	-11.7505
▁货	-11.7506
▁提出申请	-11.7515
▁开关	-11.7516
富	-11.7516
▁均匀	-11.752
▁04	-11.7521
▁零部件	-11.7521
▁单纯	-11.7521
认识	-11.7522
▁折扣	-11.7526
▁杂项	-11.7526
▁外籍	-11.7529
▁一封	-11.7533
拨	-11.7534
▁乡	-11.7535
夜	-11.7535
▁装运	-11.7536
▁–	-11.7541
▁规范性	-11.7542
▁电视节目	-11.7543
▁运费	-11.7546
耶	-11.7546
▁233	-11.7547
▁幻想	-11.7552
▁诽谤	-11.7557
▁宗教自由	-11.7558
▁审案	-11.7558
▁毁	-11.7559
▁一期	-11.756
▁塑造	-11.756
L	-11.7563
▁牙齿	-11.7565
▁灰	-11.7565
▁明星	-11.7566
▁体育运动	-11.7572
枪	-11.7574
▁见本	-11.7581
▁锡	-11.7583
▁极少	-11.7589
x	-11.7591
▁2.6	-11.7592
▁节点	-11.7593
▁布林迪西	-11.7593
▁减排	-11.7594
▁卓越	-11.7598
▁十周年	-11.7601
▁听证会	-11.7601
▁高出	-11.7602
w	-11.7602
▁孤独	-11.7603
▁市区	-11.7604
▁租	-11.7604
▁此举	-11.7605
▁移动电话	-11.7605
▁沿岸	-11.7608
▁石棉	-11.7608
联合国	-11.7609
▁题	-11.7609
雨	-11.7614
▁不顾	-11.7615
▁全年	-11.7616
▁审定	-11.7616
▁干什么	-11.7618
态	-11.7622
▁服务提供者	-11.7622
▁倾听	-11.7622
只	-11.7622
▁UN	-11.7623
倒	-11.7626
谈	-11.7628
▁贝尔格莱德	-11.763
▁预报	-11.763
▁经济衰退	-11.7632
▁炸药	-11.7632
▁中说	-11.7633
▁来讲	-11.7634
把	-11.7636
柱	-11.7638
▁高等	-11.764
▁比重	-11.7642
▁二十年	-11.7643
▁退还	-11.7644
▁怕	-11.7647
▁责	-11.7649
传	-11.7649
▁历来	-11.765
▁相处	-11.7651
▁第十五条	-11.7654
▁百万	-11.7658
破	-11.7661
▁果断	-11.7661
▁充实	-11.7664
▁高风险	-11.7664
汉	-11.7666
公	-11.7668
▁控制权	-11.7671
▁第十七届	-11.7671
模	-11.7672
▁全力	-11.7673
▁容纳	-11.7673
▁警务人员	-11.7681
▁桑	-11.7688
▁1325	-11.7688
▁伯爵	-11.7695
▁兴奋剂	-11.7695
▁187	-11.7699
▁退	-11.7702
▁订购	-11.7702
云	-11.7706
▁乐意	-11.771
▁大鼠	-11.7713
▁轻轻	-11.7714
▁存货	-11.7715
▁英联邦	-11.7715
▁院	-11.7721
▁206	-11.7722
▁升值	-11.7722
ma	-11.7723
▁第一年	-11.7726
▁学到	-11.7728
▁游行	-11.7731
▁追	-11.7732
▁祝愿	-11.7734
▁埋	-11.7739
▁夏	-11.774
▁焦虑	-11.7747
▁竞争对手	-11.7749
▁191	-11.7749
▁1963	-11.7749
▁男生	-11.7755
▁经济合作与发展组织	-11.7756
▁竭尽全力	-11.7763
▁三级	-11.7767
▁必将	-11.7767
▁并行	-11.7769
▁SBI	-11.777
▁隧道	-11.7772
井	-11.7772
▁联合声明	-11.7773
▁始于	-11.7774
▁考绩	-11.7778
▁人家	-11.7784
▁休闲	-11.7786
▁里奥	-11.7786
▁拘留所	-11.7787
▁迟到	-11.7788
▁何处	-11.7789
▁年龄组	-11.7789
▁上校	-11.779
江	-11.7791
▁追溯	-11.7793
▁教科书	-11.7795
▁摄影	-11.7797
▁听众	-11.7798
▁分支机构	-11.7803
▁调拨	-11.7805
▁纷纷	-11.7806
▁湿地	-11.7806
▁戈	-11.7809
▁余下	-11.7812
▁维生素	-11.7813
▁纺织品	-11.7813
▁欲	-11.7814
▁谷歌	-11.7817
▁蛇	-11.7818
▁面谈	-11.7818
▁上级	-11.7822
▁4.5	-11.7822
▁单词	-11.7831
▁屋顶	-11.7835
▁多余	-11.7837
▁母语	-11.7842
▁对面	-11.7846
▁误差	-11.7847
▁选手	-11.7849
▁湿	-11.7851
▁识字	-11.7852
▁一整套	-11.7852
▁交战	-11.7852
▁此人	-11.7855
▁布什总统	-11.7855
▁翻修	-11.7867
▁176	-11.7868
▁喀土穆	-11.7869
▁第四十八届	-11.7869
▁错过	-11.7872
▁存	-11.7872
回顾	-11.7876
▁柏林	-11.7878
▁段时间	-11.788
▁似	-11.7885
▁迈进	-11.7888
▁五月	-11.789
▁外交官	-11.789
▁票据	-11.7891
▁善意	-11.7892
▁〔	-11.7895
▁进化	-11.7897
▁一览表	-11.7897
u	-11.7899
▁第十八条	-11.7899
▁漏洞	-11.7904
▁原材料	-11.7904
▁无限期	-11.7907
▁243	-11.7908
均	-11.7911
▁营运	-11.7914
▁真空	-11.7915
▁精心	-11.7922
▁密切联系	-11.7924
▁字母	-11.7931
册	-11.7933
直	-11.7934
▁罗姆	-11.7934
▁持续增长	-11.7939
▁夜间	-11.7939
▁大厅	-11.7945
▁小麦	-11.7947
ov	-11.7949
▁部族	-11.795
▁执照	-11.7952
▁改正	-11.7952
▁千万	-11.7952
▁199	-11.7954
▁间隔	-11.7957
▁加热	-11.7958
▁妊娠	-11.7964
▁公正性	-11.7967
▁乍	-11.7968
▁打印	-11.797
▁过后	-11.7971
▁颇	-11.7972
▁IV	-11.7972
▁日趋	-11.7973
▁亨利	-11.7974
▁婚	-11.7978
▁过高	-11.7979
矿	-11.7979
▁4.3	-11.7985
▁吸	-11.7986
▁雅	-11.7991
▁皆	-11.7991
▁课堂	-11.7991
▁第十八届	-11.7992
▁179	-11.7994
▁与否	-11.7999
▁阴影	-11.7999
▁检查和	-11.8001
▁服兵役	-11.8002
▁汤	-11.8005
密	-11.8007
ri	-11.8007
氏	-11.8007
▁本土	-11.8014
▁年会	-11.8014
▁根本原因	-11.8014
▁开创	-11.8015
息	-11.8017
▁美属	-11.8019
▁一门	-11.8024
▁录	-11.8025
▁洁净	-11.8027
▁不时	-11.8031
斯特	-11.8031
▁来信	-11.8032
▁从此	-11.8036
▁短语	-11.8036
▁清算	-11.8037
▁敌军	-11.8037
▁肥胖	-11.8041
▁乐趣	-11.8044
▁犹	-11.805
▁207	-11.8051
▁医务人员	-11.8052
▁现时	-11.8053
▁咬	-11.8057
▁商用	-11.8059
▁266	-11.8061
▁幼儿园	-11.8062
▁教员	-11.8065
▁条约法	-11.807
堂	-11.8071
▁野蛮	-11.8072
▁法律咨询	-11.8074
▁原油	-11.8076
▁半个	-11.808
▁插	-11.808
▁角度看	-11.8081
▁思路	-11.8085
▁晚些时候	-11.809
▁总人口	-11.809
▁狮子	-11.8092
▁印尼	-11.8093
拟	-11.8096
▁流向	-11.8097
▁全身	-11.8097
▁国家机关	-11.8097
▁多边条约	-11.8098
▁排列	-11.8098
▁International	-11.8099
▁保护主义	-11.8099
▁负责管理	-11.8102
▁绘制	-11.8105
▁事后	-11.8105
▁贵方	-11.8106
▁两架	-11.8107
▁院校	-11.8108
▁俄国	-11.811
分析	-11.8117
▁Ma	-11.8128
▁记入	-11.8129
▁千美元	-11.8133
▁激进	-11.8138
▁百慕大	-11.8141
▁盘	-11.8146
v	-11.815
▁交流经验	-11.8151
顶	-11.8159
▁动词	-11.8164
▁预料	-11.8164
▁寡妇	-11.8165
▁浪漫	-11.8166
▁绝	-11.8169
▁大气层	-11.8169
▁覆盖率	-11.817
注意	-11.8173
▁备用	-11.8174
▁"20	-11.8174
▁你好	-11.8174
O	-11.8174
▁三月	-11.8175
▁生活水准	-11.8179
信息	-11.8179
菲	-11.8182
▁高峰	-11.8185
▁水道	-11.8185
农	-11.8185
程	-11.8188
▁基金组织	-11.8189
极	-11.8192
J	-11.8193
▁持有人	-11.8194
et	-11.8196
ev	-11.8199
▁多于	-11.8201
▁推销	-11.8202
▁汉	-11.8206
▁赔偿金	-11.8208
▁二者	-11.8209
▁垂直	-11.8215
▁变暖	-11.8217
▁早餐	-11.8218
▁一杯	-11.8219
▁圣经	-11.8219
仅	-11.822
▁3.4	-11.8222
领	-11.8222
穿	-11.8222
▁非线性	-11.8222
▁庇护所	-11.8223
▁四月	-11.8225
▁平方米	-11.8227
▁领导层	-11.8227
▁公共安全	-11.8227
▁后期	-11.8228
▁洞	-11.8229
▁一封信	-11.823
▁形	-11.823
R	-11.8235
▁查尔斯	-11.8236
▁苦	-11.824
▁催化剂	-11.8243
▁吸入	-11.8244
▁选举法	-11.8245
▁水源	-11.8245
▁一款	-11.8245
▁广义	-11.8246
▁否决权	-11.8246
▁215	-11.8249
▁越过	-11.8251
▁最快	-11.8253
▁容许	-11.8253
▁碰撞	-11.8253
弹	-11.8258
▁移民局	-11.8262
▁除名	-11.8263
▁准入	-11.8264
▁招	-11.8265
▁棉花	-11.8266
▁多媒体	-11.8268
▁坦率	-11.8272
▁公顷	-11.8273
▁生于	-11.8274
▁捍卫者	-11.8277
▁废水	-11.8277
▁热爱	-11.828
靠	-11.8281
▁鼓掌	-11.8282
▁扶养	-11.8287
季	-11.8289
▁秒	-11.8289
▁投机	-11.8289
▁流感	-11.829
▁二十	-11.829
▁工商	-11.829
▁202	-11.8291
▁礼拜	-11.8291
▁告	-11.8291
▁标	-11.8292
▁输	-11.8292
▁相等	-11.8293
▁圈	-11.8293
▁天堂	-11.8294
▁汉语	-11.8301
▁表情	-11.8304
▁改革方案	-11.8305
▁是非	-11.8309
▁大自然	-11.8311
细胞	-11.8312
▁222	-11.8317
▁色	-11.8319
▁文物	-11.8322
威	-11.8323
▁在此之	-11.8323
▁法例	-11.8324
▁大城市	-11.8326
▁280	-11.8328
▁中向	-11.8329
游	-11.8334
▁浅	-11.8334
▁The	-11.8338
▁舞蹈	-11.8339
▁芝加哥	-11.8342
传统	-11.8344
▁暗杀	-11.8346
▁住区	-11.8351
足	-11.8352
▁缅甸政府	-11.8355
▁241	-11.8356
▁乐	-11.8356
▁该段	-11.8359
▁易受	-11.8361
▁涂	-11.8364
▁译	-11.8364
▁丝	-11.8365
▁刑事案件	-11.8367
▁可卡因	-11.8368
▁挑战性	-11.8368
▁一月	-11.8372
▁扬	-11.8376
▁订	-11.8377
▁午餐	-11.8377
▁MISC	-11.8378
▁228	-11.8378
▁设计师	-11.8383
▁完毕	-11.8388
▁耳	-11.8392
▁唐	-11.8393
炎	-11.8396
卷	-11.8398
▁第十四届	-11.8399
▁举动	-11.8402
▁赔偿额	-11.8402
紧	-11.8405
▁194	-11.8406
▁宏观	-11.8406
▁访问期间	-11.8406
▁克隆	-11.8407
时期	-11.8407
▁全盘	-11.8408
▁纳税人	-11.841
▁界面	-11.841
▁疲劳	-11.841
▁共同利益	-11.8411
▁羊	-11.8415
▁东北	-11.8416
▁渔船	-11.8418
▁动乱	-11.842
▁善	-11.8421
▁语音	-11.8422
▁俄文	-11.8423
▁狼	-11.8423
▁行政助理	-11.8425
▁相连	-11.8428
床	-11.843
▁查访	-11.8433
▁原谅	-11.8435
▁微妙	-11.8435
▁安提瓜和巴布达	-11.8435
▁198	-11.8435
▁观	-11.8445
▁肯	-11.8448
▁空前	-11.8448
阿	-11.845
▁周一	-11.8452
▁SC	-11.8453
▁221	-11.8453
▁并发症	-11.8454
▁圣诞	-11.8458
▁188	-11.8458
▁炮弹	-11.8459
舞	-11.846
▁CAT	-11.8466
▁203	-11.8467
歌	-11.8471
▁年度预算	-11.8472
▁国际性	-11.8472
▁敬意	-11.8475
▁晚餐	-11.848
▁结核	-11.8481
▁海滩	-11.8483
▁经济援助	-11.8483
▁业界	-11.8486
另外	-11.8486
▁住院	-11.8487
▁方程	-11.8487
▁行为人	-11.8487
▁坦克	-11.8488
▁剥夺权利	-11.849
▁两条	-11.8493
▁十五	-11.8496
▁紧	-11.8498
▁巨额	-11.8498
货	-11.8503
▁要说	-11.8507
▁大为	-11.8507
▁演习	-11.851
▁众人	-11.851
▁善政	-11.851
▁输送	-11.8511
▁血统	-11.8512
▁DNA	-11.8513
▁电缆	-11.8514
▁固体	-11.8514
▁克拉	-11.8514
▁研究成果	-11.8517
接受	-11.8519
▁非法行为	-11.8523
▁小小的	-11.8525
▁一章	-11.8525
▁名词	-11.8526
▁踢	-11.8528
▁替代性	-11.8533
▁回避	-11.8533
▁周边	-11.8533
▁写信	-11.8535
▁交由	-11.8538
▁这部分	-11.8541
▁出差	-11.8546
▁阿拉木图	-11.8548
▁人质	-11.8551
▁迟	-11.8552
完	-11.8554
▁行星	-11.8555
▁根深蒂固	-11.8567
▁一代	-11.8569
篇	-11.8571
帕	-11.8573
▁裁	-11.8577
▁当务之急	-11.8578
▁就读	-11.858
▁入口	-11.8581
▁电压	-11.8582
▁氛围	-11.8583
文件	-11.8583
▁兑换	-11.8585
▁金沙萨	-11.8586
▁直辖市	-11.8586
▁紧紧	-11.8589
▁通货膨胀率	-11.8589
▁被动	-11.859
▁磁	-11.8594
▁各项政策	-11.8595
▁原定	-11.8596
脑	-11.8596
标	-11.8604
▁不可逆转	-11.8604
▁所在国	-11.8604
特别	-11.8605
▁216	-11.8606
▁拉美	-11.8606
▁康	-11.8612
举	-11.8615
▁269	-11.8617
▁贬值	-11.8618
▁阿克拉	-11.862
▁合伙	-11.8622
▁带给	-11.8623
▁废止	-11.8623
资	-11.8624
▁按钮	-11.8626
▁增幅	-11.8628
▁揭露	-11.8631
▁野生动物	-11.8631
▁九龙	-11.8636
▁保护法	-11.8637
▁小男孩	-11.8639
▁反对党	-11.8639
世纪	-11.864
▁言语	-11.8641
▁优良	-11.8642
隆	-11.8652
▁基会	-11.8654
▁模仿	-11.8655
▁反驳	-11.8658
▁减弱	-11.8666
▁矩阵	-11.8667
▁酶	-11.8667
▁人中	-11.8667
▁星球	-11.8669
▁出口国	-11.8672
▁绕	-11.8673
笑	-11.8673
▁ICCD	-11.8674
▁感到高兴	-11.8674
▁制服	-11.8674
▁意向	-11.8675
▁图形	-11.8675
▁挽救	-11.8677
▁家乡	-11.8677
▁司法部长	-11.8678
ya	-11.8678
▁账目	-11.8679
▁口袋	-11.8679
▁瑞	-11.868
▁诚信	-11.8682
▁标明	-11.8682
▁动力学	-11.8684
▁193	-11.8685
▁一幅	-11.8685
▁中旬	-11.8687
▁氯	-11.8687
▁高速公路	-11.8687
ro	-11.8687
▁长期存在	-11.8688
换	-11.8688
▁针	-11.8688
▁年纪	-11.869
▁集成	-11.8692
▁线性	-11.8694
▁联席会议	-11.8695
▁灵	-11.8695
▁终结	-11.8697
▁No	-11.8697
▁电话号码	-11.8698
▁报销	-11.8701
▁一日	-11.8703
▁服用	-11.8704
治	-11.8707
da	-11.8707
▁姿态	-11.8708
▁公海	-11.8709
▁惊奇	-11.8712
▁棘手	-11.8714
▁每一项	-11.8716
▁失衡	-11.872
▁帕劳	-11.8722
文化	-11.8727
▁所有者	-11.8727
▁贸易谈判	-11.8733
▁发生冲突	-11.8733
▁天体	-11.8741
▁时才	-11.8741
▁解读	-11.8741
▁准予	-11.8742
▁担负	-11.8742
ad	-11.8742
▁La	-11.8743
j	-11.8752
▁忠实	-11.8752
▁水质	-11.8753
▁图书	-11.8756
▁专业化	-11.8758
▁穿越	-11.8758
▁早婚	-11.876
▁三维	-11.8766
▁互补	-11.8767
▁一头	-11.8768
▁钢铁	-11.8768
▁各政党	-11.8768
▁格林纳达	-11.8768
▁一分钟	-11.8769
▁市政府	-11.8771
▁长达	-11.8772
▁联东	-11.8772
▁泥	-11.8773
▁伤心	-11.8774
▁宠物	-11.8776
▁归属	-11.8777
▁寒冷	-11.8779
as	-11.878
▁空调	-11.8783
▁制图	-11.8785
▁化石	-11.8786
▁价格上涨	-11.879
wa	-11.8791
▁联合国国际贸易法委员会	-11.8793
▁隔	-11.8795
▁异	-11.8796
▁最终目标	-11.8796
▁巴厘	-11.8798
▁棒	-11.88
▁安道尔	-11.8804
街	-11.8804
▁排定	-11.8804
▁磨	-11.8808
▁无家可归	-11.881
▁反洗钱	-11.8811
▁抵销	-11.8812
▁汤加	-11.8815
▁仲裁员	-11.8817
▁生物学	-11.8817
▁令人不安	-11.8817
▁谋生	-11.882
▁平面	-11.882
▁代表权	-11.8824
▁管理制	-11.8826
▁办公厅	-11.8827
▁毒	-11.8827
▁九月	-11.8829
▁铺	-11.8831
牙	-11.8831
▁星期天	-11.8833
▁毫克	-11.8834
▁204	-11.8834
▁私	-11.8836
▁精英	-11.8836
▁亲密	-11.8839
痛	-11.8845
出现	-11.8846
银行	-11.8847
▁数百	-11.8848
▁开幕式	-11.8848
▁道义	-11.8848
▁社会工作者	-11.8851
▁反思	-11.8852
▁欠款	-11.8859
▁进一步提高	-11.8859
因为	-11.886
▁预订	-11.8861
ek	-11.8864
▁htm	-11.8866
▁焊接	-11.8866
▁调和	-11.8867
▁矿	-11.8869
▁贪污	-11.8872
▁专项	-11.8873
▁商业性	-11.8876
▁264	-11.8878
ir	-11.8879
▁ICEF	-11.888
▁代表大会	-11.888
▁静止	-11.8883
▁造	-11.8887
▁包裹	-11.8888
裁	-11.8888
俩	-11.889
▁绘画	-11.8891
▁主持会议	-11.8892
▁噪声	-11.8892
▁七月	-11.8894
▁热点	-11.8896
▁处长	-11.8899
▁第一节	-11.89
社	-11.8901
▁弟弟	-11.8902
▁仅为	-11.8903
▁收缩	-11.8903
镇	-11.8904
▁查找	-11.8905
▁有序	-11.8905
▁肺	-11.8907
▁海湾	-11.8908
▁浮	-11.891
▁发现自己	-11.891
▁派别	-11.8914
▁归咎	-11.8916
▁轮胎	-11.8916
▁第一季度	-11.8916
▁有鉴于	-11.8916
▁积极支持	-11.8916
▁书面形式	-11.8921
▁印制	-11.8925
▁接洽	-11.8927
▁摩擦	-11.8928
▁争辩	-11.8928
▁合法化	-11.8929
▁紧急行动	-11.893
▁隐	-11.893
▁帝国	-11.893
▁常任	-11.8931
▁尺度	-11.8931
▁圣文森特	-11.8932
▁237	-11.8932
▁牙	-11.8934
▁~	-11.8935
▁253	-11.8935
▁倘	-11.8937
▁戈尔	-11.8937
▁罪恶	-11.8938
▁RC	-11.8939
▁1948	-11.8942
▁激情	-11.8943
▁捷克	-11.8943
▁265	-11.8943
▁德黑兰	-11.8952
尾	-11.8952
▁诗人	-11.8965
▁场景	-11.8966
▁语法	-11.8967
▁素	-11.8969
▁6.1	-11.8971
▁受灾	-11.8972
▁动植物	-11.8973
▁争夺	-11.8974
▁马绍尔群岛	-11.8974
▁分在	-11.8974
▁服务质量	-11.8975
▁组织法	-11.8976
▁光盘	-11.898
▁南美洲	-11.8982
▁多层面	-11.8988
▁白人	-11.8994
▁空间科学	-11.8994
务	-11.9007
▁抵御	-11.901
▁黄色	-11.901
▁途中	-11.901
▁悬而未决	-11.9015
主席	-11.9019
▁辩称	-11.9021
▁函	-11.9021
▁太平洋地区	-11.9022
▁205	-11.9023
▁南太平洋	-11.9024
▁让步	-11.9025
▁信息中心	-11.9025
ah	-11.9026
▁外国投资	-11.903
▁上来	-11.903
▁藉	-11.903
朗	-11.9032
▁带领	-11.9033
▁委	-11.9033
▁希尔	-11.9036
十	-11.9037
▁歌	-11.9038
朝	-11.9038
▁蛋糕	-11.9043
▁收缴	-11.9043
▁加以解决	-11.9044
▁调查报告	-11.9046
▁鼻子	-11.9046
▁反射	-11.9046
▁仍旧	-11.9047
▁挖	-11.9051
▁聚	-11.9051
▁罕见	-11.9051
▁侧	-11.9055
▁遇见	-11.9057
▁烦恼	-11.906
▁备灾	-11.906
▁减小	-11.906
默	-11.9061
▁临时代办	-11.9065
▁卡拉巴赫	-11.9065
▁丝毫	-11.9065
▁定向	-11.9067
▁空军	-11.9071
ly	-11.9075
▁外长	-11.9078
▁发展趋势	-11.9079
▁航运	-11.9082
▁出国	-11.9082
曲	-11.9083
▁队员	-11.9092
12	-11.9094
▁演奏	-11.9094
▁例行	-11.9095
ou	-11.9097
▁Part	-11.9101
▁母	-11.9102
周	-11.9103
▁丑	-11.9104
▁世	-11.9107
▁这事	-11.9107
▁De	-11.911
▁数据处理	-11.9113
▁歌曲	-11.9115
▁唯	-11.9122
▁建议书	-11.9123
母	-11.9123
ik	-11.9123
▁都市	-11.9126
▁奋斗	-11.9127
▁医疗卫生	-11.9127
▁华尔街	-11.913
▁身心健康	-11.9133
▁出口商	-11.9134
▁退回	-11.9136
▁扰乱	-11.9138
▁症	-11.9139
▁第一期	-11.9143
▁CERD	-11.9144
▁归因于	-11.9144
▁胜任	-11.9147
▁服刑	-11.9149
▁阿卜杜	-11.915
韦	-11.9151
页	-11.9158
志	-11.916
▁海洛因	-11.9164
▁粒子	-11.9164
▁立法机关	-11.9164
▁永恒	-11.9166
▁世上	-11.917
▁格林纳丁斯	-11.9172
▁第十六条	-11.9175
园	-11.9177
▁为限	-11.9178
▁为准	-11.9178
▁滚	-11.9179
▁杰	-11.918
▁渥太华	-11.9181
▁众	-11.9181
▁发展局	-11.9182
糖	-11.9184
▁犯罪人	-11.9185
▁陆军	-11.9186
▁战略伙伴	-11.9186
宝	-11.919
▁务必	-11.9192
▁拉特	-11.9192
▁步行	-11.9193
▁审计工作	-11.9194
▁威廉	-11.9196
▁图案	-11.92
▁广为	-11.92
狗	-11.92
▁夫	-11.9201
▁不该	-11.9203
▁因子	-11.9204
鸟	-11.9205
▁吃惊	-11.9206
▁受雇	-11.9209
▁三国	-11.921
▁平方公里	-11.921
▁应以	-11.9211
▁一番	-11.9213
▁皮特	-11.9213
▁凭借	-11.9215
▁恐怖活动	-11.9215
▁情事	-11.9215
▁254	-11.9215
秘书长	-11.9218
▁一眼	-11.9224
▁厚	-11.9224
▁一度	-11.9225
▁东南欧	-11.9226
▁启发	-11.9227
▁运载工具	-11.9229
▁增补	-11.9229
▁限期	-11.923
▁跟进	-11.9231
许	-11.9231
▁鸡蛋	-11.9232
▁集群	-11.924
▁监督机制	-11.9243
▁276	-11.9244
▁备件	-11.9244
▁弥	-11.9245
扎	-11.9245
▁民族团结	-11.9246
▁詹姆斯	-11.925
泽	-11.9252
▁差价	-11.9255
▁付给	-11.9258
▁价值链	-11.926
▁订阅	-11.926
▁治	-11.926
▁橡胶	-11.926
▁归纳	-11.9261
-	-11.9261
▁第六章	-11.9263
▁中请	-11.9266
修	-11.9268
▁上课	-11.927
▁创新性	-11.9272
▁深海	-11.9272
▁而成	-11.9273
▁非暴力	-11.9274
▁肌	-11.9276
莫	-11.9277
▁移送	-11.9277
▁外表	-11.9279
贵	-11.9279
▁避难	-11.9281
广	-11.9281
▁详述	-11.9283
▁意在	-11.9285
▁"1998	-11.9286
▁核武库	-11.9286
▁四次	-11.9288
▁"21	-11.9289
▁供电	-11.9291
▁螺旋	-11.9291
▁第四节	-11.9293
▁改划	-11.9294
▁同盟	-11.9294
▁不懈努力	-11.93
▁低成本	-11.9303
▁另见	-11.9304
▁简历	-11.9306
▁死者	-11.9309
▁开头	-11.9315
▁中所列	-11.9317
▁建模	-11.932
▁忽	-11.9322
▁运载	-11.9323
▁年里	-11.9326
▁特许权	-11.9326
▁受访者	-11.9326
▁游说	-11.9327
▁密	-11.9327
▁钟	-11.9329
▁消化	-11.9331
▁免税	-11.9334
▁扣	-11.9335
末	-11.9336
科菲	-11.9336
害	-11.934
▁两者之间	-11.934
▁西北	-11.9342
▁制定者	-11.9342
▁人道	-11.9343
▁沉积	-11.9343
▁本月	-11.9343
▁质量保证	-11.9343
▁宽带	-11.9343
▁核爆炸	-11.9346
▁佛	-11.9348
▁选用	-11.935
▁十三	-11.9351
▁军用飞机	-11.9352
▁期刊	-11.9352
▁变换	-11.9353
▁纳税	-11.9356
▁雨水	-11.9358
▁换句话说	-11.9359
▁去除	-11.9363
▁随便	-11.9364
▁捕获	-11.9366
▁牵涉	-11.9366
▁讽刺	-11.9366
▁葡萄酒	-11.9367
埃	-11.9368
▁微观	-11.9369
▁阿比让	-11.9372
▁资深	-11.9372
▁UNA	-11.9372
▁禽流感	-11.9374
▁讯息	-11.9374
▁参看	-11.9375
▁火焰	-11.9377
▁农	-11.9378
▁冷静	-11.9379
▁谘询	-11.938
▁达格	-11.9382
▁引人注目	-11.9383
▁接替	-11.9383
▁出租	-11.9384
▁所处	-11.9385
▁商讨	-11.9386
▁体检	-11.939
▁相互尊重	-11.9392
▁252	-11.9392
这是	-11.9392
▁潮	-11.9396
▁236	-11.9398
▁开拓	-11.9399
▁物项	-11.9405
son	-11.9405
▁燃油	-11.9406
▁几分钟	-11.9408
or	-11.9409
▁体积	-11.9409
▁期满	-11.9412
▁全境	-11.9414
▁互利	-11.9415
▁偏远	-11.9415
▁借调	-11.9415
▁195	-11.9415
▁纵向	-11.9415
▁机票	-11.9415
▁灰色	-11.9416
▁警报	-11.9417
▁获得成功	-11.9421
▁辛烷	-11.9426
▁抛	-11.9428
▁非核心	-11.9432
▁过滤	-11.9435
▁跌	-11.9436
▁税款	-11.9442
▁财产权	-11.9446
▁白天	-11.9447
▁出租车	-11.9447
▁瓦尔	-11.9448
▁冷却	-11.945
▁第十三条	-11.9451
齿	-11.9454
▁坚强	-11.946
▁著作	-11.9461
▁几点	-11.9461
壁	-11.9464
▁各次	-11.9464
▁217	-11.9464
▁狭窄	-11.9464
▁出具	-11.9467
▁格林	-11.9468
▁收藏	-11.9468
▁姐妹	-11.9472
▁紧急状况	-11.9473
▁Pro	-11.9473
▁门户	-11.9474
▁厕所	-11.9476
▁第二次世界大战	-11.9478
▁维尔	-11.9479
▁重型	-11.9487
▁栏	-11.9487
▁办事	-11.949
▁批准书	-11.9491
起来	-11.9493
ul	-11.9493
▁非常重视	-11.9496
▁屋	-11.9496
▁总经理	-11.9496
本上	-11.9498
▁牢房	-11.9499
▁连贯性	-11.95
▁悬挂	-11.9502
籍	-11.9503
▁口译员	-11.9503
▁来临	-11.9504
沃	-11.9505
▁干部	-11.9508
▁看不见	-11.9508
▁大地	-11.9509
▁打交道	-11.9511
▁获胜	-11.9513
▁偏远地区	-11.9517
▁磺酸	-11.9518
▁景观	-11.9519
▁再见	-11.952
▁扫	-11.9522
杀	-11.9523
▁360	-11.9526
▁论证	-11.9527
▁鸦片	-11.9528
▁摩尔多瓦	-11.9528
▁以内	-11.9531
▁保全	-11.9531
▁烤	-11.9533
续	-11.9533
▁资本主义	-11.9533
▁评	-11.9536
▁公民投票	-11.9537
耳	-11.9542
▁合法权益	-11.9543
▁摩西	-11.9543
▁对称	-11.9544
▁恐怖袭击	-11.9546
▁欲望	-11.9546
▁撰文	-11.9549
注	-11.9554
▁船员	-11.9556
深	-11.9557
▁6.2	-11.9558
▁197	-11.9558
▁之用	-11.9559
▁怪	-11.9561
▁刑期	-11.9564
▁巡逻队	-11.9564
▁爆	-11.9565
仪	-11.9567
▁罗斯	-11.9569
▁心理学	-11.9571
ka	-11.9573
▁瞧	-11.9574
▁珍贵	-11.9575
▁采	-11.9576
▁辍学	-11.9578
▁普京	-11.9581
▁不肯	-11.9583
▁菲	-11.9585
▁努力提高	-11.9586
▁岩	-11.9588
▁经受	-11.959
▁席	-11.9592
▁萧条	-11.9593
▁吻	-11.9593
▁正常化	-11.9602
▁逗留	-11.9605
▁民间组织	-11.9606
▁卢萨卡	-11.9608
▁停滞	-11.9608
▁劳工法	-11.9608
▁缺失	-11.9611
枚	-11.9611
▁情	-11.9613
▁终端	-11.9613
▁形容	-11.9613
▁心理健康	-11.9614
▁底部	-11.9618
▁2.7	-11.9622
▁郊区	-11.9625
▁欧洲理事会	-11.9626
▁催	-11.963
▁作好	-11.963
▁SBSTA	-11.9631
▁方可	-11.9633
▁境地	-11.9634
▁进修	-11.9634
▁政客	-11.9637
▁吩咐	-11.964
▁总体目标	-11.9641
▁百姓	-11.9641
▁阴谋	-11.9641
▁全职	-11.9642
▁照射	-11.9649
▁表示同意	-11.9652
显	-11.9657
▁DC	-11.9657
▁所得税	-11.9657
▁赦免	-11.9657
▁候补	-11.9658
▁珊瑚礁	-11.9661
▁不见	-11.9662
▁数千	-11.9662
▁稳	-11.9669
▁日渐	-11.9669
▁盗窃	-11.9669
▁潘基文	-11.967
▁门槛	-11.967
鼠	-11.968
▁290	-11.9681
▁触发	-11.9682
▁首脑	-11.9682
▁泰勒	-11.9682
▁平均数	-11.9682
▁关爱	-11.9688
▁译成	-11.9688
▁放下	-11.9691
▁光学	-11.9693
▁有无	-11.9693
▁陷于	-11.9694
氧	-11.9695
▁机能	-11.9695
▁散步	-11.9696
▁生命周期	-11.97
▁开火	-11.9701
四个	-11.9702
▁缩编	-11.9702
▁一股	-11.9703
▁这段	-11.9707
▁里约热内卢	-11.9708
▁向上	-11.9709
依	-11.9712
▁安全网	-11.9713
▁1950	-11.9715
▁定制	-11.9716
▁国旗	-11.9716
▁挤	-11.9718
▁1968	-11.9719
▁看过	-11.972
▁上将	-11.972
▁战时	-11.9725
▁238	-11.9729
▁刊物	-11.9729
▁欧盟委员会	-11.973
▁抢	-11.9731
▁消	-11.9732
▁军事法庭	-11.9733
▁CCW	-11.9733
▁开展业务	-11.9733
▁删去	-11.9733
▁厄	-11.9734
▁总值	-11.9735
▁地铁	-11.9736
▁战略部署	-11.9738
▁城里	-11.9738
▁童年	-11.9738
星期	-11.9739
▁Sha	-11.9741
▁通报情况	-11.9741
▁货物运输	-11.9741
▁战场	-11.9745
▁亏损	-11.9747
▁1966	-11.9755
▁未满	-11.9755
▁奥斯陆	-11.9756
▁公爵	-11.9756
▁逆转录	-11.9756
▁责令	-11.9756
▁示威者	-11.9756
▁261	-11.9758
▁John	-11.9759
▁结社	-11.9759
▁热量	-11.9765
▁屋子	-11.9771
▁Abu	-11.9775
▁1.6	-11.9779
▁宪兵	-11.978
▁容量	-11.9781
▁"22	-11.9782
▁看不到	-11.9783
▁计算方法	-11.9784
▁劳	-11.9784
▁246	-11.9788
▁送往	-11.9788
▁女孩子	-11.9789
▁贫困人口	-11.9789
▁持续性	-11.979
馆	-11.9797
▁努	-11.9797
▁224	-11.9805
▁湖	-11.9805
麻	-11.9806
▁抽象	-11.9807
▁架次	-11.9809
▁树林	-11.9811
▁祭	-11.9812
▁星期日	-11.9815
▁物业	-11.9817
▁性传播	-11.9819
▁内务部	-11.9819
▁不佳	-11.9821
▁恶	-11.9821
▁日益增长	-11.9822
▁局限性	-11.9822
▁周转	-11.9823
失	-11.9825
▁大道	-11.9826
▁合伙人	-11.9827
▁外出	-11.9827
▁纪念活动	-11.9828
▁5000	-11.9831
协定	-11.9831
越	-11.9833
▁不良影响	-11.9834
▁离子	-11.9834
▁遵行	-11.9834
▁本署	-11.9836
▁乐队	-11.9836
▁缔造	-11.9837
▁非常高兴	-11.984
又	-11.9846
▁教育部门	-11.9847
▁主观	-11.9849
▁构成犯罪	-11.9853
▁膨胀	-11.9854
▁放宽	-11.9855
▁主权国家	-11.9856
il	-11.9857
▁义	-11.9863
▁诱惑	-11.9864
▁EC	-11.9865
ina	-11.9866
这一	-11.9866
▁244	-11.9867
▁朝鲜半岛	-11.9867
▁事实证明	-11.9868
▁两只	-11.9869
▁肝	-11.9869
▁喷	-11.9873
▁布尔	-11.9873
▁本合同	-11.9875
▁推断	-11.9877
▁伊丽莎白	-11.9877
▁公益	-11.9879
▁247	-11.988
im	-11.988
▁篇	-11.9881
移	-11.9882
▁养育	-11.9883
▁惠及	-11.9883
▁钻	-11.9885
▁第四十六届	-11.9887
▁瑙鲁	-11.9889
▁受限制	-11.9889
▁和平谈判	-11.9889
▁可不	-11.989
▁231	-11.9893
▁火山	-11.9893
瓶	-11.9894
▁音乐会	-11.9894
▁过剩	-11.9895
▁减损	-11.9898
▁意味	-11.9898
▁第三款	-11.9899
▁文莱达鲁萨兰国	-11.9901
▁二次	-11.9904
略	-11.9904
▁视作	-11.9906
▁残割	-11.9907
▁女王	-11.9908
▁奉献	-11.9909
▁外资	-11.9909
▁眼光	-11.991
▁致辞	-11.9913
ba	-11.9913
▁拜访	-11.9916
附	-11.9917
▁IT	-11.9918
▁无可	-11.9918
▁率领	-11.992
▁广播电台	-11.9924
▁拨出	-11.9924
▁GS	-11.9924
▁胎儿	-11.9928
▁依旧	-11.9931
▁尚无	-11.9932
▁陌生人	-11.9935
▁反抗	-11.9938
▁联布	-11.9942
轴	-11.9942
▁对冲	-11.9943
▁内涵	-11.9944
▁逃跑	-11.9946
▁远距离	-11.9946
人士	-11.9948
▁5.3	-11.9948
▁线索	-11.995
▁w	-11.9954
▁258	-11.9954
▁森	-11.9955
反	-11.9957
▁难度	-11.9957
▁不止	-11.9962
▁散布	-11.9962
▁4.4	-11.9962
▁写道	-11.9965
▁配套	-11.9968
▁泄漏	-11.9969
▁年鉴	-11.9969
▁不然	-11.9969
▁255	-11.997
▁不像	-11.9972
▁难过	-11.9973
▁行之有效	-11.9974
上午	-11.9978
▁里约集团	-11.9983
▁大街	-11.9984
▁送回	-11.9987
▁请洽	-11.999
▁挣	-11.9992
▁包围	-11.9995
▁质素	-11.9998
▁不容	-11.9999
ta	-11.9999
▁平稳	-12.0001
▁同伴	-12.0003
▁750	-12.0004
▁系指	-12.0005
▁早先	-12.0007
▁新近	-12.001
▁商界	-12.0011
▁清真寺	-12.0016
▁建设项目	-12.0018
▁饥荒	-12.002
▁十个	-12.002
▁地理位置	-12.0023
▁财政状况	-12.0023
▁手臂	-12.0023
▁必定	-12.0024
▁甘	-12.0024
▁车间	-12.0028
▁232	-12.0028
▁楼宇	-12.0029
▁构架	-12.0032
▁高温	-12.0033
▁科目	-12.0033
▁瘫痪	-12.0038
▁停下来	-12.0039
▁亦可	-12.0043
▁index	-12.0047
▁加利	-12.0048
co	-12.005
▁五十周年	-12.0051
▁环境退化	-12.0051
▁雅典	-12.0051
▁不断扩大	-12.0051
▁鉴别	-12.0054
▁驻扎	-12.0054
▁实现目标	-12.0058
▁工作岗位	-12.006
▁国家统计局	-12.0063
▁八年	-12.0064
▁户	-12.0065
▁脚注	-12.0066
▁最低标准	-12.0066
蒙	-12.0067
▁高水平	-12.0067
▁创办	-12.0068
▁切断	-12.0069
▁置	-12.007
▁拥抱	-12.0073
▁停战	-12.0073
▁幽默	-12.0075
▁主计长	-12.0075
▁刑警	-12.0075
▁负荷	-12.0075
▁轮流	-12.0076
▁会同	-12.0076
▁伤口	-12.0079
▁视力	-12.008
▁公吨	-12.0081
▁蒙受	-12.0082
▁经纪人	-12.0082
▁应享	-12.0084
▁海平面	-12.0084
▁每位	-12.0088
am	-12.0089
共	-12.0091
▁从根	-12.0091
▁混淆	-12.0097
▁223	-12.0097
▁重振	-12.0097
亮	-12.0097
▁善治	-12.0098
▁无知	-12.0101
考	-12.0101
▁父	-12.0112
▁杀戮	-12.0112
▁公共事务	-12.0112
▁信徒	-12.0113
▁减去	-12.0113
▁未获	-12.0118
▁情况通报	-12.0119
▁天上	-12.0119
▁数月	-12.012
▁达喀尔	-12.0122
▁马车	-12.0122
▁侦察	-12.0122
▁自由贸易	-12.0122
▁电源	-12.0124
▁参与方	-12.0124
▁杀虫剂	-12.0125
▁领导者	-12.0126
▁玫瑰	-12.0127
▁产科	-12.0127
▁精彩	-12.0128
▁庭	-12.013
▁驱逐出境	-12.0134
▁"23	-12.0134
▁万元	-12.0136
▁果	-12.0138
惜	-12.0139
▁衬衫	-12.0143
▁温柔	-12.0143
▁至多	-12.0149
▁送达	-12.0149
▁城市规划	-12.0151
▁第八次	-12.0152
▁地产	-12.0153
▁带走	-12.0154
▁谎言	-12.0159
▁表现形式	-12.0159
▁选区	-12.0161
▁好多	-12.0161
▁1267	-12.0162
设计	-12.0164
▁消防	-12.0168
▁助	-12.0171
▁准军事	-12.0171
▁检察院	-12.0172
15	-12.0173
▁圣地亚哥	-12.0175
▁第二十二届	-12.0175
▁687	-12.0177
▁十月	-12.0178
▁稳固	-12.0178
▁上市公司	-12.0178
▁案中	-12.0179
▁劝	-12.018
▁极限	-12.0181
▁击中	-12.0181
▁切尔诺贝利	-12.0184
▁搁置	-12.0184
▁总监	-12.0185
▁深受	-12.0186
▁恶意	-12.0187
▁利用率	-12.019
▁放心	-12.0192
▁笔译	-12.0193
▁关怀	-12.0193
▁收容所	-12.0194
▁躲	-12.0195
▁倾斜	-12.0196
▁加州	-12.0197
▁画面	-12.0198
▁新娘	-12.0199
▁再说	-12.0203
▁缴	-12.0204
▁掠夺	-12.0204
▁289	-12.0208
栏	-12.0209
▁八国集团	-12.0209
▁付费	-12.0216
结	-12.0216
▁无助	-12.0216
▁头部	-12.0217
▁兼职	-12.0222
▁菜单	-12.0223
▁人文	-12.0225
▁书写	-12.0225
▁十四	-12.0226
▁教导	-12.0228
▁决策机构	-12.0228
▁Mar	-12.0228
▁水面	-12.0229
▁中东地区	-12.0229
▁液	-12.0229
▁0.5	-12.023
▁赴	-12.0232
▁指认	-12.0234
▁中型	-12.0235
▁张贴	-12.0237
▁试着	-12.0239
▁工商业	-12.0241
▁产后	-12.0245
▁坎	-12.0245
▁劫持	-12.0247
▁当初	-12.0247
▁农田	-12.0248
▁大海	-12.0249
▁总署	-12.0251
▁下雨	-12.0252
▁荣耀	-12.0253
▁人均收入	-12.0253
▁公立	-12.0253
▁试行	-12.0253
▁245	-12.0262
I	-12.0264
针	-12.0269
▁灭绝	-12.0272
▁心态	-12.0272
▁停车场	-12.0272
▁质	-12.0272
▁流失	-12.0275
▁历	-12.0275
▁累	-12.0276
▁275	-12.0278
▁牌	-12.0279
▁昆虫	-12.0281
▁弱	-12.0285
▁繁殖	-12.029
▁月亮	-12.0291
▁东南亚国家联盟	-12.0291
▁刮	-12.0293
▁嘛	-12.0295
▁来源国	-12.0296
断	-12.0297
▁翻新	-12.0298
▁经济效益	-12.0298
▁专委	-12.0301
▁一语	-12.0302
▁柴油	-12.0303
▁金融部门	-12.0304
▁同类	-12.0305
▁坦	-12.0305
▁就业率	-12.0306
▁时效	-12.0306
▁牢记	-12.0306
▁日止	-12.0307
▁三位	-12.0308
▁月间	-12.0312
▁大马士革	-12.0316
▁一致同意	-12.0316
▁四处	-12.0319
▁234	-12.0322
▁制剂	-12.0323
▁崛起	-12.0329
▁亚太地区	-12.0329
营	-12.0332
▁第四十七届	-12.0332
▁DVD	-12.0335
▁分部	-12.0336
▁338	-12.0337
乘	-12.0338
▁检控	-12.0338
▁气味	-12.0338
▁专业人士	-12.034
▁恐怖组织	-12.0342
▁假日	-12.0342
▁致意	-12.0343
▁箱子	-12.0345
扬	-12.0347
▁疯	-12.0349
袋	-12.0349
▁圣马力诺	-12.0351
▁香港特区	-12.0351
▁2.8	-12.0353
▁诗歌	-12.0354
▁击败	-12.0357
▁清醒	-12.0357
▁安全区	-12.0357
▁宿舍	-12.036
▁196	-12.0363
▁换言之	-12.0363
▁降落	-12.0364
▁没错	-12.0367
▁埃厄	-12.037
▁洛杉矶	-12.0375
▁数据中心	-12.0375
▁阿卜杜拉	-12.0377
▁装有	-12.0377
▁提法	-12.038
导	-12.0381
▁井	-12.0385
▁似宜	-12.0386
▁老龄化	-12.0387
▁天赋	-12.0392
▁上述情况	-12.0396
▁一是	-12.0396
凯	-12.04
▁眼中	-12.04
▁320	-12.0402
▁不太可能	-12.0402
▁^	-12.0402
▁五岁	-12.0402
▁219	-12.0405
▁第一位	-12.0408
▁眼泪	-12.0408
11	-12.0409
▁妇女儿童	-12.0409
▁胶	-12.041
▁音	-12.0413
▁光线	-12.0413
▁列车	-12.0419
▁接受国	-12.0421
▁露出	-12.0422
▁天才	-12.0422
▁后悔	-12.0426
▁局限	-12.0428
礼	-12.0429
▁就职	-12.0429
▁IMF	-12.0431
▁风景	-12.0435
月份	-12.0436
▁陛下	-12.0437
▁管理信息系统	-12.044
▁草地	-12.0443
▁新闻媒体	-12.0444
雪	-12.0446
▁不致	-12.0446
▁过渡期	-12.0446
▁传授	-12.0447
佳	-12.0448
▁保险费	-12.0448
▁细目	-12.045
▁注定	-12.0451
▁听力	-12.0451
▁涌入	-12.0453
▁电气	-12.046
▁是否是	-12.0462
▁任何一方	-12.0469
每	-12.0469
▁283	-12.0472
▁罂粟	-12.0475
莎	-12.048
▁各阶层	-12.0483
▁站点	-12.0484
展	-12.0484
▁国在	-12.049
▁好转	-12.0491
▁脉冲	-12.0491
▁装修	-12.0492
▁隐私权	-12.0492
▁一般而言	-12.0492
▁逆转	-12.0495
▁CCPR	-12.0495
▁盆地	-12.0496
▁远景	-12.0498
▁影子	-12.0498
▁反应堆	-12.0499
▁行走	-12.0499
▁257	-12.0501
▁福克兰群岛	-12.0501
▁外贸	-12.0501
▁表中	-12.0503
▁多边合作	-12.0505
▁俄语	-12.0505
▁应邀	-12.0505
▁一员	-12.0508
组织	-12.0513
▁老挝	-12.0517
▁Ar	-12.0518
▁九年	-12.052
▁能为	-12.052
▁法则	-12.0521
泰	-12.0523
▁抽样	-12.0524
▁令人震惊	-12.0527
一定	-12.0527
▁胃	-12.0529
▁过失	-12.053
▁边防	-12.053
▁吴	-12.0535
um	-12.0539
▁门户网站	-12.054
主动	-12.0543
▁最迟	-12.0545
琳	-12.0545
▁享用	-12.0547
▁发言权	-12.0549
▁激增	-12.0563
▁纸张	-12.0563
▁新界	-12.0564
壳	-12.0565
▁衷心	-12.0566
▁特殊教育	-12.0567
先生	-12.0567
▁旅程	-12.0569
▁共用	-12.0569
▁赞成票	-12.0577
▁喝酒	-12.0579
▁259	-12.0579
幅	-12.058
▁善于	-12.0582
牛	-12.0589
▁最终用户	-12.0589
▁有钱	-12.0589
▁车站	-12.059
▁高压	-12.059
▁竭力	-12.0592
佛	-12.0592
▁猜测	-12.0595
▁保人	-12.0599
异	-12.0599
除了	-12.0601
▁常务	-12.0602
▁国土	-12.0602
▁领地	-12.0607
▁次要	-12.0609
连	-12.0611
▁微波	-12.0612
▁赐	-12.0612
两	-12.0612
▁对外贸易	-12.0614
▁并用	-12.0616
▁提出异议	-12.0617
▁梁	-12.0618
▁局局长	-12.0618
▁督察	-12.0621
▁购买力	-12.0622
▁焚烧	-12.0624
▁重新部署	-12.0624
▁望远镜	-12.0628
▁倒退	-12.0628
▁停车	-12.064
▁第二类	-12.0647
▁on	-12.0647
▁宫	-12.065
▁金牌	-12.0651
▁籍	-12.0652
结果	-12.0652
▁可可	-12.0652
▁安圭拉	-12.0654
▁不足之处	-12.0654
洞	-12.0655
▁成像	-12.0655
▁扎伊尔	-12.0658
▁董事长	-12.0658
di	-12.0659
▁特朗普	-12.066
▁骨折	-12.066
▁整天	-12.0661
▁车子	-12.0662
▁善良	-12.0664
os	-12.0666
▁服役	-12.0667
▁照明	-12.0667
▁适于	-12.0669
▁州长	-12.067
▁第四十届	-12.067
▁口头报告	-12.0671
▁宽松	-12.0674
▁口语	-12.0674
▁国家级	-12.0674
▁致电	-12.0674
▁流产	-12.0677
▁以防	-12.0679
封	-12.0682
▁改建	-12.0684
▁生活费	-12.0684
▁互	-12.0684
▁履行义务	-12.0687
▁伴	-12.0688
▁证明书	-12.0692
▁亲戚	-12.0693
▁兴建	-12.0693
▁协理	-12.0693
▁归类	-12.0694
执行	-12.0696
▁物价	-12.0696
▁施加压力	-12.0696
▁半年	-12.0699
▁争吵	-12.07
▁识字率	-12.07
▁居住地	-12.0702
▁践踏	-12.0703
▁陪审团	-12.0703
▁整整	-12.0703
▁本应	-12.0705
▁房产	-12.0706
处理	-12.0707
▁核技术	-12.0708
▁排序	-12.071
▁影像	-12.071
▁布雷	-12.0714
▁介质	-12.0716
▁探访	-12.0716
▁折	-12.0717
▁束缚	-12.0719
▁明亮	-12.072
▁好事	-12.0722
▁唱歌	-12.0722
▁在世界上	-12.0723
▁凝聚力	-12.0723
▁睡着	-12.0724
▁海港	-12.0727
▁人造	-12.0727
▁使馆	-12.0727
▁速率	-12.0733
▁平安	-12.0733
▁初中	-12.0736
▁平常	-12.0736
▁第十次	-12.0736
复	-12.0739
▁废弃	-12.0742
50	-12.0746
▁戏	-12.0747
▁"24	-12.0747
▁科技委	-12.0747
▁为数	-12.0749
▁生产国	-12.0753
▁财政部长	-12.0754
规	-12.0754
▁鞋子	-12.0754
▁搭配	-12.0759
▁导则	-12.0763
▁放大	-12.0764
▁脑袋	-12.0766
▁正当理由	-12.0769
真	-12.0771
▁可望	-12.0772
▁专职	-12.0773
▁核销	-12.0773
▁带头	-12.0774
结构	-12.0778
▁布宜诺斯艾利斯	-12.0779
▁消息来源	-12.0782
▁7.1	-12.0783
▁html	-12.0783
▁弯	-12.0784
▁周三	-12.0788
▁强硬	-12.0789
▁人力资本	-12.0789
▁临近	-12.0789
备	-12.0792
▁缺	-12.0792
▁巴士	-12.0792
测	-12.0795
▁"25	-12.0799
▁概率	-12.0799
▁结案	-12.08
▁沿海地区	-12.0803
兴	-12.0806
▁水准	-12.0808
▁宣扬	-12.0809
开发	-12.081
▁银行家	-12.081
▁赛季	-12.0811
▁惯	-12.0812
▁喜悦	-12.0812
▁举例	-12.0814
▁避孕药	-12.0817
▁就任	-12.0817
▁第一天	-12.082
▁遴选	-12.0822
▁赚钱	-12.0822
▁学业	-12.0823
▁公共利益	-12.0823
▁十二月	-12.0825
▁NPT	-12.0825
▁民间团体	-12.0826
▁物料	-12.0826
▁超声	-12.0829
▁尼科西亚	-12.0832
▁犯罪集团	-12.0834
▁没人	-12.0834
▁国贸	-12.0834
▁适用性	-12.0834
▁默认	-12.0835
▁Le	-12.0836
▁第九次	-12.0837
▁渔	-12.0837
▁研究院	-12.0838
▁减肥	-12.0839
▁第二十五条	-12.0839
▁克什米尔	-12.0842
▁额度	-12.0842
▁民族主义	-12.0845
▁偏低	-12.0846
▁情势	-12.0849
▁负债表	-12.0857
▁la	-12.0857
▁来访	-12.0861
▁技术培训	-12.0862
▁决	-12.0863
▁五十	-12.0864
▁坚定不移	-12.0865
材	-12.0867
▁世界杯	-12.0869
功	-12.0871
▁政治化	-12.0871
▁筹集资金	-12.0872
为此	-12.0876
▁安全局	-12.0876
▁更长	-12.0878
▁格拉	-12.088
▁薄	-12.0881
▁卡塔赫纳	-12.0882
▁挑	-12.0883
▁掌控	-12.0889
▁法学院	-12.0894
▁总协定	-12.0894
▁爱国	-12.0895
▁议长	-12.0896
▁蛋	-12.0896
▁迈克	-12.0897
造	-12.0898
▁征服	-12.0898
▁规例	-12.0899
▁第二十条	-12.0899
▁地形	-12.0904
▁献	-12.0904
▁艘	-12.0905
航	-12.0905
裂	-12.0906
▁一副	-12.0906
▁纳米	-12.0908
▁富人	-12.0909
▁缓冲区	-12.0909
▁准时	-12.091
▁油田	-12.0912
▁复议	-12.0912
烟	-12.0913
▁身分	-12.0913
▁国防部长	-12.0913
▁司法人员	-12.0914
九	-12.0914
▁全家	-12.0914
▁海里	-12.0915
▁多种多样	-12.0916
▁判决书	-12.0918
▁第一类	-12.0919
堡	-12.092
▁看电视	-12.0923
▁第二轮	-12.0923
▁迷人	-12.0924
▁上下	-12.0924
▁厉害	-12.0926
▁国际海事组织	-12.0926
▁宣誓	-12.0929
▁滥杀	-12.0929
▁鬼	-12.0931
缴	-12.0931
▁开端	-12.0933
▁海报	-12.0934
▁吉姆	-12.0935
▁植被	-12.0936
▁330	-12.0936
▁旱灾	-12.0939
▁第二十一条	-12.0939
▁谷物	-12.0939
▁分数	-12.0942
▁手法	-12.0945
▁人民代表大会	-12.0946
▁私营企业	-12.0946
▁灯光	-12.0947
▁备案	-12.0948
▁酗酒	-12.0953
▁ES	-12.0955
▁前瞻性	-12.0957
影	-12.0958
▁养殖	-12.0959
景	-12.0961
▁翻译成	-12.0961
▁群组	-12.0967
▁长者	-12.0969
▁自力更生	-12.0973
▁倾倒	-12.0973
▁第一轮	-12.0974
▁离去	-12.0974
▁1958	-12.0975
▁德拉	-12.0977
▁机动	-12.0978
屋	-12.0979
▁开玩笑	-12.098
峰	-12.0983
▁秋天	-12.0987
▁待命	-12.099
黑	-12.0991
▁纺织	-12.0993
▁压倒	-12.0993
▁受众	-12.0996
▁新闻记者	-12.0997
▁净化	-12.0999
▁演示	-12.1
▁弯曲	-12.1
▁天文台	-12.1
薪	-12.1004
来文	-12.1006
▁中级	-12.1008
▁恐慌	-12.101
▁剧烈	-12.1014
▁打断	-12.1014
炉	-12.1016
▁拆	-12.1017
▁摩托车	-12.1017
▁磅	-12.102
ce	-12.1024
▁价值观念	-12.1024
▁债权	-12.1025
▁马尔	-12.1026
▁拦截	-12.1027
▁互补性	-12.1028
▁当日	-12.1029
▁危险性	-12.103
▁日益严重	-12.1031
▁红新月会	-12.1031
买	-12.1031
▁战斗机	-12.1036
十年代	-12.1037
▁印度政府	-12.104
中国	-12.1041
▁解体	-12.1042
▁主导作用	-12.1044
饭	-12.1045
▁开口	-12.1047
▁国有企业	-12.1048
▁停火协定	-12.1048
▁嘿	-12.1048
▁样	-12.1049
▁列名	-12.105
发明	-12.1051
▁吸毒者	-12.1054
▁鼻	-12.1056
▁腐蚀	-12.1056
▁6.5	-12.1058
▁多大	-12.1059
▁5.5	-12.1059
▁测	-12.1061
▁抽烟	-12.1061
▁第二十四条	-12.1061
▁小企业	-12.1063
▁顽固	-12.1068
▁抬头	-12.1068
▁239	-12.1069
▁八月	-12.107
▁蒙特塞	-12.1072
▁参考资料	-12.1072
资源	-12.1072
▁一律	-12.1075
▁典范	-12.1075
▁直线	-12.1076
▁650	-12.1077
▁理智	-12.1078
▁文凭	-12.1082
▁1.8	-12.1083
▁特里	-12.1083
▁饲养	-12.1085
▁人能	-12.1086
▁社群	-12.1089
▁小女孩	-12.109
▁矿产	-12.1092
▁屋里	-12.1093
▁中毒	-12.1093
▁恢复正常	-12.1093
▁296	-12.1094
▁可行性研究	-12.1096
▁大大增加	-12.1099
▁叔叔	-12.1102
▁可观	-12.1102
▁扣留	-12.1102
▁全会	-12.1104
▁国际贸易中心	-12.1106
▁数十年	-12.1106
▁默	-12.1108
鸡	-12.111
▁5.4	-12.1111
▁占领区	-12.1112
▁跟随	-12.1114
侧	-12.1115
▁个案研究	-12.1116
▁没事	-12.1117
▁对立	-12.1119
▁凯恩	-12.1119
▁重新分配	-12.112
▁非法活动	-12.1124
▁昂	-12.1127
▁报刊	-12.113
▁新德里	-12.1131
▁指向	-12.1132
▁会议记录	-12.1135
▁食	-12.1135
▁笑话	-12.1137
▁杯	-12.114
▁国际刑警组织	-12.1143
▁3.6	-12.1144
▁申请表	-12.1145
▁249	-12.1145
▁祷告	-12.1147
闻	-12.1149
▁痕迹	-12.1154
▁微小	-12.1155
1999	-12.1156
▁节奏	-12.1157
置	-12.1161
▁体会	-12.1163
▁祖先	-12.1164
▁行驶	-12.1164
▁芯片	-12.1165
▁东北部	-12.1165
▁未必	-12.1165
▁"27	-12.1166
▁二十世纪	-12.1168
▁受让人	-12.1169
▁潮流	-12.1169
守	-12.1171
▁兴起	-12.1171
▁赶上	-12.1172
重视	-12.1173
▁对联	-12.1173
▁惹	-12.1174
▁巨	-12.1174
▁引述	-12.1175
▁杜绝	-12.1178
▁监核	-12.1178
▁话语	-12.118
▁临时性	-12.1181
▁武装集团	-12.1182
▁按计划	-12.1182
▁豁免权	-12.1184
ana	-12.1184
▁态势	-12.1185
▁纽约市	-12.1185
▁政治犯	-12.1187
▁平时	-12.119
熟	-12.1191
▁舍	-12.1191
▁民事诉讼	-12.1192
▁1964	-12.1194
▁保持联系	-12.1195
▁劳力	-12.1195
▁马舍	-12.1196
▁力争	-12.1199
▁存活	-12.1205
▁春季	-12.1209
▁轮调	-12.1209
▁均等	-12.121
创	-12.121
POPS	-12.1214
▁聊天	-12.1216
坡	-12.1217
▁斯特	-12.1217
▁Re	-12.1218
▁赞美	-12.1219
▁未缴	-12.1222
▁斜	-12.1226
▁告诫	-12.1226
▁学历	-12.1227
▁做成	-12.1227
▁财产损失	-12.123
▁传说	-12.1232
▁生涯	-12.1233
▁病假	-12.1233
▁天生	-12.1237
▁示例	-12.1237
▁代表作	-12.1238
▁胸	-12.1238
▁安第斯	-12.1239
▁耕地	-12.1243
▁通风	-12.1244
菌	-12.1245
良	-12.1246
▁切合实际	-12.1247
▁杂项收入	-12.1247
▁视委	-12.1248
▁解放运动	-12.1251
▁丹尼尔	-12.1252
▁不带	-12.1253
▁日为	-12.1253
▁递送	-12.1254
▁娶	-12.1255
▁主导地位	-12.1261
▁范	-12.1262
▁法学家	-12.1263
▁萨拉	-12.1263
乡	-12.1264
▁生殖器官	-12.1265
▁视野	-12.1265
▁先知	-12.1266
▁熊	-12.1266
▁一带	-12.1269
▁一双	-12.1269
un	-12.127
▁议事	-12.1272
▁旱地	-12.1272
▁深层	-12.1272
▁真主党	-12.1273
13	-12.1274
▁可预测性	-12.1275
▁南共体	-12.1275
▁PDF	-12.1279
▁频道	-12.1282
▁市中心	-12.1282
▁展	-12.1282
▁惟一	-12.1283
▁私有	-12.1283
▁教派	-12.1286
▁操作系统	-12.1288
▁第二十三条	-12.1289
▁Bank	-12.1292
▁新闻自由	-12.1293
酶	-12.1294
▁周转基金	-12.1296
▁景象	-12.1296
▁公安机关	-12.1303
▁今	-12.1304
▁第十四	-12.1305
▁310	-12.1306
▁做事	-12.1306
▁直接参与	-12.1307
▁285	-12.1307
▁使本	-12.1307
▁征募	-12.131
▁控制器	-12.1311
▁利息收入	-12.1313
▁好消息	-12.1315
▁付诸实施	-12.1317
▁印第安人	-12.1317
▁坚	-12.132
▁加勒比海	-12.132
▁挣扎	-12.132
▁私下	-12.1321
▁能效	-12.1322
▁合法权利	-12.1324
▁550	-12.1327
▁适度	-12.1328
▁229	-12.1332
▁市值	-12.1332
▁绑	-12.1334
▁放射	-12.1334
▁通盘	-12.1335
▁可比	-12.1336
ge	-12.1337
▁圣多美和普林西比	-12.1338
▁库尔德	-12.134
▁约瑟夫	-12.1342
▁爱德华	-12.1342
▁共存	-12.135
▁卧室	-12.1352
哥	-12.1355
▁不懈	-12.1358
▁同文信	-12.1359
▁岁月	-12.136
▁256	-12.1361
▁距	-12.1362
▁彩色	-12.1362
▁五项	-12.1363
▁耐	-12.1363
▁猛烈	-12.1369
▁水文	-12.137
▁青春	-12.1371
灵	-12.1371
▁号召	-12.1372
▁醒来	-12.1373
▁遵从	-12.1373
▁废	-12.1373
▁程	-12.1375
▁皇帝	-12.1375
▁楼梯	-12.1376
▁夺取	-12.1376
▁267	-12.1377
▁另行	-12.1378
▁委派	-12.138
▁嘉莉	-12.138
▁中起	-12.1385
▁盟友	-12.1387
▁嫁给	-12.1387
▁护	-12.1389
细	-12.1389
▁硫丹	-12.1398
▁首领	-12.1401
▁雄心勃勃	-12.1405
AL	-12.1405
▁年届会	-12.1406
委会	-12.1406
▁数字化	-12.1408
▁有意思	-12.1411
▁阿布贾	-12.1412
▁广州	-12.1412
▁艾哈迈德	-12.1415
▁名人	-12.1415
▁体制改革	-12.1415
▁西南	-12.1416
▁自营	-12.1418
▁空袭	-12.1419
▁推测	-12.1419
▁轻型	-12.1421
防	-12.1422
▁深入研究	-12.1423
▁称作	-12.1423
坦	-12.1423
精	-12.1423
ni	-12.1427
同样	-12.1429
▁老婆	-12.1433
▁主旨	-12.1433
▁两届	-12.1434
演	-12.1436
▁1701	-12.1436
▁胳膊	-12.1436
▁中东问题	-12.1437
▁敲	-12.1441
▁澳大利亚政府	-12.1442
▁严重后果	-12.1443
▁房价	-12.1446
▁雷区	-12.1446
▁陈旧	-12.1447
▁交通工具	-12.1447
▁盛行	-12.1447
▁礼品	-12.145
▁宗教团体	-12.1451
▁喊	-12.1453
▁潘	-12.1454
▁感冒	-12.1454
▁职业生涯	-12.1454
官	-12.1455
ine	-12.1458
▁看成	-12.1458
▁粉	-12.1459
▁敲定	-12.1461
▁288	-12.1463
半	-12.1466
▁硅	-12.1466
▁服务台	-12.1469
▁双边协定	-12.1473
▁履行任务	-12.1473
▁祸害	-12.1479
▁珍惜	-12.1479
▁医师	-12.1479
▁内为	-12.1482
▁花钱	-12.1484
响	-12.1488
▁型号	-12.1488
▁走路	-12.1488
▁蓝线	-12.149
▁组织者	-12.1493
▁欧空局	-12.1493
▁气温	-12.1494
工程	-12.1495
▁违规	-12.1495
▁地毯	-12.1496
▁请参阅	-12.1497
▁商业活动	-12.1498
▁肾	-12.1499
▁受惠	-12.1501
▁262	-12.1506
▁尴尬	-12.1507
19	-12.1511
▁协力	-12.1511
▁分销	-12.1512
▁国与	-12.1514
▁逼	-12.1516
净	-12.1516
▁衣	-12.1517
▁抹	-12.1517
▁263	-12.1518
▁检查员	-12.152
▁当事国	-12.152
归	-12.1521
▁领养	-12.1522
▁诉求	-12.1522
▁和平共处	-12.1525
▁宝贝	-12.1526
▁电视机	-12.1529
▁换取	-12.153
汇	-12.153
▁狂热	-12.1531
▁结尾	-12.1533
▁不遗余力	-12.1536
▁知名人士	-12.1536
▁沦	-12.1536
▁"26	-12.1537
▁捐	-12.1537
▁民选	-12.1537
▁万亿美元	-12.1538
▁辞	-12.1538
▁沿线	-12.1542
▁没法	-12.1544
▁世人	-12.1545
弱	-12.1545
▁实证	-12.1547
▁Mohamed	-12.155
▁想着	-12.1552
▁财政政策	-12.1552
ne	-12.1552
▁变性	-12.1554
▁功效	-12.1554
▁求解	-12.1554
十一次	-12.1555
▁316	-12.1555
▁警员	-12.1558
▁责任感	-12.1558
▁缘故	-12.1561
▁创造力	-12.1562
▁萨尔	-12.1563
▁带动	-12.1568
载列	-12.1569
▁电机	-12.1571
▁发誓	-12.1572
▁约翰逊	-12.1572
▁稍微	-12.1576
▁管理司	-12.1576
▁电梯	-12.1579
▁控件	-12.1579
▁破产法	-12.158
理应	-12.1582
▁打印机	-12.1583
▁查出	-12.1585
▁一时	-12.1585
▁工作效率	-12.1585
▁宴会	-12.1586
▁翅膀	-12.1586
▁非洲开发银行	-12.1586
▁韩	-12.1586
▁佐证	-12.1586
▁辍学率	-12.1586
▁永不	-12.1587
▁豪华	-12.159
▁有名	-12.159
▁使团	-12.1591
▁292	-12.1593
▁Mo	-12.1593
▁光纤	-12.1593
诉	-12.1595
颗	-12.1595
▁篇幅	-12.1597
娅	-12.1598
证明	-12.16
编	-12.1601
幕	-12.1602
▁归于	-12.1604
▁双重标准	-12.1604
▁蓝图	-12.1605
▁	-12.1605
▁十六	-12.1606
▁任务区	-12.1606
▁第三十八届	-12.1611
工作	-12.1614
▁几何	-12.1614
▁盒子	-12.1615
帽	-12.1617
▁一百	-12.162
▁发病	-12.162
▁数次	-12.1621
▁第二十六届	-12.1621
▁优雅	-12.1622
▁失误	-12.1622
▁超支	-12.1623
▁致死	-12.1623
▁火星	-12.1625
▁失业者	-12.1626
▁现正	-12.1628
▁1.7	-12.1628
▁隐瞒	-12.1629
▁登录	-12.1629
▁我家	-12.1635
▁第四十三届	-12.1637
▁静态	-12.1637
▁登上	-12.1639
相关	-12.164
▁有史	-12.1641
▁进口国	-12.1642
▁开除	-12.1645
▁六氯	-12.1645
▁断裂	-12.1647
▁帐篷	-12.1647
▁272	-12.165
▁传统习俗	-12.1651
▁鸟类	-12.1652
▁广泛应用	-12.1652
▁率先	-12.1652
▁2.9	-12.1654
▁公立学校	-12.1655
▁触犯	-12.1655
▁矿产资源	-12.1658
胶	-12.166
▁人性	-12.1662
总	-12.1664
青	-12.1664
▁环境法	-12.1665
▁后备	-12.1666
一些	-12.1667
▁布局	-12.1668
▁导游	-12.1669
▁工作进展	-12.1674
▁演说	-12.1675
▁6.3	-12.1676
▁时有	-12.1677
▁结局	-12.1677
▁威慑	-12.168
▁天线	-12.168
▁论及	-12.1681
▁配方	-12.1682
▁布置	-12.1684
您	-12.1684
▁每名	-12.1686
席	-12.1687
▁阿布	-12.1687
▁填	-12.1689
▁下周	-12.169
▁爱好	-12.169
ch	-12.1691
以后	-12.1694
▁脖子	-12.1694
▁此刻	-12.1695
会议	-12.1696
▁威尔士	-12.1698
▁陶瓷	-12.17
▁四川	-12.1702
藏	-12.1705
▁试试	-12.1706
冷	-12.1707
ut	-12.1707
▁文盲率	-12.171
▁美妙	-12.1713
▁380	-12.1713
Z	-12.1715
劳	-12.1715
▁务	-12.1715
▁助手	-12.1717
▁信奉	-12.1717
▁近几	-12.1718
▁冰箱	-12.1724
▁编程	-12.1724
▁核扩散	-12.1727
▁零零	-12.1728
▁母乳喂养	-12.1731
▁非常感谢	-12.1731
▁积极性	-12.1733
▁深圳	-12.1734
▁反倾销	-12.1734
散	-12.1735
▁手上	-12.1738
▁快速反应	-12.1738
▁无偿	-12.1739
▁循	-12.1742
▁旗帜	-12.1743
▁亮	-12.1743
▁德尔	-12.1745
▁子公司	-12.1746
▁冲突地区	-12.1746
▁有过	-12.175
▁技	-12.1752
▁厌恶	-12.1753
▁第三十九届	-12.1753
▁草原	-12.1755
▁预言	-12.1756
妮	-12.1759
▁其间	-12.1759
邻	-12.1759
▁第二十七届	-12.1764
▁打造	-12.1764
▁周四	-12.1768
▁系统对	-12.1769
▁单证	-12.1769
▁独裁	-12.177
▁pdf	-12.1775
▁一小部分	-12.1775
▁工商企业	-12.1775
▁念	-12.1777
▁英寸	-12.1777
▁人有	-12.1778
▁基督徒	-12.1778
▁避开	-12.1779
▁比如说	-12.1779
▁擅长	-12.1782
▁佣金	-12.1786
▁上游	-12.1786
▁归功	-12.179
▁居然	-12.1791
▁肺结核	-12.1793
▁行人	-12.1793
▁Sa	-12.1795
▁多样	-12.1796
▁琼斯	-12.1799
▁邮	-12.18
▁大都	-12.1803
▁惠	-12.1803
▁行为准则	-12.1805
区域	-12.1807
▁未知	-12.1808
其中	-12.1808
▁宜	-12.1809
▁角落	-12.1811
盒	-12.1811
▁遇	-12.1812
美国	-12.1813
▁利马	-12.1813
▁被盗	-12.1814
▁第二十七条	-12.1815
▁边境地区	-12.1816
▁核心作用	-12.1816
▁布隆迪政府	-12.1817
▁VI	-12.1817
▁女朋友	-12.1819
▁增长速度	-12.182
▁肩膀	-12.1822
▁密切协作	-12.1822
▁可信度	-12.1824
▁确	-12.1825
▁来往	-12.1825
▁吊	-12.1826
径	-12.1828
▁来文方	-12.183
▁合金	-12.183
限	-12.1831
▁贫困线	-12.1831
▁流亡	-12.1834
▁趋向	-12.1834
▁第二号	-12.1834
▁解析	-12.184
▁哭泣	-12.1841
鞋	-12.1841
▁第二十五届	-12.1845
▁氧	-12.1845
ur	-12.1847
▁欧洲央行	-12.1848
▁患病	-12.1849
▁看守	-12.185
▁无聊	-12.185
q	-12.1851
▁前线	-12.1852
▁1514	-12.1854
▁算是	-12.1856
we	-12.1856
▁268	-12.1856
▁综合症	-12.1856
▁个省	-12.1859
▁邮寄	-12.1859
短	-12.1861
▁环己烷	-12.1863
百	-12.1866
▁羞辱	-12.1867
▁步枪	-12.1867
▁7.5	-12.1872
▁摸	-12.1872
▁6.4	-12.1873
▁内所	-12.1874
▁预付款	-12.1874
▁美国国会	-12.1875
▁男女之间	-12.1883
▁买家	-12.1886
▁二月	-12.1888
▁注释	-12.1889
▁油漆	-12.1889
▁星星	-12.1889
▁撞击	-12.1889
▁高管	-12.1891
▁自助	-12.1891
▁飞行员	-12.1891
▁367	-12.1893
▁寻常	-12.1893
▁带上	-12.1896
条件	-12.1896
▁科学界	-12.19
▁界线	-12.1902
▁AP	-12.1903
▁贝克	-12.1903
▁妈	-12.1906
ti	-12.1907
▁全球战略	-12.1908
▁事关	-12.191
▁葡萄	-12.1912
▁三人	-12.1914
▁载体	-12.1914
▁生态环境	-12.1915
▁规章制度	-12.1915
运动	-12.1916
▁战后	-12.1916
▁一路	-12.1918
▁球迷	-12.1919
▁疏忽	-12.1922
▁剧院	-12.1924
▁字符	-12.1925
▁圣保罗	-12.1926
▁损害赔偿	-12.1926
▁各部委	-12.1926
▁逃脱	-12.193
码	-12.193
▁获利	-12.1932
射	-12.1932
凭	-12.1933
▁外观	-12.1933
▁装配	-12.1933
▁不许	-12.1936
▁行程	-12.1938
▁农作物	-12.1941
▁援用	-12.1941
▁我爱你	-12.1942
听	-12.1942
▁航空器	-12.1943
过去	-12.1944
▁开曼群岛	-12.1945
▁一小	-12.1945
▁恪守	-12.1948
▁放入	-12.1949
▁政变	-12.1952
▁元件	-12.1954
▁第四十二届	-12.1956
▁单据	-12.1957
稿	-12.1959
▁濒危	-12.1959
▁延至	-12.196
▁暂	-12.196
▁落入	-12.1961
▁树脂	-12.1962
to	-12.1963
各	-12.1966
▁警惕	-12.1967
▁清偿	-12.1971
▁gov	-12.1971
▁周日	-12.1971
▁触及	-12.1971
▁晚会	-12.1972
施	-12.1972
▁汉堡	-12.1974
▁尤为重要	-12.1974
▁一点点	-12.1975
▁产品质量	-12.1979
▁油气	-12.1979
▁极力	-12.1981
▁连任	-12.1981
▁int	-12.1981
▁乐于	-12.1982
管理	-12.1985
▁严密	-12.1986
▁短时间	-12.1986
▁举止	-12.1992
▁想像	-12.1992
▁批判	-12.1993
▁具体步骤	-12.1994
▁神奇	-12.1994
▁出发点	-12.1995
余	-12.1995
▁硕士	-12.1996
三项	-12.1999
▁助益	-12.2001
配	-12.2001
▁终生	-12.2001
▁煤矿	-12.2002
▁格陵兰	-12.2004
▁磷	-12.2005
▁推理	-12.2011
▁萨拉热窝	-12.2012
▁逍遥法外	-12.2012
▁较少	-12.2012
▁耕作	-12.2012
时间	-12.2013
▁私立	-12.2016
欠	-12.2016
▁厚度	-12.2016
▁澳	-12.2017
▁三倍	-12.2018
▁微不足道	-12.2019
▁航天器	-12.202
▁积	-12.2021
▁Na	-12.2023
▁帐	-12.2024
▁投票权	-12.2027
▁偿债	-12.2027
善	-12.2029
▁触	-12.2029
▁毗邻	-12.2031
▁价钱	-12.2031
▁北美洲	-12.2031
▁同工同酬	-12.2034
▁更能	-12.2035
▁人来	-12.204
▁Vol	-12.2041
▁筹款	-12.2042
▁边际	-12.2042
龄	-12.2044
▁内有	-12.2044
▁国务卿	-12.2046
▁嘲笑	-12.2046
▁公元	-12.2046
▁调控	-12.2046
英	-12.2047
▁摇	-12.2048
▁托马斯	-12.2053
▁不去	-12.2054
▁感动	-12.2054
慢	-12.2054
▁转到	-12.2057
▁农户	-12.2057
▁下调	-12.2058
▁家禽	-12.2061
▁更为重要	-12.2061
▁方括号	-12.2064
▁长老	-12.2065
▁分析方法	-12.2067
pa	-12.207
录	-12.2071
▁中小学	-12.2071
粒	-12.2071
▁一夜	-12.2072
▁波罗的海	-12.2072
▁可比性	-12.2072
▁团结一致	-12.2072
▁地缘	-12.2073
产品	-12.2073
▁宁静	-12.2076
▁饲料	-12.2078
▁沉积物	-12.2084
桑	-12.2087
▁永	-12.2087
▁困惑	-12.2087
▁金枪鱼	-12.2091
▁命	-12.2091
▁人向	-12.2094
▁财物	-12.2095
▁结清	-12.2095
▁升温	-12.2095
▁阿塞拜疆共和国	-12.2095
▁现实意义	-12.2095
▁布拉	-12.2096
▁贵族	-12.2096
▁表示祝贺	-12.2096
▁内存	-12.2097
▁主义者	-12.2097
假	-12.21
▁Sch	-12.2101
教育	-12.2101
▁任何理由	-12.2103
▁协调会议	-12.2104
▁着力	-12.2107
16	-12.2109
友	-12.2111
▁加班	-12.2112
▁点燃	-12.2112
▁人口比例	-12.2114
枝	-12.2114
▁各段	-12.2116
▁舞弊	-12.2117
▁诚挚	-12.2117
▁猛	-12.2118
▁亚非	-12.2119
▁参谋	-12.212
▁287	-12.2124
▁很强	-12.2127
▁第二年	-12.2128
▁嘉宾	-12.2129
▁收支	-12.2129
▁获取信息	-12.213
▁不易	-12.213
▁正直	-12.2133
▁1.9	-12.2137
▁得分	-12.2138
ig	-12.2138
▁不成	-12.2139
▁发酵	-12.214
▁这话	-12.2141
锁	-12.2142
▁秋季	-12.2144
▁战机	-12.2145
▁路易斯	-12.2148
▁整套	-12.2148
征	-12.2148
▁周六	-12.2149
阳	-12.215
▁非凡	-12.2151
▁船旗国	-12.2152
▁用地	-12.2152
▁阴	-12.2155
▁阿尔及尔	-12.2155
▁教养	-12.2155
▁密克罗尼西亚联邦	-12.2155
▁覆盖范围	-12.2155
▁残	-12.2156
念	-12.2158
▁动物园	-12.216
▁悠	-12.216
st	-12.216
▁治愈	-12.2163
▁惊	-12.2163
▁286	-12.2164
▁嫌疑犯	-12.2167
▁欧安	-12.2167
▁去过	-12.2168
▁并购	-12.2168
▁静	-12.2169
警察	-12.2169
▁哈里	-12.2174
▁推移	-12.2174
▁往年	-12.2176
▁1965	-12.2178
▁制药	-12.2179
▁FAO	-12.2179
▁物理学	-12.2179
▁动脉	-12.2179
▁Ra	-12.218
▁突发	-12.2181
▁有期徒刑	-12.2182
▁往返	-12.2186
▁导演	-12.2186
所载	-12.2186
鉴于	-12.2189
▁被忽视	-12.219
▁零售商	-12.219
康	-12.219
▁第一百	-12.2195
▁纽约联合国总部	-12.2197
▁滥伤	-12.2197
▁罚金	-12.2197
▁理	-12.2203
▁汗	-12.2205
▁340	-12.2205
▁国际化	-12.2206
▁福特	-12.2206
▁肉体	-12.221
▁305	-12.2211
▁硬币	-12.2213
▁1945	-12.2215
▁同日	-12.2219
▁乳腺癌	-12.2224
▁集结	-12.2224
露	-12.2228
▁2030	-12.2228
▁有所提高	-12.2232
▁完工	-12.2232
▁兼容	-12.2232
▁一顿	-12.2234
建议	-12.2237
▁满意度	-12.2237
▁长官	-12.2238
▁疫情	-12.2239
▁武	-12.2242
▁逮捕令	-12.2242
规定	-12.2242
▁颠覆	-12.2243
▁族人	-12.2244
▁适时	-12.2248
▁没能	-12.2251
▁器具	-12.2253
▁较长	-12.2253
▁桌上	-12.2255
▁幼	-12.2256
▁Inc	-12.226
▁过期	-12.226
▁宝宝	-12.2261
▁收据	-12.2263
黄	-12.2266
▁经管	-12.2267
▁国际事务	-12.2267
▁核燃料	-12.227
▁艾伦	-12.227
▁合规	-12.2272
▁听证	-12.2272
▁公用事业	-12.2274
▁篇文章	-12.2274
▁交互	-12.2276
ong	-12.2276
▁年龄段	-12.2276
▁宽恕	-12.2278
▁逃犯	-12.2278
▁初审	-12.2278
▁全面实施	-12.2282
▁小于	-12.2283
ap	-12.2284
▁独一无二	-12.2285
▁祭司	-12.2286
ani	-12.2287
▁全面解决	-12.2289
罐	-12.2289
▁粘	-12.2292
▁引爆	-12.2293
ow	-12.2295
▁山上	-12.2295
这样	-12.2296
ry	-12.2296
▁四分之三	-12.2297
▁平均水平	-12.2298
背	-12.2299
▁东南	-12.23
▁经济合作组织	-12.2301
▁自称	-12.2301
em	-12.2303
▁一点儿	-12.2303
▁高血压	-12.2304
▁剪	-12.2305
▁"28	-12.231
二份	-12.231
▁不曾	-12.2311
▁讯问	-12.2312
Y	-12.2319
▁水分	-12.2319
▁用法	-12.2322
▁快速增长	-12.2324
▁蒸汽	-12.2327
▁传来	-12.2328
▁自由选择	-12.2329
以千计	-12.2331
▁评判	-12.2332
▁辩解	-12.2332
ic	-12.2332
▁骚乱	-12.2336
▁互惠	-12.2336
▁激活	-12.2336
▁城堡	-12.2336
▁敌意	-12.2336
事实上	-12.2338
▁乌兹别克斯坦共和国	-12.234
▁收音机	-12.2343
▁魔法	-12.2344
▁客	-12.2344
▁价	-12.2348
▁COM	-12.2353
▁加权	-12.2355
▁3.7	-12.2356
▁编拟	-12.2359
17	-12.2361
▁浓	-12.2365
▁急救	-12.2366
▁健身	-12.2367
0000	-12.2367
银	-12.2367
▁个州	-12.237
▁佛教	-12.2371
▁代谢	-12.2372
▁衍生	-12.2374
▁斟酌	-12.2374
▁前提条件	-12.2375
▁朱巴	-12.2375
▁预约	-12.2375
夏	-12.2375
▁不善	-12.2376
▁假装	-12.2379
今天	-12.238
▁协	-12.238
▁疲软	-12.2383
▁多国部队	-12.2386
有人	-12.2387
▁适应性	-12.2389
▁非营利	-12.239
▁载明	-12.239
长期	-12.2393
▁网播	-12.2394
ay	-12.2395
考虑	-12.2397
▁起床	-12.2397
▁控	-12.2397
▁电网	-12.2399
▁小镇	-12.2401
▁外交关系	-12.2402
并	-12.2403
▁小鼠	-12.2405
▁断言	-12.2406
▁钉	-12.2408
学科	-12.2409
▁账款	-12.241
▁运气	-12.241
▁超市	-12.2411
▁返还	-12.2413
▁架飞机	-12.2414
▁一共	-12.2415
▁你方	-12.2417
▁预付	-12.2417
▁1962	-12.2418
▁信赖	-12.2418
▁剑	-12.2424
▁工具包	-12.2424
ha	-12.2425
▁场址	-12.2425
▁塞尔维亚共和国	-12.2425
胜	-12.2428
▁误导	-12.2429
▁眼镜	-12.2432
▁主教	-12.2433
▁日于	-12.2433
▁小孩子	-12.2436
▁歌手	-12.244
▁液压	-12.2441
▁非歧视	-12.2441
▁前夕	-12.2442
▁反对票	-12.2443
▁不负责任	-12.2445
▁六方会谈	-12.2445
泵	-12.2445
▁艺术品	-12.2446
▁地被	-12.2447
▁款下	-12.2447
▁电磁	-12.2448
▁饮酒	-12.2449
▁澳洲	-12.2453
▁珊瑚	-12.2454
▁推动力	-12.2456
▁预示	-12.2457
▁打扰	-12.2457
▁留住	-12.2459
▁纵	-12.2459
▁惩教	-12.246
患	-12.246
▁今天下午	-12.2461
▁责任人	-12.2461
▁这本	-12.2464
▁〉	-12.2464
春	-12.2465
▁之处	-12.2465
▁把手	-12.2469
▁鲜明	-12.2471
▁留意	-12.2472
▁矫正	-12.2472
▁四种	-12.2476
▁迷	-12.2477
▁教徒	-12.2479
▁万个	-12.2479
▁方法学	-12.2483
ton	-12.2484
▁出自	-12.2487
染	-12.2488
▁趋于	-12.2489
ol	-12.249
▁时要	-12.2491
予以	-12.2492
扣	-12.2495
▁劳务	-12.2496
▁人人平等	-12.2496
▁镜子	-12.25
▁有利条件	-12.25
▁未清	-12.2501
▁理查德	-12.2504
▁玩家	-12.2507
▁泄露	-12.2507
▁饱受	-12.2508
▁心理学家	-12.2509
的是	-12.2509
看来	-12.251
共和国	-12.251
▁友好关系	-12.2512
▁训练有素	-12.2515
▁座谈会	-12.2515
▁显现	-12.2516
当然	-12.2516
▁长得	-12.2518
▁结婚年龄	-12.2519
▁香烟	-12.2519
▁两岸	-12.252
▁予	-12.253
▁名声	-12.253
▁镜头	-12.2531
▁可不是	-12.2532
▁徒	-12.2532
▁加密	-12.2536
▁亲人	-12.2538
▁渐进	-12.2539
▁"29	-12.2539
▁轮换	-12.2539
▁煮	-12.2539
▁迁	-12.2541
▁紫	-12.2542
▁各有	-12.2543
▁蔑视	-12.2543
▁运营商	-12.2544
▁氮	-12.2547
▁食品安全	-12.2548
▁生动	-12.2548
▁存档	-12.2551
▁各界	-12.2552
▁焊	-12.2552
X	-12.2554
▁在政治上	-12.2555
▁减低	-12.2555
▁沉	-12.2556
▁料	-12.2558
▁勉强	-12.2559
▁集会自由	-12.2559
▁摩	-12.2559
▁考生	-12.256
▁催化	-12.2561
▁接入	-12.2561
▁呼声	-12.2567
▁评述	-12.2567
▁大师	-12.2567
▁304	-12.2568
▁ISO	-12.2569
研究	-12.2569
▁杠杆	-12.2571
▁校	-12.2572
太多	-12.2574
▁核动力	-12.2575
▁灾区	-12.2575
▁丑闻	-12.2576
▁耻辱	-12.2578
▁壁垒	-12.2579
▁分化	-12.2581
效	-12.2582
▁犯罪分子	-12.2584
▁洋	-12.259
关系	-12.2591
▁甜	-12.2592
时代	-12.2593
▁欠缺	-12.2595
▁一口	-12.2595
▁居所	-12.2599
▁成份	-12.2601
▁责备	-12.2603
▁阶级	-12.2603
▁特克斯	-12.2603
io	-12.2606
▁耗费	-12.2607
▁总统令	-12.2607
▁停顿	-12.2607
▁谷	-12.261
▁425	-12.261
▁悄悄	-12.261
▁盖茨	-12.2611
▁借用	-12.2613
▁检方	-12.2615
▁反弹	-12.2616
▁特种	-12.2617
▁耦合	-12.2618
▁激起	-12.2623
▁外交使团	-12.2626
▁帐目	-12.2626
宫	-12.2628
▁响	-12.263
▁嗣后	-12.263
▁氯化石蜡	-12.263
▁过早	-12.2631
▁大有	-12.2632
▁二是	-12.2635
▁炉	-12.2636
▁出卖	-12.2637
谷	-12.2642
▁魔鬼	-12.2642
▁1946	-12.2644
▁备份	-12.2644
▁米兰	-12.2647
▁新疆	-12.2647
▁穷	-12.2648
ard	-12.265
▁凸显	-12.265
▁坐标	-12.2651
▁令人信服	-12.2654
▁篮球	-12.2655
▁大事	-12.2656
▁总表	-12.2659
▁新一代	-12.2659
▁难得	-12.2661
▁罐	-12.2663
▁受权	-12.2664
辛	-12.2665
▁向下	-12.2666
▁五分之一	-12.2666
▁严重破坏	-12.2666
▁处处长	-12.2666
▁祂	-12.2667
▁法郎	-12.2669
▁社会群体	-12.267
▁护送	-12.267
▁带薪	-12.2671
▁共产党	-12.2672
▁动摇	-12.2674
▁邮局	-12.2679
▁伸	-12.2681
▁瓶颈	-12.2682
▁跟上	-12.2684
▁赫勒拿	-12.2686
▁锌	-12.2687
▁医疗机构	-12.2691
▁商事	-12.2691
要求	-12.2692
按照	-12.2693
▁问候	-12.2695
▁口号	-12.2699
▁外包	-12.2702
▁残留	-12.2702
▁珠宝	-12.2702
▁妓女	-12.2702
▁瞄准	-12.2702
▁活产	-12.2707
▁身材	-12.271
▁匿名	-12.271
▁山谷	-12.2711
▁缴费	-12.2711
▁第八章	-12.2711
▁存入	-12.2711
▁便会	-12.2712
力量	-12.2714
▁蜡烛	-12.2714
▁广泛支持	-12.2715
▁写信给	-12.2715
▁无情	-12.2716
▁其为	-12.2717
ko	-12.2717
▁出门	-12.2718
桩	-12.2719
▁试用	-12.272
▁藐视	-12.2723
▁第三十七届	-12.2723
▁加拿大政府	-12.2724
▁就象	-12.2726
▁以人为本	-12.2727
▁国际电联	-12.2727
▁不大可能	-12.2727
▁参阅	-12.2727
面积	-12.273
▁水下	-12.2731
卢	-12.2731
▁一会	-12.2732
▁法域	-12.2736
▁杂	-12.2736
▁年限	-12.2737
▁这片	-12.2743
▁垂	-12.2743
▁周五	-12.2746
▁恰恰	-12.2747
▁双边合作	-12.2747
▁专题组	-12.2747
▁特等	-12.2748
斯坦	-12.275
▁365	-12.2751
浆	-12.2753
▁诱导	-12.2755
▁宽泛	-12.2755
▁澳门特别行政区	-12.2755
▁审问	-12.2756
▁卡特	-12.2756
▁爱人	-12.2757
缘	-12.2758
▁一至	-12.2759
▁转动	-12.2762
▁砍伐	-12.2763
▁听从	-12.2763
▁救护车	-12.2763
▁白俄罗斯共和国	-12.2763
▁血清	-12.2767
eh	-12.2769
▁无形	-12.277
▁弟兄	-12.2771
▁敦	-12.2771
▁电报	-12.2772
首先	-12.2775
嘴	-12.2777
▁减量	-12.278
▁转发	-12.2781
▁及时性	-12.2781
▁收益率	-12.2782
▁青年党	-12.2783
Q	-12.2785
▁码	-12.2786
容	-12.2789
▁共同市场	-12.2791
基茨	-12.2792
▁武装人员	-12.2793
连串	-12.2793
▁起诉书	-12.2796
▁做过	-12.2796
▁拼	-12.2801
第二	-12.2801
▁防备	-12.2803
赖于	-12.2805
欧	-12.2807
▁第三阶段	-12.2807
刻	-12.2808
译	-12.2809
▁妥当	-12.2812
▁一个多	-12.2813
▁不高	-12.2813
▁经纪	-12.2816
▁地步	-12.2817
▁寻	-12.2819
▁绳子	-12.282
▁午饭	-12.2824
▁哀悼	-12.2824
▁繁忙	-12.2824
▁绝大部分	-12.2824
▁裙子	-12.2824
▁妇人	-12.2828
▁库克群岛	-12.2832
▁鸟儿	-12.2832
▁高科技	-12.2833
▁从没	-12.2834
▁一行	-12.2835
▁坟墓	-12.2836
▁法院院长	-12.2836
▁尼维斯	-12.2836
▁科尔	-12.2838
▁朗	-12.2839
▁本期	-12.284
缝	-12.2841
ud	-12.2842
单位	-12.2843
辈	-12.2843
▁赌博	-12.2844
▁格外	-12.2845
▁优于	-12.2846
▁海盗行为	-12.2848
▁十八	-12.2848
▁全国人民代表大会	-12.285
▁光谱	-12.285
▁湖泊	-12.2852
▁废弃物	-12.2855
▁求职	-12.2855
何	-12.2855
▁不服	-12.2858
▁大豆	-12.2859
▁探	-12.2861
▁克罗地亚共和国	-12.2861
▁方框	-12.2861
▁近日	-12.2863
▁启示	-12.2864
▁广泛传播	-12.2865
▁医	-12.2868
▁基加利	-12.2868
▁〈	-12.2869
▁业务流程	-12.2869
▁下称	-12.287
▁一职	-12.2874
所有	-12.2874
▁尚有	-12.2875
▁无法控制	-12.2875
堆	-12.2875
▁冲动	-12.2878
▁尾	-12.2879
▁前期	-12.2879
▁著作权	-12.288
▁公共场所	-12.2881
▁装载	-12.2881
▁灵感	-12.2885
▁网格	-12.2887
▁厂商	-12.2889
磨	-12.2889
▁拉姆	-12.289
▁飘	-12.2892
短期	-12.2892
▁半岛	-12.2894
▁一刻	-12.2895
▁279	-12.2899
▁走访	-12.2902
▁泵	-12.2907
▁几率	-12.2908
▁7.2	-12.2909
〇	-12.2909
▁性侵犯	-12.2909
▁踩	-12.2909
▁信息安全	-12.291
▁消费品	-12.2911
正常	-12.2913
▁目标群体	-12.2913
▁坚固	-12.2914
▁调配	-12.2914
▁延	-12.2914
▁第十	-12.2914
▁十一月	-12.2915
厚	-12.2916
▁上年	-12.2916
▁关节	-12.2918
▁证明文件	-12.292
▁测验	-12.2921
▁歌唱	-12.2921
▁军营	-12.2922
▁补给	-12.2922
▁无比	-12.2922
▁两用	-12.2923
▁了不起	-12.2923
▁岂	-12.2926
▁演化	-12.293
▁电器	-12.2932
▁充满活力	-12.2934
▁工业部门	-12.2935
▁贫困者	-12.2935
▁怎	-12.2937
▁避难所	-12.2939
▁受灾国	-12.2939
▁成见	-12.2943
▁恩德培	-12.2946
▁筹划	-12.2946
▁年级	-12.2946
▁笑容	-12.2947
▁精密	-12.2947
没	-12.2948
七十三	-12.295
▁二人	-12.295
▁投标书	-12.2951
▁馀	-12.2953
▁粒	-12.2957
▁粗暴	-12.2959
▁社会活动	-12.2959
▁麻疹	-12.2961
▁身后	-12.2961
▁Ben	-12.2962
▁同居	-12.2964
▁某事	-12.2967
▁氯苯	-12.2967
▁神话	-12.2967
刑	-12.2968
▁远处	-12.2969
▁大笔	-12.2971
▁探矿	-12.2971
▁自由权	-12.2972
▁Web	-12.2972
▁学期	-12.2972
▁院子	-12.2972
ag	-12.2974
▁取出	-12.2975
▁胚胎	-12.2975
▁基薪	-12.2976
▁达尔	-12.2979
▁进驻	-12.298
no	-12.2983
▁不算	-12.2983
▁飙升	-12.2983
▁San	-12.2984
▁镍	-12.2987
ter	-12.2989
▁四大	-12.299
▁295	-12.2992
▁谈会	-12.2993
▁不远	-12.2998
▁普里什蒂纳	-12.3
▁身体健康	-12.3004
▁克里斯	-12.3006
39	-12.3008
ak	-12.3008
▁好奇	-12.3015
企业	-12.3016
▁数个	-12.3018
腔	-12.302
瘤	-12.302
se	-12.3021
乌	-12.3022
▁基本要素	-12.3025
▁时数	-12.3027
▁"31	-12.303
▁守	-12.3033
▁检察机关	-12.3033
▁扩建	-12.3033
▁周期性	-12.3035
▁第三十六届	-12.3035
▁分从	-12.3035
▁不大	-12.3037
投	-12.3037
▁各区	-12.3038
世界	-12.3042
▁直径	-12.3042
▁国立	-12.3042
ation	-12.3043
▁酋长	-12.3045
▁适用法律	-12.305
▁列于	-12.3051
▁快点	-12.3051
审查	-12.3053
玉	-12.3054
▁一如既往	-12.3054
▁会为	-12.3055
▁大片	-12.3056
▁三十	-12.3057
▁疏散	-12.3058
▁严格执行	-12.3059
报告	-12.306
▁同胞	-12.3062
▁渔民	-12.3062
▁红外	-12.3062
▁演	-12.3063
▁发作	-12.3063
▁投资银行	-12.3063
▁牛肉	-12.3064
▁公信力	-12.3066
▁遗址	-12.3066
▁转载	-12.3067
▁玛丽亚	-12.3067
▁厄尔	-12.3067
▁非洲之角	-12.3071
▁苏珊	-12.3071
▁交通事故	-12.3071
▁移民法	-12.3072
▁失踪者	-12.3074
▁柯	-12.3076
▁PBC	-12.308
▁恨	-12.3083
▁移居	-12.3083
▁281	-12.3083
▁发掘	-12.3085
▁辛	-12.3087
▁切除	-12.3088
▁更强	-12.3088
▁创始人	-12.3089
卖	-12.3089
▁水电	-12.309
▁协助执行	-12.3092
▁模具	-12.3092
▁定额	-12.3093
▁海洋资源	-12.3093
▁遗忘	-12.3096
▁商学院	-12.3096
▁分会	-12.3096
▁传单	-12.3096
▁误	-12.3101
▁解答	-12.3102
茶	-12.3102
▁图里	-12.3102
▁烹饪	-12.3104
▁万吨	-12.3105
亲	-12.3108
▁SGB	-12.3109
▁树上	-12.3109
▁阳性	-12.3113
▁浸	-12.3113
▁责任制	-12.3114
▁An	-12.3114
▁溶剂	-12.3114
▁更替	-12.3114
▁克里	-12.3117
▁Bar	-12.3117
▁化解	-12.3118
▁不在乎	-12.3121
▁突显	-12.3125
▁容	-12.3128
科学	-12.3128
▁圣地	-12.3133
▁经济损失	-12.3133
▁规避	-12.3138
▁迪拜	-12.3138
梁	-12.3138
▁圆满	-12.3138
▁相互合作	-12.3138
▁"30	-12.3138
ja	-12.3139
▁流体	-12.3139
▁转给	-12.3142
▁二战	-12.3143
▁崇拜	-12.3145
▁涂料	-12.3145
▁总支出	-12.3146
▁溶液	-12.315
▁好莱坞	-12.3154
▁迄今已	-12.3159
▁阿拉	-12.3161
▁残余	-12.3163
▁呼叫	-12.3163
▁末尾	-12.3163
▁袋	-12.3163
▁1954	-12.3163
▁850	-12.3165
▁Group	-12.3165
终	-12.3167
▁FPA	-12.3167
▁银河	-12.3167
▁饭	-12.3168
▁David	-12.3171
▁海峡	-12.3172
没有	-12.3175
▁半小时	-12.3175
▁万国宫	-12.3175
▁一整天	-12.3175
▁化验	-12.3176
▁凭证	-12.3178
▁小伙子	-12.318
▁达赖	-12.318
▁拨付	-12.318
▁肩负	-12.3188
▁溶	-12.319
▁潮湿	-12.3192
▁住处	-12.3194
▁耗氧	-12.3196
▁紧迫性	-12.3197
▁420	-12.32
唱	-12.32
▁在押	-12.3202
▁疑虑	-12.3205
▁照看	-12.3205
鬼	-12.3208
▁开庭	-12.321
▁棒球	-12.3211
▁卡片	-12.3212
▁狭隘	-12.3213
▁论据	-12.3214
▁合乎	-12.3214
剧	-12.3215
泉	-12.3218
▁许诺	-12.3218
▁怀着	-12.322
▁辉煌	-12.3222
▁圆桌	-12.3222
▁薄膜	-12.3222
▁倡导者	-12.3222
▁组装	-12.3226
怪	-12.3226
▁擅自	-12.3226
胎	-12.323
▁找个	-12.323
40	-12.3232
而且	-12.3232
▁近地	-12.3233
意义	-12.3233
▁开出	-12.3233
49	-12.3234
▁国债	-12.3235
▁官僚	-12.3243
▁伸张正义	-12.3243
▁残暴	-12.3243
▁坚持不懈	-12.3243
▁决赛	-12.3243
▁完备	-12.3243
▁It	-12.3243
▁离境	-12.3244
▁下一代	-12.3244
▁键盘	-12.3247
▁跑步	-12.3247
▁促销	-12.3248
▁联安	-12.3251
▁维尔京群岛	-12.3251
▁功率	-12.3254
▁骗	-12.3254
▁消毒	-12.3256
▁滞后	-12.3256
▁或者说	-12.3257
▁天文学	-12.3258
▁原型	-12.3259
一来	-12.3259
▁战俘	-12.326
▁聆听	-12.326
▁性犯罪	-12.3261
困	-12.3261
▁273	-12.3263
▁巨头	-12.3265
▁味	-12.3265
▁时向	-12.3266
▁起码	-12.3268
▁变异	-12.3269
▁可供	-12.327
▁保障制度	-12.3271
▁St	-12.3271
▁受控	-12.3277
▁不可思议	-12.3277
▁播出	-12.3278
▁核计划	-12.3282
▁高盛	-12.3283
▁合理性	-12.3284
993	-12.3285
▁特殊性	-12.3285
▁舞	-12.3285
▁圆满成功	-12.3285
▁欧亚	-12.3287
▁争	-12.3288
▁1244	-12.3288
ang	-12.3288
希望	-12.329
▁固定翼	-12.3291
▁笼统	-12.3294
▁友善	-12.3294
▁书面通知	-12.3294
▁磨损	-12.3294
▁个人身份	-12.3294
▁370	-12.3295
▁盘子	-12.3295
▁墙壁	-12.3298
▁纪念日	-12.33
▁扑	-12.3301
▁嫌犯	-12.3303
▁上方	-12.3303
▁社会工作	-12.3303
▁可惜	-12.3303
▁哺乳动物	-12.3307
▁法学	-12.3311
▁感知	-12.3311
▁库拉	-12.3313
▁派对	-12.3316
▁作文	-12.3317
▁分隔	-12.3319
▁居高不下	-12.332
▁交际	-12.332
▁自然环境	-12.332
▁和善	-12.3322
▁最大化	-12.3322
辞	-12.3325
▁列示	-12.3325
▁3.8	-12.3325
▁IS	-12.3327
▁稿	-12.3327
▁曲	-12.3327
▁钓鱼	-12.3328
▁一流	-12.3329
▁悲观	-12.3331
▁多米尼克	-12.3332
▁润滑油	-12.3333
所列	-12.3334
▁厘米	-12.3334
够	-12.3336
▁热烈欢迎	-12.3337
▁简便	-12.3337
▁抵	-12.3338
▁降解	-12.3338
许多	-12.3342
▁Michael	-12.3342
CA	-12.3342
▁安曼	-12.3342
▁资历	-12.3345
▁菌	-12.3347
键	-12.3347
▁激素	-12.3348
▁需求量	-12.3348
▁鲜	-12.335
▁盲人	-12.335
▁278	-12.3352
▁修订本	-12.3353
▁一视同仁	-12.3354
▁哈瓦那	-12.3354
▁姿势	-12.3355
▁巨人	-12.3356
▁口径	-12.336
▁分派	-12.3361
▁英国政府	-12.3366
▁4.6	-12.3367
▁富有成效	-12.3371
▁招待会	-12.3372
▁例证	-12.3373
▁282	-12.3373
▁亚洲开发银行	-12.3375
▁牧场	-12.3376
▁想象力	-12.3377
▁受审	-12.3378
▁园	-12.3379
▁称呼	-12.338
▁我用	-12.3381
改	-12.3383
▁强壮	-12.3384
▁简述	-12.3384
不上	-12.3384
▁还给	-12.3387
▁自给自足	-12.3388
▁配件	-12.3389
▁照会	-12.3392
▁277	-12.3392
▁盲目	-12.3393
▁裤子	-12.3393
▁尖	-12.3394
▁自觉	-12.3395
▁联络官	-12.3397
▁麦凯恩	-12.3401
▁账单	-12.3401
▁犹大	-12.3402
▁放进	-12.3404
▁化学物质	-12.3405
▁结盟	-12.3406
▁肉类	-12.3406
▁y	-12.3407
▁Paul	-12.3409
▁动画	-12.341
▁简洁	-12.341
▁3000	-12.341
▁纳粹	-12.3412
▁萎缩	-12.3412
▁主机	-12.3414
▁舞会	-12.3414
▁第三十四届	-12.3414
栋	-12.3417
▁定期存款	-12.3418
▁繁重	-12.3418
▁打败	-12.3419
▁湾	-12.3419
餐	-12.3419
▁叶子	-12.342
虎	-12.3422
▁期货	-12.3422
▁一侧	-12.3427
艘	-12.3428
▁日增	-12.3431
▁民主政体	-12.3431
▁树枝	-12.3434
▁双性恋	-12.3436
▁黑海	-12.3437
觉	-12.3442
▁收拾	-12.3444
蛋白	-12.3445
▁吸附	-12.3448
▁中产阶级	-12.3449
▁权衡	-12.3449
频	-12.3453
▁在经济上	-12.3453
▁裁员	-12.3453
14	-12.3453
▁止	-12.3454
▁阻力	-12.3455
▁王后	-12.3456
▁坎帕拉	-12.3457
瑟	-12.3458
▁间谍	-12.3462
▁通行证	-12.3462
▁矿山	-12.3462
否认	-12.3463
▁不宜	-12.3463
te	-12.3463
▁丙	-12.3466
▁柔软	-12.3466
▁签约	-12.3466
然后	-12.3467
▁棉	-12.3473
▁本能	-12.3474
▁退役	-12.3475
▁男士	-12.3475
▁按摩	-12.3477
▁侨民	-12.3479
▁多长时间	-12.3479
▁非裔	-12.3481
▁三份	-12.3485
再	-12.3488
▁身子	-12.3491
▁崭新	-12.3492
▁紧急措施	-12.3492
休	-12.3493
▁普斯	-12.3494
▁关键词	-12.3496
▁钢琴	-12.3497
陷	-12.3498
▁中以	-12.35
▁耽搁	-12.3501
▁卫生系统	-12.3504
▁274	-12.3505
▁赤道	-12.3505
ib	-12.3508
▁Bo	-12.3508
ai	-12.3508
▁适	-12.351
▁看护	-12.3511
▁蒙罗维亚	-12.3514
21	-12.3516
▁香蕉	-12.3518
▁私人资本	-12.3518
▁自发	-12.3518
▁抬	-12.3519
灭	-12.3522
▁悲痛	-12.3522
▁滚动	-12.3523
叫	-12.3523
▁为首	-12.3526
▁中国共产党	-12.3529
▁老虎	-12.3531
▁欣慰	-12.3531
函	-12.3532
▁照管	-12.3533
ke	-12.3534
▁校正	-12.3536
▁闻名	-12.3536
▁大米	-12.3536
▁隶属	-12.3537
▁奖项	-12.3537
▁五天	-12.3537
▁改叙	-12.3538
▁叛	-12.3538
▁鼓吹	-12.3539
冰	-12.354
便	-12.354
▁难以置信	-12.354
▁(1)	-12.354
▁海面	-12.3543
▁家政	-12.3544
▁还原	-12.3545
▁因数	-12.3547
▁感染率	-12.3548
酬	-12.355
梦	-12.3554
父	-12.3555
▁嘴唇	-12.3557
▁遗失	-12.3557
▁专心	-12.3558
▁方在	-12.3559
制度	-12.356
▁太好了	-12.3562
▁传唤	-12.3562
▁关上	-12.3562
▁车上	-12.3564
阀	-12.3564
▁轿车	-12.3565
地说	-12.3565
▁长短	-12.3567
▁继承权	-12.3568
▁从那	-12.3569
作用	-12.3569
敏	-12.3569
▁赤	-12.357
▁锁定	-12.3571
解决	-12.3572
出来	-12.3575
▁集体行动	-12.3579
▁网球	-12.358
▁4.7	-12.3584
35	-12.3584
▁一下子	-12.3585
▁过量	-12.3586
▁发光	-12.359
▁之地	-12.359
▁近似	-12.3594
▁酌处	-12.3597
▁外语	-12.3598
销	-12.36
谋	-12.3601
沟	-12.3602
▁法律责任	-12.3604
▁阻挡	-12.3606
▁调研	-12.3607
ey	-12.3609
▁饿	-12.3609
▁聚合	-12.3609
▁出任	-12.361
▁歪曲	-12.361
▁毁林	-12.361
▁空间站	-12.3613
▁躲避	-12.3614
▁轨迹	-12.3614
▁虚	-12.3617
▁汇票	-12.3618
▁霍乱	-12.3619
▁要件	-12.3621
▁金色	-12.3622
▁全局	-12.3622
▁现实情况	-12.3623
▁法国人	-12.3623
▁字样	-12.3624
▁国营	-12.3624
▁"35	-12.3625
▁杆	-12.3627
▁米歇尔	-12.3628
▁福利部	-12.3628
▁器材	-12.3628
圆	-12.3628
▁探测器	-12.3629
苦	-12.363
训	-12.363
▁商会	-12.3631
▁马拉	-12.3631
▁伙计	-12.3634
肯	-12.3634
▁展览会	-12.3636
▁回头	-12.3636
▁佣工	-12.3636
▁民主联盟	-12.3637
ers	-12.3638
▁好看	-12.3641
▁冰淇淋	-12.3641
▁威尔	-12.3641
▁学前教育	-12.3645
洗	-12.3646
▁顶部	-12.3647
▁转身	-12.3648
▁流浪	-12.3648
▁遗弃	-12.365
▁兼并	-12.365
控制	-12.3652
▁果实	-12.3654
▁傻	-12.3655
购	-12.3655
众	-12.3657
▁子孙	-12.3659
▁省长	-12.3659
▁IP	-12.3659
▁庭审	-12.3663
▁CHW	-12.3663
▁手套	-12.3665
债	-12.3666
▁摄入	-12.3667
▁担当	-12.3667
▁917	-12.3669
▁2018	-12.367
de	-12.3671
▁刻	-12.3671
▁充分就业	-12.3672
▁销售额	-12.3672
▁干活	-12.3673
▁谱	-12.3675
▁野	-12.3675
▁爷爷	-12.3676
▁应变	-12.3676
▁第二十二条	-12.3677
▁先驱	-12.3677
▁社会学	-12.3678
池	-12.3678
▁地狱	-12.368
▁火炬	-12.368
▁寄宿	-12.3681
▁赶到	-12.3682
sa	-12.3684
武	-12.3685
▁查理	-12.3686
▁271	-12.3686
▁公允	-12.3687
济	-12.3687
▁嫉妒	-12.3689
▁合资	-12.369
怀	-12.369
ung	-12.3693
▁好几	-12.3697
▁以补	-12.3698
飞机	-12.37
零	-12.37
▁攀升	-12.3703
▁纪念碑	-12.3704
▁盼望	-12.3705
▁协商会	-12.3709
舱	-12.371
▁瑞士法郎	-12.3712
▁乳	-12.3712
▁证券公司	-12.3713
▁记录在案	-12.3716
▁柜台	-12.3716
减	-12.3717
▁不力	-12.3718
▁备受	-12.372
▁大大减少	-12.3721
▁2050	-12.3728
▁参政	-12.3728
▁执	-12.3729
▁坦诚	-12.373
▁应得	-12.3734
▁第二十八届	-12.3734
▁敢	-12.3734
▁股本	-12.3735
▁而作	-12.3736
▁组办	-12.3737
▁相关联	-12.3737
▁普通法	-12.3739
▁击	-12.3741
▁而来	-12.3741
自治	-12.3741
▁截然不同	-12.3743
▁流血	-12.3743
▁单边	-12.3744
▁麻醉	-12.3747
救	-12.3747
▁负载	-12.3748
▁问问	-12.375
▁齿轮	-12.3752
▁6.6	-12.3754
▁取样	-12.3756
▁价格指数	-12.3756
▁部份	-12.3758
▁"32	-12.376
▁无误	-12.3762
▁勤奋	-12.3762
▁服务员	-12.3763
▁表扬	-12.3763
▁520	-12.3763
▁受害国	-12.3764
况	-12.3765
▁第二季度	-12.377
▁前沿	-12.3772
▁Ha	-12.3774
▁贮存	-12.3774
▁受训	-12.3776
▁情人	-12.3776
▁手表	-12.3777
▁目击者	-12.3779
▁最易	-12.378
诗	-12.378
脂	-12.3781
▁国籍法	-12.3784
▁坑	-12.3784
▁优越	-12.3786
▁走开	-12.3787
▁"33	-12.3787
▁邮政局	-12.3789
▁春	-12.3789
994	-12.3791
▁过得	-12.3791
▁安娜	-12.3792
▁双向	-12.3792
▁叛乱分子	-12.3792
▁医治	-12.3792
▁布莱尔	-12.3792
▁原产地	-12.3793
▁和睦	-12.3795
▁六名	-12.3795
▁真实性	-12.3796
▁Ahmed	-12.3796
▁肢体	-12.3796
▁掌管	-12.3797
▁纽	-12.3798
▁柱	-12.3798
六年	-12.3799
另	-12.38
▁发展前景	-12.3801
45	-12.3802
▁"34	-12.3802
▁出版社	-12.3803
▁毫无意义	-12.3806
▁同志	-12.3806
pe	-12.3806
▁销量	-12.3811
▁图象	-12.3813
▁祖	-12.3814
▁依法追究	-12.3814
▁老化	-12.3815
▁卡特尔	-12.3815
▁求职者	-12.3816
▁客观性	-12.3818
▁譬如	-12.3819
▁投了	-12.382
▁陆上	-12.3821
▁军警	-12.3824
▁沙发	-12.3825
▁新颖	-12.3826
▁打发	-12.3827
▁平原	-12.3828
▁CT	-12.3829
▁因应	-12.383
▁环境部	-12.3831
▁剩	-12.3831
▁航海	-12.3833
ac	-12.3833
▁一审	-12.3837
▁雅加达	-12.3837
▁偶像	-12.3837
▁兔子	-12.3837
▁减税	-12.384
▁上司	-12.3843
▁尼斯	-12.3843
▁十二个	-12.3843
57	-12.3845
目标	-12.385
▁慎重	-12.385
▁驾车	-12.3851
▁旅行社	-12.3852
▁体外	-12.3858
▁第一句	-12.3858
▁第三十五届	-12.386
▁病情	-12.386
▁q	-12.3861
▁已故	-12.3861
凡	-12.3863
▁景色	-12.3864
行业	-12.3866
▁苏维埃	-12.3868
▁集中精力	-12.3868
▁头痛	-12.3869
▁硫	-12.3871
▁Di	-12.3873
▁技术开发	-12.3876
▁瓶	-12.3876
▁口腔	-12.3878
谢	-12.3879
▁队长	-12.388
▁这批	-12.388
▁军事装备	-12.3882
▁陷阱	-12.3882
▁欧洲议会	-12.3883
▁抗体	-12.3889
▁多米尼加	-12.3896
▁恋爱	-12.3896
▁亲切	-12.3896
▁改叙为	-12.3897
遍	-12.3898
▁弗兰克	-12.3899
▁极好	-12.3899
▁区别对待	-12.39
▁因果关系	-12.3905
▁廉正	-12.3905
▁出血	-12.3905
社会	-12.3909
▁理所当然	-12.3909
▁样式	-12.391
▁政界	-12.391
▁富国	-12.3911
▁现金流量	-12.3914
▁第十八	-12.3915
ian	-12.3915
芬	-12.3916
▁各派	-12.3917
▁快捷	-12.3919
饼	-12.3919
▁键	-12.3921
▁国会议员	-12.3923
▁危急	-12.3923
▁一首	-12.3923
▁初稿	-12.3923
▁课本	-12.3924
60	-12.3927
▁旧金山	-12.3927
一种	-12.3929
▁这起	-12.3929
▁姓	-12.393
▁事务部长	-12.393
▁』	-12.3932
候	-12.3933
▁拉斯	-12.3933
▁尖锐	-12.3936
▁玩耍	-12.3936
▁清晨	-12.3936
▁回报率	-12.3937
缩	-12.3938
它们	-12.394
▁以至	-12.394
▁槽	-12.3941
▁第三十三届	-12.3946
▁埃尔	-12.3946
ca	-12.3946
透	-12.3947
昂	-12.3948
▁私立学校	-12.395
▁如能	-12.3951
▁资料库	-12.3953
▁JIU	-12.3955
▁手枪	-12.3955
▁外围	-12.3956
▁展出	-12.3956
▁内载	-12.3959
▁多种形式	-12.3959
▁已登记	-12.3959
▁重新安排	-12.3959
▁汇总表	-12.396
▁继承人	-12.3961
▁就座	-12.3963
▁票数	-12.3963
▁爆炸性	-12.3963
▁偷窃	-12.3964
▁退休年龄	-12.3964
▁雇	-12.3964
▁鲜花	-12.3966
▁绘图	-12.3968
▁优美	-12.3968
▁联卢	-12.3969
▁很棒	-12.397
▁暴风雨	-12.397
▁同一天	-12.3971
▁填充	-12.3973
▁拘捕	-12.3973
▁尿	-12.3974
▁尾巴	-12.3976
吃	-12.3977
▁降临	-12.3978
▁货车	-12.3978
▁桶	-12.3978
账	-12.3979
ari	-12.398
▁夜里	-12.3982
▁新设	-12.3982
▁经销商	-12.3982
▁毫无根据	-12.3983
▁各种因素	-12.3984
▁财	-12.3984
▁今世	-12.3987
▁美味	-12.3987
▁投保	-12.399
▁分包	-12.3991
▁离岸	-12.3991
▁小型企业	-12.3991
蛋	-12.3993
杂	-12.3994
▁用处	-12.3994
▁瓦加杜古	-12.3996
▁环卫	-12.3996
▁现今	-12.3996
▁瓶子	-12.3996
▁嘴里	-12.3997
舍	-12.4
▁荒谬	-12.4
▁钱包	-12.4002
▁比照	-12.4002
▁上调	-12.4006
酯	-12.4007
▁认罪	-12.401
▁行政拘留	-12.401
2008	-12.4012
发言	-12.4014
▁遇到困难	-12.4014
▁编排	-12.4015
▁联接	-12.4021
▁经合	-12.4022
▁国际电信联盟	-12.4023
▁贪婪	-12.4023
▁售价	-12.4023
▁工商界	-12.4023
▁行为能力	-12.4026
斗	-12.4026
▁营利	-12.403
▁步	-12.4031
▁绝不会	-12.4032
▁详见	-12.4032
汁	-12.4033
▁细分	-12.4033
疡	-12.4036
▁宾馆	-12.404
▁独	-12.4041
▁卡扎菲	-12.4041
▁口岸	-12.4042
▁但愿	-12.4042
第一	-12.4042
脱	-12.4043
▁性关系	-12.4044
18	-12.4045
▁录取	-12.4046
▁水灾	-12.4047
▁公升	-12.4051
▁胜过	-12.4051
▁问及	-12.4052
脸	-12.4052
▁奶奶	-12.4058
智	-12.4059
▁促进作用	-12.4059
▁证据规则	-12.406
▁告别	-12.406
危	-12.406
▁平均值	-12.4064
▁视察员	-12.4066
▁罢了	-12.4069
▁山顶	-12.4069
IS	-12.4071
▁猴子	-12.4072
▁大大提高	-12.4074
▁股长	-12.4076
▁炸	-12.4078
▁创始	-12.408
▁红利	-12.408
▁低温	-12.4081
▁巴尔干	-12.4083
▁不锈钢	-12.4083
▁冷冻	-12.4083
▁三十年	-12.4084
▁视图	-12.4085
▁世俗	-12.4087
▁英属维尔京群岛	-12.4087
▁恶性循环	-12.4087
▁静脉	-12.409
▁震	-12.4091
▁对受	-12.4091
▁303	-12.4091
▁摒弃	-12.4092
▁病理	-12.4094
▁福利金	-12.4101
▁并非如此	-12.4101
▁哈萨克斯坦共和国	-12.4102
▁Mu	-12.4102
▁商业化	-12.4103
▁工业界	-12.4103
▁外汇储备	-12.4106
▁裂缝	-12.4106
▁环绕	-12.4106
▁着陆	-12.4106
▁安宁	-12.4107
▁四十	-12.4111
▁露天	-12.4111
▁外套	-12.4111
▁珍妮	-12.4112
▁XX	-12.4112
▁留存	-12.4112
▁杰夫	-12.4113
廷	-12.4114
▁留下来	-12.4114
▁使用寿命	-12.4115
▁主宰	-12.4115
▁名录	-12.4115
▁大火	-12.4118
就是说	-12.4123
▁分手	-12.4123
▁飞行器	-12.4124
▁递延	-12.4125
▁较差	-12.4125
▁物件	-12.4126
▁维多利亚	-12.4129
▁夏威夷	-12.4129
▁雕刻	-12.4129
61	-12.413
▁改革开放	-12.413
▁授	-12.413
▁聚焦	-12.4134
▁滥用权力	-12.4134
▁面孔	-12.4134
▁托运人	-12.4135
政	-12.4135
▁副作用	-12.4136
▁处方	-12.414
▁主管人员	-12.414
▁成型	-12.4143
▁青春期	-12.4143
▁发觉	-12.4143
▁露	-12.4144
▁第五节	-12.4144
▁处分	-12.4144
▁信息网	-12.4145
▁美军	-12.4145
▁301	-12.4146
▁截	-12.4146
▁体力	-12.4146
▁journal	-12.4148
▁惊喜	-12.4148
▁历程	-12.4148
不间断	-12.4148
▁信息化	-12.4151
▁拆毁	-12.4152
▁脚步	-12.4152
▁牙科	-12.4153
▁顺便	-12.4153
▁几百	-12.4156
▁拔	-12.4158
▁认出	-12.4158
▁480	-12.4159
▁淹没	-12.4162
▁公共财政	-12.4162
▁夸大	-12.4162
▁订于	-12.4162
▁更是如此	-12.4162
▁宝石	-12.4166
▁上一年	-12.4168
▁晶体	-12.4168
▁合资企业	-12.4171
▁安德烈	-12.4176
▁膝盖	-12.4176
▁萘	-12.4176
▁养成	-12.4179
▁修缮	-12.418
▁铺平道路	-12.418
▁低迷	-12.4181
▁映射	-12.4185
▁领海	-12.4185
▁440	-12.4187
折	-12.4188
纤维	-12.4188
▁范本	-12.419
▁社会科学	-12.4191
▁福音	-12.4191
▁聚合物	-12.4194
▁干细胞	-12.4195
超	-12.4195
▁维护和平	-12.4195
▁杯子	-12.4195
▁傲慢	-12.4199
▁加固	-12.4204
妇	-12.4205
▁全民教育	-12.4208
lo	-12.4212
▁辖区	-12.4213
▁最优	-12.4213
一度	-12.4214
▁Jean	-12.4215
▁一千	-12.4216
▁知	-12.4217
▁鲨鱼	-12.4218
祸	-12.4218
岸	-12.4218
▁磁盘	-12.4222
▁复杂化	-12.4225
▁多氯联苯	-12.4227
▁腹泻	-12.4227
▁煤气	-12.4229
▁克莱	-12.423
▁普惠	-12.4232
▁稀少	-12.4233
▁遣散	-12.4236
▁淡	-12.4238
ant	-12.424
▁互信	-12.4241
▁正当程序	-12.4241
▁共产主义	-12.4242
▁葡萄牙语	-12.4243
▁盛	-12.4244
▁中国人民银行	-12.4246
▁备有	-12.4246
iyah	-12.4246
▁顺应	-12.4247
▁墨西哥政府	-12.4247
▁底下	-12.4248
▁知晓	-12.425
不住	-12.4252
▁上任	-12.4253
▁一堆	-12.4254
▁Mac	-12.4254
▁肝脏	-12.4255
▁烟雾	-12.4255
▁说谎	-12.4255
▁之时	-12.4257
▁重伤	-12.426
▁自私	-12.4262
▁Ms	-12.4262
▁便携式	-12.4264
谨	-12.4265
▁Za	-12.4271
▁谘	-12.4271
▁一辈子	-12.4271
▁开展调查	-12.4274
▁边远地区	-12.4274
▁讲解	-12.4276
if	-12.4276
▁各大	-12.4277
▁成形	-12.4277
▁共同点	-12.4277
100	-12.4278
56	-12.4278
▁REP	-12.4278
吨	-12.4278
▁第三十二届	-12.4279
▁家用	-12.428
摩	-12.4281
▁Ya	-12.4282
▁教育工作者	-12.4283
▁离散	-12.4283
培训	-12.4284
▁成因	-12.4288
▁巧妙	-12.4288
▁宣判	-12.4288
羊	-12.4288
▁遗嘱	-12.4296
▁赶走	-12.4297
▁选举权	-12.4298
▁骨头	-12.4298
▁前一天	-12.4299
▁自尊	-12.4299
▁Gu	-12.43
▁印度尼西亚政府	-12.43
▁框	-12.4301
▁流出	-12.4303
▁管控	-12.4303
▁五次	-12.4306
▁交通管制	-12.4307
利益	-12.431
▁浪潮	-12.4316
▁流行病学	-12.4318
庭	-12.4319
▁"36	-12.4321
▁悲哀	-12.4321
▁男朋友	-12.4321
▁Man	-12.4323
▁460	-12.4324
▁雅各	-12.4324
▁书店	-12.4324
▁文件系统	-12.4325
▁姓氏	-12.4326
▁座标	-12.4326
▁质量标准	-12.4326
▁轴承	-12.4326
示	-12.4329
▁承包人	-12.4329
▁性感	-12.4331
▁"39	-12.4331
▁万多	-12.4334
▁门诊	-12.4336
程序	-12.4337
▁储	-12.4337
▁观察站	-12.4338
这项	-12.4339
▁字符串	-12.434
▁再次发生	-12.434
▁口服	-12.434
▁教皇	-12.4342
▁娜	-12.4344
▁冗长	-12.4345
郎	-12.4345
▁未婚	-12.4346
ei	-12.4348
▁建筑业	-12.4348
棒	-12.4348
▁赫尔辛基	-12.4349
▁标的	-12.435
划	-12.4351
▁8.1	-12.4352
▁Ch	-12.4353
▁东道	-12.4355
▁安定	-12.4358
▁市政当局	-12.4359
▁航空安全	-12.4359
▁In	-12.436
▁兽医	-12.436
▁滴	-12.4361
▁储藏	-12.4363
▁泡	-12.437
▁腰	-12.437
▁信封	-12.437
▁哲学家	-12.437
25	-12.4371
▁总和	-12.4371
▁联想	-12.4372
▁雄	-12.4372
▁302	-12.4372
▁与众不同	-12.4373
▁滴滴涕	-12.4373
▁投掷	-12.4373
▁哨所	-12.4373
▁假释	-12.4373
▁情愿	-12.4373
▁戈马	-12.4374
▁说服力	-12.4374
▁首选	-12.4376
▁统	-12.4377
▁膳食	-12.4378
▁执法机关	-12.4378
▁震动	-12.4378
75	-12.4382
▁全方位	-12.4382
▁起义	-12.4383
▁高地	-12.4384
▁文人	-12.4384
▁政治局势	-12.4384
▁430	-12.4384
▁凯瑟琳	-12.4385
▁基里巴斯	-12.4387
▁偏向	-12.4389
▁加大力度	-12.4392
▁授课	-12.4392
▁五分钟	-12.4392
▁糖果	-12.4392
▁媒体报道	-12.4392
▁户外	-12.4392
▁专属	-12.4392
▁辨认	-12.4394
ala	-12.4396
▁口味	-12.4397
▁塞尔	-12.4397
▁身份证件	-12.4397
麦	-12.4398
▁7.3	-12.4399
▁矮	-12.4401
▁侯赛因	-12.4401
▁保持稳定	-12.4402
▁起步	-12.4402
ali	-12.4403
▁滑雪	-12.4405
▁人手	-12.4406
▁浪费时间	-12.4406
▁Res	-12.4409
▁运到	-12.441
▁警觉	-12.4411
▁HIV	-12.4411
▁相机	-12.4413
▁运动会	-12.4416
▁盘存	-12.4416
▁州政府	-12.4417
▁供参考	-12.4418
承	-12.4424
▁争执	-12.4425
▁犬	-12.4426
▁门徒	-12.4426
爆	-12.4428
▁段次	-12.4428
损	-12.443
柜	-12.4433
est	-12.4434
▁亵渎	-12.4435
▁泛滥	-12.4435
资料	-12.4435
▁上下文	-12.4435
▁少年犯	-12.4436
▁一一	-12.4439
适当	-12.444
▁惟	-12.4441
▁审美	-12.4445
一轮	-12.4447
▁284	-12.4448
▁哺乳	-12.4449
▁放映	-12.4449
▁双方同意	-12.4449
▁第三十届	-12.4449
▁减速	-12.445
▁放慢	-12.445
▁江	-12.445
▁恢复性	-12.4451
▁连带	-12.4452
▁役	-12.4453
▁医学院	-12.4454
▁赌	-12.4457
▁291	-12.4458
▁这边	-12.4458
▁宝	-12.446
▁北欧国家	-12.4464
▁311	-12.4464
▁新能源	-12.4465
▁利物浦	-12.4468
▁氟碳	-12.4468
▁水流	-12.4469
▁交出	-12.4471
▁北朝鲜	-12.4473
▁登陆	-12.4473
▁古典	-12.4473
▁衣物	-12.4473
▁火车站	-12.4474
▁第三世界	-12.4474
悔	-12.4474
land	-12.4476
▁匆忙	-12.4478
▁陌生	-12.4481
醇	-12.4483
冲	-12.4485
▁颇为	-12.4486
独	-12.4487
▁面对面	-12.4488
▁Ba	-12.4489
尼诺	-12.4492
▁织物	-12.4492
▁新闻报道	-12.4493
▁贫困家庭	-12.4493
▁Ram	-12.4494
▁企业界	-12.4495
▁固体废物	-12.4497
锅	-12.4497
▁OL	-12.45
▁贫	-12.4503
▁轮廓	-12.4506
▁举证责任	-12.4507
▁复合材料	-12.4507
▁杰克逊	-12.4512
▁双边关系	-12.4512
300	-12.4513
彩	-12.4515
▁投资人	-12.4515
▁水手	-12.4516
▁修饰	-12.4516
▁险	-12.4517
▁唱片	-12.4517
▁缓冲	-12.452
▁Peter	-12.4524
▁五年期	-12.4526
▁肌肤	-12.4526
AS	-12.4528
怎样	-12.453
▁294	-12.4534
▁ga	-12.4536
▁安非他明	-12.4536
▁闪电	-12.4536
▁答道	-12.4536
▁进口商	-12.4538
▁亚历山大	-12.454
▁软弱	-12.4541
▁水稻	-12.4541
▁第二种	-12.4542
▁这为	-12.4542
▁当量	-12.4544
▁面部	-12.4544
▁掩饰	-12.4544
▁学说	-12.4545
▁蝴蝶	-12.4547
士丹利	-12.455
▁电动	-12.4551
▁花园里	-12.4552
▁从句	-12.4556
▁内政部长	-12.4556
▁除去	-12.4557
▁安援	-12.4559
▁撤退	-12.456
▁没想到	-12.4561
▁详细信息	-12.4562
▁本节	-12.4563
▁贯彻执行	-12.4565
▁互不	-12.4565
▁太子港	-12.457
整	-12.457
▁条目	-12.4572
益	-12.4573
▁当地人	-12.4574
▁瘦	-12.4575
▁上作	-12.4575
▁才干	-12.4576
▁总面积	-12.4576
▁字典	-12.4577
▁抑郁	-12.4579
▁停滞不前	-12.4579
▁源泉	-12.4579
▁壁	-12.458
伟	-12.458
仁	-12.4581
ñ	-12.4584
▁之日	-12.4585
▁砂	-12.4585
逊	-12.4585
纪	-12.4587
腿	-12.4589
灰	-12.4589
▁林肯	-12.4589
▁地表	-12.4591
代理	-12.4594
▁编撰	-12.4594
▁建筑材料	-12.4594
▁调试	-12.4594
▁电影院	-12.4595
▁修订案	-12.4598
▁旷日持久	-12.4599
▁全体成员	-12.4599
▁成人教育	-12.4599
途	-12.4599
▁否	-12.4601
▁Be	-12.4605
▁甲烷	-12.4606
▁十七	-12.4608
▁卫生署	-12.4608
▁情报机构	-12.4609
▁旗下	-12.4609
▁海洋学	-12.4609
▁持续时间	-12.4611
▁开放式	-12.4612
筒	-12.4612
▁热切	-12.4614
▁南南	-12.4616
▁能源安全	-12.4616
缺	-12.4617
▁成套	-12.4617
▁权威性	-12.4617
▁厌倦	-12.4618
▁出价	-12.4618
▁外侨	-12.4618
钟	-12.462
ner	-12.462
▁再也不	-12.4626
▁选拔	-12.4628
▁推导	-12.4628
▁390	-12.4629
▁射	-12.4632
▁淀粉	-12.4633
▁下游	-12.4633
▁干嘛	-12.4633
▁热衷	-12.4633
▁统治者	-12.4635
▁未作	-12.4636
▁氧气	-12.4637
▁伦	-12.4637
▁尼克	-12.4638
▁壳	-12.4638
▁极了	-12.4639
▁太高	-12.464
▁天天	-12.464
▁鼓	-12.4641
▁建筑工程	-12.4643
▁古怪	-12.4644
▁阿富汗人	-12.4644
▁候选	-12.4644
▁建筑师	-12.4644
▁苯丙胺	-12.4647
▁安妮	-12.4647
▁钙	-12.4648
▁一丝	-12.4648
▁放牧	-12.465
▁驻留	-12.4651
▁年末	-12.4651
▁敞开	-12.4652
▁立法者	-12.4652
▁右边	-12.4653
▁远见	-12.4653
▁确有	-12.4654
▁兴	-12.4655
▁终点	-12.4656
▁"37	-12.4656
▁开门	-12.4656
▁左边	-12.4657
神经	-12.466
▁更糟	-12.4661
▁金融资产	-12.4662
▁公共交通	-12.4663
有些	-12.4663
▁选取	-12.4663
▁at	-12.4665
▁巡回	-12.4667
▁牙医	-12.4667
▁直升飞机	-12.4672
▁积极行动	-12.4672
▁开销	-12.4672
▁土地改革	-12.4672
▁奔	-12.4674
双	-12.4675
▁所设	-12.4676
▁二年	-12.4676
软	-12.4676
▁贸易壁垒	-12.4677
▁完全同意	-12.4677
▁科学知识	-12.4678
▁木头	-12.4678
▁瞬间	-12.4678
▁市场份额	-12.4681
▁助产士	-12.4682
▁刑院	-12.4682
▁国对	-12.4682
▁行政法院	-12.4684
▁戴维	-12.4686
▁不合	-12.4686
▁●	-12.4688
▁转送	-12.4688
▁有助	-12.4689
▁公共信息	-12.469
▁出生率	-12.469
▁会后	-12.4691
▁人民检察院	-12.4691
▁葬礼	-12.4691
▁希拉里	-12.4691
▁叶片	-12.4692
▁避孕套	-12.4692
▁巴尔	-12.4694
▁巴塞罗那	-12.4696
▁美德	-12.4697
▁社区服务	-12.4698
▁重心	-12.4698
▁人民解放军	-12.4701
az	-12.4702
▁新来	-12.4702
▁竹	-12.4702
▁制冷	-12.4706
▁评分	-12.4706
▁297	-12.4708
▁追究责任	-12.4711
▁表彰	-12.4711
▁警卫队	-12.4712
▁两族	-12.4713
▁点儿	-12.4714
▁凯特	-12.4714
▁割	-12.4715
▁田	-12.4715
▁苯酚	-12.4716
▁捕	-12.4716
▁公民权	-12.4719
▁报警	-12.4721
▁平息	-12.4721
▁哥	-12.4722
▁积分	-12.4724
▁驶	-12.4724
▁实用性	-12.4725
▁贫困地区	-12.4725
▁数学模型	-12.4726
▁有别	-12.4726
▁使用率	-12.4729
▁情报局	-12.473
▁第四季度	-12.4731
▁1955	-12.4731
▁之初	-12.4732
▁蜜蜂	-12.4732
▁反击	-12.4735
增	-12.4736
▁家庭收入	-12.4736
▁法国政府	-12.4738
▁Fed	-12.474
▁政治处	-12.4742
je	-12.4742
▁积极合作	-12.4742
▁第二句	-12.4744
▁砸	-12.4745
▁敏锐	-12.4745
▁410	-12.4747
▁0.1	-12.4749
琴	-12.475
▁祖母	-12.475
▁整编	-12.475
弃	-12.475
▁季节性	-12.4751
▁拿走	-12.4752
▁两地	-12.4752
ty	-12.4755
绝	-12.4755
粮	-12.4756
▁299	-12.4757
▁该届	-12.4757
▁差别待遇	-12.476
▁验收	-12.476
▁『	-12.476
惠	-12.4761
▁农业部	-12.4764
▁党员	-12.4765
▁新闻处	-12.4765
37	-12.4765
暗	-12.4766
▁天数	-12.4767
51	-12.4767
▁讲台	-12.4768
▁航空航天	-12.477
▁阀门	-12.477
▁石油价格	-12.4771
ee	-12.4772
▁奶	-12.4773
▁年青人	-12.4776
▁敏捷	-12.478
▁并会	-12.478
▁遍布	-12.478
▁农夫	-12.478
▁Ahmad	-12.4785
▁这辆	-12.4785
▁晚饭	-12.4785
▁康复中心	-12.4785
▁海员	-12.4787
▁大人	-12.4787
▁环境污染	-12.4789
▁滞留	-12.479
▁周岁	-12.479
▁不向	-12.4793
▁偏好	-12.4796
▁抗生素	-12.48
▁拟设	-12.4802
最	-12.4804
▁所长	-12.4805
▁401	-12.4809
▁议席	-12.481
▁知悉	-12.481
▁路边	-12.4811
▁信守	-12.4812
ji	-12.4812
▁画家	-12.4813
▁别处	-12.4814
▁蚊帐	-12.4815
▁Ho	-12.4818
▁防守	-12.482
▁融化	-12.482
▁项目表	-12.482
▁造就	-12.482
▁无理	-12.4822
尖	-12.4825
不是	-12.4825
▁厨师	-12.4825
拉克	-12.4825
▁山脉	-12.4826
急	-12.4827
▁电线	-12.4827
▁辰	-12.4827
▁增拨	-12.483
方法	-12.4831
▁熟	-12.4834
▁电子邮箱	-12.4834
▁泛美	-12.4835
▁趁	-12.4835
▁前方	-12.4837
▁来回	-12.4838
址	-12.4839
▁诺言	-12.484
▁经验丰富	-12.484
▁民主选举	-12.484
▁起始	-12.4841
▁宽度	-12.4844
▁世界气象组织	-12.4844
▁航线	-12.4845
▁胜	-12.4845
65	-12.4846
▁年头	-12.4848
▁贺卡	-12.485
顾	-12.485
▁盒	-12.4852
▁模	-12.4853
▁人工流产	-12.4854
▁土豆	-12.4854
▁民盟	-12.4854
▁315	-12.4857
▁谨此	-12.4858
▁德语	-12.4858
▁房租	-12.4859
▁北欧	-12.486
▁念头	-12.486
▁细致	-12.486
反映	-12.4861
▁合同规定	-12.4862
▁判	-12.4863
▁"38	-12.4864
▁执业	-12.4865
▁专案	-12.4865
▁听听	-12.4865
▁桩	-12.4866
▁排队	-12.4866
或	-12.4866
▁探视	-12.4869
▁爱心	-12.4871
ran	-12.4872
▁三条	-12.4874
▁捐献	-12.4874
▁游览	-12.4874
▁门外	-12.4878
▁确定性	-12.4878
还有	-12.4879
▁依赖性	-12.488
▁行进	-12.488
▁并列	-12.4881
▁修补	-12.4884
▁固然	-12.4885
▁候选国	-12.489
囊	-12.489
▁吐	-12.489
▁SP	-12.4891
▁ESCAP	-12.4894
▁忙碌	-12.4894
▁在校	-12.4895
▁值得一提的是	-12.4895
才能	-12.4896
▁有幸	-12.4898
▁抗拒	-12.4899
▁贯彻落实	-12.4899
▁遗	-12.4899
▁在上文	-12.4899
倍	-12.4901
▁皮埃尔	-12.4904
▁克减	-12.4905
▁存有	-12.4907
▁欢呼	-12.4909
保护	-12.4909
▁儿女	-12.491
▁犹豫	-12.4911
▁一分	-12.4912
▁导师	-12.4915
▁轮值	-12.4915
▁上岗	-12.4915
补	-12.4918
▁教育法	-12.4918
▁层级	-12.492
▁森林资源	-12.4921
轻	-12.4921
▁滤	-12.4923
▁第三期	-12.4924
▁"40	-12.4924
▁招收	-12.4924
▁一百一十	-12.4925
▁非洲地区	-12.4927
▁桌面	-12.4928
▁与会代表	-12.4929
▁业余	-12.493
▁人间	-12.4931
▁骑士	-12.4932
▁莫里	-12.4938
强度	-12.494
▁(2)	-12.494
▁298	-12.4942
污	-12.4942
▁有偿	-12.4942
and	-12.4944
31	-12.4945
▁稻	-12.4948
活动	-12.495
统	-12.495
▁睦邻	-12.4954
▁民防	-12.4955
▁银行业务	-12.4955
▁明文规定	-12.496
▁身旁	-12.496
▁高危	-12.4962
▁伊拉克人	-12.4963
▁维持费	-12.4964
▁测绘	-12.4965
▁凶手	-12.4965
▁外阴	-12.4965
煤	-12.4966
▁格雷	-12.4966
▁XXI	-12.4967
▁征用	-12.4967
▁更进一步	-12.4969
▁560	-12.4969
▁德国政府	-12.4969
▁搜索引擎	-12.497
▁炮击	-12.4975
▁吻合	-12.4975
▁各司	-12.4975
▁7.4	-12.4976
▁眼里	-12.4977
▁埋葬	-12.498
▁技术员	-12.4983
▁粉碎	-12.4985
▁班级	-12.4986
历	-12.4986
▁扶	-12.4987
op	-12.4989
▁民法典	-12.499
▁客厅	-12.499
▁时段	-12.4991
迹	-12.4991
▁强力	-12.4993
▁再循环	-12.4995
▁供应国	-12.4998
▁蒸发	-12.5
▁子宫	-12.5
ho	-12.5
▁博拉	-12.5001
▁293	-12.5003
记名	-12.5003
退	-12.5004
徒	-12.5005
▁第三十一条	-12.5005
▁充斥	-12.501
▁兵库	-12.501
▁可为	-12.501
eb	-12.5011
89	-12.5011
潮	-12.5011
▁豪	-12.5012
▁破碎	-12.5015
▁拓宽	-12.5015
轨	-12.5015
▁不法	-12.5017
▁服务费	-12.5021
湿	-12.5021
▁未付	-12.5023
▁国产	-12.5026
己	-12.5027
▁握	-12.5027
▁棕色	-12.5028
▁Ko	-12.5028
▁皮革	-12.503
▁复活	-12.503
ub	-12.5032
▁门前	-12.5034
▁打扮	-12.5034
▁头衔	-12.5035
▁微弱	-12.5036
▁货品	-12.5036
▁两侧	-12.5037
ate	-12.5038
▁卓有成效	-12.504
▁枢纽	-12.504
▁两国之间	-12.5041
▁文件夹	-12.5042
▁借给	-12.5043
▁不禁	-12.5045
▁肯尼迪	-12.5045
▁打扫	-12.5046
▁致敬	-12.5046
▁两点	-12.5049
▁造型	-12.5051
协	-12.5052
▁希亚	-12.5052
▁运输系统	-12.5054
▁量子	-12.5055
佩	-12.5055
▁效仿	-12.5056
▁诠释	-12.5056
▁迟迟	-12.5056
▁第三季度	-12.5056
五年	-12.5058
▁伞	-12.5059
▁恶心	-12.5061
▁1959	-12.5064
▁以北	-12.5064
▁开业	-12.5064
洲	-12.5065
▁卡纳	-12.5067
▁阀	-12.5073
▁漫画	-12.5076
▁Atlas	-12.5076
▁浮动	-12.5076
▁暴力犯罪	-12.5077
▁Ka	-12.5078
聘	-12.508
▁抑郁症	-12.5081
▁垫	-12.5081
▁战斗员	-12.5083
▁直觉	-12.5084
▁全是	-12.5084
▁不能不	-12.5085
▁烧毁	-12.5086
▁海伦	-12.5087
▁招待	-12.509
▁保有	-12.5091
▁固定资产	-12.5091
▁兵役	-12.5091
植	-12.5093
▁美食	-12.5097
▁第五号	-12.5098
▁抗议者	-12.5099
▁花朵	-12.5102
▁居民区	-12.5102
▁空间数据	-12.5103
od	-12.5106
▁深处	-12.5106
▁马尼拉	-12.5107
▁以利	-12.5107
▁打击犯罪	-12.5107
▁过敏	-12.511
▁路面	-12.511
▁万英镑	-12.5112
▁长长	-12.5113
拿	-12.5113
han	-12.5113
uk	-12.5113
▁手下	-12.5114
▁防务	-12.5117
▁特拉特	-12.5117
▁出路	-12.5118
▁单击	-12.5118
绿	-12.5119
临	-12.512
▁水产	-12.512
▁1874	-12.512
▁泥土	-12.5122
▁圆形	-12.5122
▁为生	-12.5122
▁摔	-12.5123
▁5.6	-12.5124
2007	-12.5127
▁申	-12.5129
▁商务部	-12.513
▁管辖区	-12.513
杜	-12.513
▁312	-12.5136
奈	-12.5137
▁指纹	-12.5138
200	-12.5141
▁折旧	-12.5142
▁而后	-12.5143
豆	-12.5143
身处	-12.5146
▁温家宝	-12.5147
▁小偷	-12.5148
▁大象	-12.515
忙	-12.5152
▁新华社	-12.5153
▁顶级	-12.5153
▁病变	-12.5153
▁应聘	-12.5157
▁青蛙	-12.5158
▁洛尔科	-12.5158
▁构件	-12.5158
▁固	-12.5158
▁喜	-12.5159
24	-12.5163
▁条对	-12.5164
▁知名度	-12.5164
▁毛利人	-12.5164
优	-12.5164
▁较强	-12.5165
遭	-12.5165
▁街区	-12.5166
政策	-12.5168
▁浴室	-12.5168
▁沙滩	-12.5168
▁嗨	-12.517
▁据点	-12.517
ley	-12.517
▁各处	-12.517
▁建国	-12.5171
人们	-12.5173
▁外商投资	-12.5173
▁环境监测	-12.5174
▁高频	-12.5176
▁分机	-12.5177
▁羽毛	-12.5178
▁自愿性	-12.5179
▁里昂	-12.5183
▁水生	-12.5184
▁风力	-12.5185
▁拥有者	-12.5186
▁服务处	-12.5187
止	-12.5188
▁排水	-12.5188
76	-12.5189
▁背叛	-12.5189
epts	-12.5189
▁历年	-12.519
亏	-12.519
▁马路	-12.5191
敌	-12.5191
▁当地政府	-12.5194
▁卖掉	-12.5194
▁排出	-12.5197
▁囚禁	-12.5199
▁篮子	-12.5199
41	-12.5199
▁SA	-12.5203
▁说明书	-12.5203
翁	-12.5204
▁探究	-12.5204
▁保证金	-12.5205
▁来得	-12.5208
▁防灾	-12.5209
▁钻井	-12.5209
▁租约	-12.521
▁离任	-12.5211
▁恫吓	-12.5214
▁报告期	-12.5215
▁历届	-12.5216
▁领水	-12.5216
▁待定	-12.5216
▁硫化物	-12.522
静	-12.522
▁驾驶员	-12.522
▁"41	-12.5221
▁海边	-12.5221
斑	-12.5222
▁这台	-12.5224
▁切尔西	-12.5225
▁470	-12.5226
▁脾气	-12.5227
▁国际收支	-12.523
▁征求意见	-12.523
▁孕产	-12.523
▁转账	-12.5231
▁Li	-12.5231
▁彭	-12.5232
38	-12.5235
▁戒烟	-12.5235
zi	-12.5239
▁德斯	-12.5239
▁清偿债务	-12.524
▁部在	-12.524
▁迎来	-12.5241
▁捕捉	-12.5243
▁幅	-12.5243
▁炒	-12.5243
▁正视	-12.5243
▁发电厂	-12.5246
▁司令部	-12.5246
▁语义	-12.5246
▁刚果共和国	-12.5246
▁更广	-12.5246
▁款次	-12.5248
学校	-12.5249
▁半导体	-12.5251
▁咳嗽	-12.5251
▁挪用	-12.5251
▁停下	-12.5253
专题	-12.5254
▁数十	-12.5255
▁贸易中心	-12.5255
▁漏	-12.5257
▁加薪	-12.5257
▁脚本	-12.5258
纹	-12.526
▁肩	-12.5263
欲	-12.5263
积	-12.5263
起码	-12.5265
▁Har	-12.5266
▁队部	-12.5266
▁华丽	-12.5267
▁纪要	-12.5267
▁标示	-12.5271
▁纽带	-12.5272
▁资金不足	-12.5272
▁丰	-12.5274
▁参与率	-12.5274
▁怎么回事	-12.5277
▁比喻	-12.5278
▁高涨	-12.5278
23	-12.5278
▁规管	-12.528
▁摘	-12.5282
▁墓地	-12.5282
助	-12.5283
▁年均	-12.5285
穆	-12.5285
▁指挥部	-12.5286
ok	-12.5287
▁环境治理	-12.5287
▁肮脏	-12.5287
▁系统化	-12.5287
▁砍	-12.5289
▁扯	-12.5294
▁近代	-12.5295
▁霍尔	-12.5295
险	-12.5295
▁非军事化	-12.5298
认	-12.5298
川	-12.5298
▁季	-12.5301
▁一读	-12.5302
撒	-12.5305
▁上以	-12.5305
▁Do	-12.5306
▁高尚	-12.5308
▁村子	-12.5308
mi	-12.5308
▁卫生条件	-12.5309
▁布里	-12.5309
lan	-12.531
▁4.8	-12.531
泡	-12.531
▁尽头	-12.531
睡	-12.5312
▁优异	-12.5313
▁仪	-12.5313
▁赶快	-12.5313
▁参加国	-12.5317
52	-12.5318
▁斯洛伐克共和国	-12.5318
▁东南部	-12.5319
▁浏览器	-12.532
▁鼠标	-12.5323
▁漆	-12.5324
▁恰	-12.5327
▁之手	-12.5327
▁西蒙	-12.5328
▁饮用	-12.5329
▁很差	-12.5331
▁竞争者	-12.5332
不定	-12.5334
▁辛苦	-12.5334
▁第五十	-12.5335
▁废墟	-12.5339
2010	-12.5339
▁这篇	-12.5339
▁做生意	-12.534
▁重力	-12.5341
▁1956	-12.5343
▁调停	-12.5343
▁自备	-12.5344
▁专属经济区	-12.5344
▁灌输	-12.5344
▁之久	-12.5345
▁恶性	-12.5345
▁想念	-12.5349
▁开通	-12.5351
珀	-12.5353
▁伊科	-12.5353
▁307	-12.5354
▁广东	-12.5355
▁吸纳	-12.5355
▁班吉	-12.5355
▁两组	-12.5356
▁伐木	-12.536
戏	-12.536
▁观光	-12.5361
▁迎	-12.5361
▁小船	-12.5362
▁二十四	-12.5365
▁面貌	-12.5365
束	-12.5368
2006	-12.5368
乳	-12.5369
▁Sam	-12.5369
▁小农	-12.537
▁劫持人质	-12.5371
▁驳斥	-12.5371
▁讲师	-12.5372
▁所能	-12.5373
▁撒谎	-12.5376
▁砖	-12.5376
▁Muhammad	-12.5376
▁胸部	-12.5377
▁313	-12.5378
▁岛国	-12.538
▁粗糙	-12.5381
▁墨西哥城	-12.5381
▁源头	-12.5383
▁下设	-12.5385
▁运河	-12.5386
▁人际关系	-12.5386
▁转基因	-12.5386
▁分配资源	-12.5388
▁迫击炮	-12.5391
▁主席国	-12.5392
▁婚姻状况	-12.5392
▁克斯	-12.5392
即使	-12.5394
▁慈善机构	-12.5397
▁山羊	-12.5397
▁讲授	-12.5397
▁施以	-12.54
▁决不会	-12.54
▁世界旅游组织	-12.5402
▁狩猎	-12.5402
▁奶酪	-12.5402
▁新生力量	-12.5402
▁迟交	-12.5403
▁碎	-12.5406
▁不复存在	-12.5407
▁可用性	-12.5407
▁起身	-12.5408
▁实际行动	-12.5408
▁折衷	-12.5413
▁偏差	-12.5413
▁Su	-12.5413
▁经济制裁	-12.5414
▁使用暴力	-12.5419
26	-12.5419
小组	-12.5419
更	-12.5421
汤	-12.5422
野	-12.5422
▁旋风	-12.5423
▁祖父	-12.5423
▁1957	-12.5427
克斯	-12.5427
▁文化部	-12.5428
▁野心	-12.5429
祖	-12.543
▁缩	-12.543
▁搬运	-12.5434
▁第二十九届	-12.5434
不出	-12.5434
▁相互了解	-12.5434
▁战略武器	-12.5436
▁使者	-12.5436
za	-12.5436
▁塔拉	-12.5438
▁提具	-12.5438
▁驯鹿	-12.5439
▁加倍	-12.544
▁约瑟	-12.5441
▁附文	-12.5442
▁行政区	-12.5442
▁舒	-12.5444
▁面粉	-12.5445
引	-12.5446
▁投降	-12.545
▁股票市场	-12.545
▁公用	-12.5452
▁商场	-12.5453
恶	-12.5454
▁支架	-12.5455
▁礼	-12.5456
af	-12.5456
▁士	-12.5456
▁大夫	-12.546
▁研	-12.546
▁枯竭	-12.546
▁里斯本	-12.546
▁项中	-12.5461
▁电极	-12.5461
▁加元	-12.5462
▁匆匆	-12.5467
▁首位	-12.5467
▁太大	-12.547
▁首尔	-12.547
▁所持	-12.547
两个	-12.5471
▁什叶	-12.5471
▁册	-12.5472
▁不便	-12.5474
▁布琼布拉	-12.5476
▁访客	-12.5476
▁皇后	-12.5476
▁本年度	-12.5477
▁天下	-12.5478
▁那座	-12.548
遇	-12.5481
▁傻瓜	-12.5481
▁忠告	-12.5481
▁矿床	-12.5481
sen	-12.5483
▁未交	-12.5487
▁325	-12.5488
▁多家	-12.5488
▁感谢您	-12.5488
▁Ni	-12.5488
▁306	-12.5489
▁变迁	-12.5492
▁金融体制	-12.5492
▁金矿	-12.5493
▁分辨	-12.5495
促	-12.5495
▁未遂	-12.5498
▁土地权	-12.5502
▁冷漠	-12.5503
▁卫队	-12.5503
▁部厅	-12.5503
73	-12.5504
▁过错	-12.5505
碱	-12.5505
乔	-12.5505
▁326	-12.5507
▁VII	-12.5508
▁创纪录	-12.5508
▁航天局	-12.5514
▁重罪	-12.5514
▁绅士	-12.5518
▁在下文	-12.5519
▁夸张	-12.5519
▁卖出	-12.5519
▁专有	-12.5519
▁水晶	-12.5519
▁下级	-12.5523
▁分泌	-12.5524
▁耕种	-12.5524
▁钴	-12.5524
▁普尔	-12.5525
责	-12.5526
▁升起	-12.5527
价格	-12.5528
▁国际协会	-12.5529
▁礼宾	-12.5529
▁按揭	-12.5529
▁分配情况	-12.5529
▁Jos	-12.5533
▁马其顿	-12.5534
▁惧怕	-12.5534
▁失调	-12.5535
▁明示	-12.5535
▁异性	-12.5536
▁散会	-12.5537
▁波特	-12.5537
2005	-12.5537
▁语气	-12.5541
▁United	-12.5541
▁域名	-12.5541
▁英文版	-12.5542
▁之情	-12.5542
不应	-12.5544
▁增值税	-12.5545
iya	-12.5545
▁China	-12.5546
▁拉萨	-12.5548
▁保释	-12.555
▁透	-12.5552
▁理会	-12.5552
▁猛虎	-12.5552
▁音频	-12.5556
▁小事	-12.5556
盟	-12.5556
▁谢赫	-12.5556
▁舱	-12.5557
密度	-12.5557
▁分级	-12.5558
▁安全部	-12.556
▁糟	-12.556
▁背道而驰	-12.5561
▁血压	-12.5562
辆	-12.5563
怒	-12.5564
▁子孙后代	-12.5567
▁畜牧业	-12.5567
▁中药	-12.5567
招	-12.5568
▁Ta	-12.5572
▁玛格丽特	-12.5572
▁违规行为	-12.5572
▁暖和	-12.5572
▁短短	-12.5572
▁南京	-12.5572
▁十九	-12.5575
通信	-12.5576
判	-12.5576
▁劳动部	-12.558
▁9.1	-12.558
▁肺癌	-12.5583
▁密切关系	-12.5583
▁窗	-12.5585
▁猖獗	-12.5588
▁若有	-12.559
▁监督制度	-12.5591
▁We	-12.5591
氢	-12.5591
▁割礼	-12.5593
▁莉	-12.5594
▁佐	-12.5595
宾	-12.5597
售	-12.5598
▁好人	-12.5598
▁诋毁	-12.5599
▁圣战	-12.56
▁"43	-12.5603
双方	-12.5604
▁受阻	-12.5606
▁1500	-12.5606
▁下个	-12.5608
▁七名	-12.5611
[...]
