<s>	0
<pad>	0
</s>	0
<unk>	0
▁the	-2.80878
▁of	-3.32401
▁,	-3.32776
▁.	-3.40105
▁and	-3.58779
▁to	-3.76419
"	-3.97775
▁in	-4.07453
▁"	-4.17147
▁a	-4.44293
▁for	-4.72154
-	-4.77991
@	-4.80744
▁@	-4.81364
;	-4.8438
▁on	-4.88196
▁that	-4.88257
▁&	-4.89406
▁)	-5.07255
s	-5.12512
▁is	-5.16384
▁(	-5.18166
▁with	-5.27794
▁by	-5.32622
apos	-5.36186
▁	-5.36397
▁be	-5.42156
▁as	-5.43551
▁/	-5.51319
▁it	-5.72219
▁was	-5.73152
▁are	-5.76361
quot	-5.79217
▁at	-5.816
.	-5.82144
▁its	-5.86464
▁:	-5.91344
▁from	-5.92231
▁or	-5.92244
▁;	-5.92293
▁have	-6.02831
▁this	-6.04551
▁not	-6.05063
▁an	-6.05165
▁United	-6.05644
▁I	-6.08843
the	-6.09695
▁has	-6.1649
▁their	-6.18362
▁which	-6.21607
▁Nations	-6.22869
▁all	-6.25176
▁you	-6.28689
▁will	-6.30995
▁Committee	-6.39439
▁had	-6.41653
▁also	-6.4238
▁been	-6.43301
▁General	-6.48088
▁were	-6.48694
▁international	-6.51227
in	-6.52358
▁other	-6.52456
▁States	-6.54754
▁should	-6.60578
▁he	-6.61043
▁development	-6.62147
▁would	-6.66108
▁we	-6.71337
▁countries	-6.72207
▁his	-6.74656
▁rights	-6.77932
▁report	-6.78108
▁they	-6.79046
ing	-6.79595
▁Council	-6.82092
▁such	-6.83084
▁can	-6.8489
▁more	-6.86412
▁under	-6.87136
▁one	-6.87582
▁but	-6.88833
▁work	-6.89459
▁-	-6.90406
▁women	-6.91282
▁human	-6.9296
▁1	-6.93655
▁including	-6.95317
▁information	-6.97152
▁support	-6.9942
▁national	-7.00265
▁resolution	-7.00557
▁State	-7.04004
▁into	-7.04113
▁?	-7.0555
▁there	-7.05579
▁out	-7.05943
▁up	-7.06856
▁A	-7.09099
▁new	-7.09835
▁made	-7.09835
▁Assembly	-7.14043
▁time	-7.16598
▁implementation	-7.17637
▁people	-7.1789
▁system	-7.18666
▁no	-7.1913
▁through	-7.2017
▁session	-7.20298
▁these	-7.20372
▁Government	-7.20707
▁between	-7.21022
▁activities	-7.21831
▁those	-7.22063
▁any	-7.22395
▁well	-7.23262
▁2	-7.23568
▁Secretary	-7.24364
▁some	-7.25238
▁who	-7.25534
▁may	-7.26494
▁against	-7.2759
▁Convention	-7.28476
▁so	-7.28658
▁about	-7.29196
t	-7.29366
▁country	-7.29637
▁Commission	-7.29647
▁per	-7.29813
▁law	-7.31452
▁two	-7.31652
▁than	-7.34143
▁your	-7.35054
▁my	-7.35348
▁could	-7.37329
▁3	-7.37989
▁our	-7.38369
▁meeting	-7.39085
▁economic	-7.39484
▁C	-7.39594
▁only	-7.39773
▁security	-7.3999
▁measures	-7.40387
▁use	-7.40974
▁do	-7.41455
(	-7.41826
▁her	-7.42547
▁them	-7.4296
▁said	-7.43309
▁shall	-7.434
▁children	-7.43844
▁cooperation	-7.44056
▁if	-7.44753
▁number	-7.44766
▁International	-7.46171
▁$	-7.46393
▁first	-7.46899
▁programme	-7.47711
▁level	-7.47895
▁organizations	-7.48186
▁efforts	-7.48564
▁when	-7.48725
▁article	-7.48842
▁over	-7.49827
▁resources	-7.49884
▁need	-7.5042
▁non	-7.51099
▁year	-7.51238
▁draft	-7.51638
▁financial	-7.51808
▁Conference	-7.52245
▁cent	-7.53048
▁right	-7.53058
▁process	-7.53943
▁take	-7.54294
▁must	-7.54503
▁years	-7.54521
▁provide	-7.55897
▁regional	-7.56262
▁social	-7.56419
▁order	-7.56545
▁Mr	-7.57129
ed	-7.57353
▁she	-7.57514
▁what	-7.58332
▁public	-7.59174
▁further	-7.59535
▁services	-7.59741
it	-7.60248
▁during	-7.60489
▁ensure	-7.61338
▁issues	-7.61446
▁Republic	-7.6157
▁most	-7.61683
▁management	-7.61763
▁Development	-7.62202
▁many	-7.63405
▁assistance	-7.63565
▁The	-7.63723
▁members	-7.64544
▁Security	-7.65198
▁4	-7.65402
▁party	-7.65643
▁make	-7.66033
▁me	-7.66066
▁world	-7.66791
▁5	-7.67076
▁provided	-7.68229
▁within	-7.68292
▁being	-7.68469
▁Rights	-7.68544
▁Group	-7.68784
a	-7.69004
▁based	-7.69428
▁health	-7.6951
▁paragraph	-7.69704
▁developing	-7.71311
▁areas	-7.71819
m	-7.72351
▁education	-7.7299
▁like	-7.73426
▁decision	-7.73732
▁10	-7.74051
▁staff	-7.74092
▁period	-7.74514
▁important	-7.75216
▁Office	-7.75344
▁related	-7.7655
▁programmes	-7.76775
▁relevant	-7.77216
▁part	-7.77527
▁agenda	-7.7797
▁Special	-7.78453
▁particular	-7.79622
▁China	-7.79813
▁b	-7.79942
▁see	-7.80617
▁both	-7.80643
▁training	-7.8097
▁policy	-7.81096
▁before	-7.81578
▁political	-7.81627
▁where	-7.82705
▁after	-7.8288
▁action	-7.82948
d	-7.83389
▁review	-7.83814
▁held	-7.83851
▁6	-7.84034
▁how	-7.84677
▁legal	-7.8505
▁persons	-7.85388
▁protection	-7.86043
▁Human	-7.88435
▁adopted	-7.8883
▁following	-7.88901
▁him	-7.89067
▁situation	-7.89194
▁three	-7.8948
▁high	-7.89527
▁now	-7.90095
▁effective	-7.90405
▁community	-7.90544
▁parties	-7.90807
▁taken	-7.91099
▁item	-7.91311
▁among	-7.91625
▁continue	-7.9172
▁President	-7.91812
▁capacity	-7.92111
I	-7.92209
▁December	-7.92619
▁same	-7.93427
▁peace	-7.93684
▁global	-7.93954
▁very	-7.94108
as	-7.94158
▁regard	-7.94592
▁access	-7.9513
▁used	-7.95718
▁role	-7.96157
▁special	-7.96574
▁each	-7.97553
▁"&	-7.98192
▁working	-7.98382
▁recommendations	-7.98384
▁established	-7.98972
▁while	-7.99481
▁set	-7.99619
▁E	-7.9972
▁good	-7.99842
▁progress	-8.0036
▁without	-8.00618
▁accordance	-8.00932
▁7	-8.01052
▁respect	-8.01056
▁data	-8.01206
▁way	-8.01334
▁reports	-8.01971
▁present	-8.02003
▁since	-8.02198
▁Organization	-8.02224
▁life	-8.02448
▁technical	-8.04389
▁nuclear	-8.04721
▁2008	-8.04983
▁2005	-8.0578
▁case	-8.0594
▁local	-8.06589
▁view	-8.07231
ly	-8.07785
▁Member	-8.07791
▁million	-8.08036
▁Programme	-8.08121
▁long	-8.08182
▁2006	-8.08351
▁full	-8.08504
▁15	-8.08867
▁gender	-8.08956
▁June	-8.09282
▁Africa	-8.0936
▁budget	-8.09406
▁violence	-8.09682
▁necessary	-8.10417
▁place	-8.10541
▁trade	-8.10768
▁cases	-8.10967
▁basis	-8.11338
▁Board	-8.11492
▁end	-8.11662
▁12	-8.11827
▁possible	-8.12495
▁did	-8.13145
▁2010	-8.134
▁area	-8.13426
▁general	-8.13431
▁just	-8.13701
▁2007	-8.13858
▁because	-8.13982
▁institutions	-8.14098
▁2009	-8.14155
▁8	-8.14233
▁increase	-8.14843
▁control	-8.1528
▁groups	-8.15319
▁policies	-8.15569
▁30	-8.1587
▁building	-8.16041
▁appropriate	-8.1609
▁2004	-8.16786
▁needs	-8.17154
▁available	-8.19252
▁specific	-8.1926
▁group	-8.19389
▁&#91;	-8.19497
▁region	-8.20106
▁&#93;	-8.20391
▁consideration	-8.20393
▁include	-8.20521
▁S	-8.2057
▁meetings	-8.20732
▁government	-8.20791
▁proposed	-8.20804
▁developed	-8.21288
▁9	-8.21346
▁Parties	-8.21803
▁day	-8.21833
▁project	-8.21943
▁July	-8.22223
▁African	-8.22472
▁20	-8.22584
on	-8.22722
▁11	-8.22902
▁issue	-8.23012
▁current	-8.23323
▁World	-8.23342
▁water	-8.23563
▁upon	-8.23585
▁society	-8.23599
▁2011	-8.23885
▁second	-8.2397
▁provisions	-8.23992
▁field	-8.24166
▁National	-8.24399
▁concerned	-8.24531
▁South	-8.2465
this	-8.24706
▁still	-8.25315
▁change	-8.25388
▁term	-8.25543
at	-8.25709
▁future	-8.25871
▁continued	-8.26029
▁military	-8.26052
▁total	-8.26336
▁note	-8.26597
▁even	-8.26749
▁know	-8.26915
▁d	-8.26938
▁plan	-8.27087
▁account	-8.27884
▁child	-8.2805
▁14	-8.28125
▁2003	-8.28192
▁framework	-8.28324
▁various	-8.28596
▁sector	-8.28855
▁promote	-8.28971
▁different	-8.2947
▁Social	-8.29564
▁noted	-8.29719
▁considered	-8.29755
▁required	-8.30369
▁2000	-8.30514
▁address	-8.30585
▁--	-8.30679
▁much	-8.30759
▁European	-8.30795
▁then	-8.30941
▁levels	-8.30964
▁help	-8.31112
▁sustainable	-8.3153
▁importance	-8.31613
▁2002	-8.31653
▁particularly	-8.31898
▁Court	-8.31903
▁given	-8.31962
▁us	-8.32112
▁Economic	-8.32252
▁delegation	-8.32292
▁technology	-8.32666
▁conflict	-8.33041
▁Fund	-8.3342
▁October	-8.33504
▁major	-8.33561
▁own	-8.33626
▁September	-8.3417
th	-8.34355
▁requirements	-8.34382
▁Department	-8.34415
▁civil	-8.34571
▁above	-8.34823
▁addition	-8.3504
▁last	-8.3517
▁participation	-8.35372
▁2012	-8.35506
▁13	-8.35585
▁service	-8.35687
e	-8.3584
▁operations	-8.36023
▁family	-8.3618
▁L	-8.36189
▁does	-8.36226
▁population	-8.36413
▁conditions	-8.3676
▁18	-8.36847
▁November	-8.36999
▁II	-8.37511
▁authorities	-8.37575
▁poverty	-8.37633
▁means	-8.37761
▁projects	-8.37941
▁2001	-8.38233
▁results	-8.38239
▁humanitarian	-8.38271
for	-8.38284
▁Secretariat	-8.38315
▁small	-8.38463
however	-8.38524
▁submitted	-8.38767
▁additional	-8.38828
▁impact	-8.38995
▁private	-8.39239
▁police	-8.39509
if	-8.39681
▁May	-8.39777
▁business	-8.39938
▁16	-8.40155
▁New	-8.40257
▁bodies	-8.40958
▁get	-8.41298
▁result	-8.41723
▁Law	-8.41895
▁several	-8.42028
▁market	-8.42059
▁B	-8.42106
▁agencies	-8.4213
▁go	-8.42884
▁approach	-8.43048
▁March	-8.43258
▁food	-8.43363
▁document	-8.43471
▁Working	-8.43715
▁towards	-8.43783
▁making	-8.44227
▁attention	-8.44261
▁environment	-8.45102
▁weapons	-8.45219
▁another	-8.45639
▁research	-8.45985
▁question	-8.46071
▁risk	-8.46169
▁men	-8.46225
▁Union	-8.46275
▁organization	-8.4633
▁whether	-8.46476
▁personnel	-8.46505
▁status	-8.4671
he	-8.46802
we	-8.46862
▁better	-8.46935
▁No	-8.47321
▁every	-8.47538
▁application	-8.47662
▁Mission	-8.47733
▁member	-8.48226
▁care	-8.4824
▁concern	-8.48338
to	-8.48359
▁key	-8.48547
▁third	-8.4866
▁systems	-8.48919
▁agreed	-8.48999
▁growth	-8.49011
▁increased	-8.49052
▁discrimination	-8.49115
▁person	-8.49401
▁cost	-8.49572
▁received	-8.49761
▁improve	-8.49812
▁force	-8.49828
▁representatives	-8.4988
▁context	-8.4997
▁1999	-8.49995
▁down	-8.50158
▁Women	-8.50285
▁establishment	-8.50352
▁domestic	-8.50556
▁17	-8.50752
▁especially	-8.5109
▁rule	-8.51383
▁give	-8.5151
▁costs	-8.51693
▁2013	-8.51831
▁January	-8.51846
▁April	-8.51927
▁31	-8.52192
▁study	-8.52328
▁therefore	-8.52477
▁might	-8.52633
▁21	-8.52956
▁request	-8.52991
▁monitoring	-8.5344
▁statement	-8.53573
▁mandate	-8.53574
▁called	-8.53773
▁Governments	-8.54091
▁requested	-8.54203
▁best	-8.54335
.1	-8.54635
▁rules	-8.54667
▁resolutions	-8.54708
▁problems	-8.5505
▁quality	-8.55161
▁representative	-8.55189
▁provision	-8.5548
▁adoption	-8.55667
▁consider	-8.5572
▁requests	-8.55724
▁legislation	-8.5601
▁reporting	-8.56038
▁existing	-8.56089
▁comprehensive	-8.56136
▁free	-8.56167
▁next	-8.56367
▁environmental	-8.56605
re	-8.56638
▁19	-8.56658
▁five	-8.56691
▁main	-8.56716
▁great	-8.57182
▁Action	-8.57213
▁amount	-8.57293
▁concerning	-8.57385
▁Chinese	-8.57612
▁man	-8.57659
▁1998	-8.57714
▁production	-8.57876
▁common	-8.58048
▁contained	-8.5813
▁recent	-8.58189
▁Rapporteur	-8.58207
▁land	-8.58308
▁Protocol	-8.58466
▁coordination	-8.58479
▁responsibility	-8.58535
▁four	-8.58724
▁P	-8.59
▁become	-8.59001
▁terms	-8.5909
▁fact	-8.59127
▁large	-8.59129
▁put	-8.59204
▁strengthen	-8.59273
▁don	-8.59451
▁come	-8.5946
▁justice	-8.59506
▁25	-8.59773
▁standards	-8.59773
▁rate	-8.59809
▁foreign	-8.59875
▁implement	-8.59893
▁found	-8.60231
▁however	-8.60421
▁back	-8.60439
▁subject	-8.60552
▁example	-8.60575
▁criminal	-8.60577
▁expressed	-8.61114
▁Affairs	-8.61491
▁procedures	-8.61491
▁treatment	-8.61882
▁included	-8.61885
▁energy	-8.61994
▁post	-8.62215
▁funds	-8.62311
▁often	-8.62326
▁governmental	-8.62339
▁off	-8.62399
▁due	-8.6244
▁Executive	-8.62591
▁response	-8.62947
▁least	-8.63293
▁fully	-8.63371
▁relating	-8.6339
▁already	-8.63465
▁administrative	-8.63578
▁taking	-8.63799
▁22	-8.64382
▁mechanisms	-8.64438
▁follow	-8.64587
▁challenges	-8.64787
▁principles	-8.6488
▁Declaration	-8.65073
▁agreement	-8.65339
▁income	-8.65585
▁High	-8.65971
▁develop	-8.66007
▁regarding	-8.6619
▁problem	-8.6651
▁practices	-8.66596
▁24	-8.66733
▁America	-8.6686
▁together	-8.67018
▁reported	-8.67293
▁school	-8.67499
▁significant	-8.6754
▁space	-8.67639
▁think	-8.67652
▁performance	-8.67728
▁analysis	-8.67841
▁investment	-8.67865
▁state	-8.68376
▁provides	-8.6852
▁Act	-8.68636
▁took	-8.69038
▁inter	-8.69595
▁armed	-8.69642
▁providing	-8.69775
▁23	-8.69866
▁past	-8.70146
▁days	-8.70204
▁addressed	-8.70208
▁assessment	-8.70359
▁Ministry	-8.70439
▁too	-8.70454
▁form	-8.7046
▁obligations	-8.70949
▁strengthening	-8.71028
▁planning	-8.71033
▁contributions	-8.71406
y	-8.71595
▁strategy	-8.71994
▁entitled	-8.72255
▁lack	-8.72379
▁practice	-8.72629
▁decisions	-8.72752
▁decided	-8.7302
▁February	-8.73156
▁early	-8.73206
▁paper	-8.73302
▁matter	-8.73381
▁power	-8.73443
▁August	-8.7346
▁equipment	-8.7358
▁UNDP	-8.73586
▁indigenous	-8.73871
▁meet	-8.74014
▁annex	-8.74033
▁here	-8.74342
▁effect	-8.74372
▁date	-8.74384
▁want	-8.74535
▁reform	-8.74886
▁employment	-8.74957
▁Advisory	-8.74963
▁cultural	-8.74998
▁interest	-8.75264
▁value	-8.7536
▁regular	-8.75368
▁office	-8.75569
▁Palestinian	-8.75877
▁always	-8.76369
▁consultations	-8.76445
▁table	-8.76917
▁establish	-8.76922
▁mission	-8.76961
▁economy	-8.76964
▁needed	-8.76974
▁light	-8.77359
▁line	-8.77379
▁around	-8.77423
▁victims	-8.77689
▁able	-8.77694
▁documents	-8.77833
▁East	-8.77853
▁secretariat	-8.78121
▁Arab	-8.78161
▁annual	-8.7823
▁focus	-8.78417
▁notes	-8.78631
▁self	-8.78794
▁open	-8.78832
▁section	-8.78849
▁according	-8.7886
▁position	-8.78874
▁prevention	-8.78982
▁commitment	-8.79052
▁age	-8.79172
▁yet	-8.79218
▁matters	-8.79651
▁D	-8.79702
▁disarmament	-8.79806
▁company	-8.7985
▁terrorism	-8.79948
▁equality	-8.79963
▁knowledge	-8.79976
▁say	-8.8003
▁individual	-8.802
▁basic	-8.80237
▁certain	-8.8026
▁actions	-8.80264
▁little	-8.80438
▁F	-8.80467
▁initiatives	-8.80653
▁26	-8.80866
▁Asia	-8.80982
▁28	-8.81331
▁promotion	-8.81426
▁To	-8.81771
▁property	-8.81914
▁body	-8.8228
▁peacekeeping	-8.82317
▁author	-8.8235
▁clear	-8.82401
▁operational	-8.82494
▁point	-8.8276
▁living	-8.82811
▁27	-8.82842
▁less	-8.82912
▁joint	-8.82939
▁Service	-8.82966
▁forces	-8.83051
▁home	-8.83394
▁p	-8.83529
▁dialogue	-8.83589
▁experience	-8.83591
▁few	-8.83797
▁Centre	-8.83908
▁old	-8.84061
▁crime	-8.84172
▁objective	-8.84176
▁funding	-8.84192
▁again	-8.84244
▁far	-8.84448
▁never	-8.8452
▁low	-8.8453
▁young	-8.8477
▁missions	-8.84782
but	-8.84845
▁expected	-8.85004
▁para	-8.85089
▁prevent	-8.85095
▁serious	-8.85111
ll	-8.85168
▁list	-8.85364
and	-8.85435
▁others	-8.85553
▁responsible	-8.85697
▁official	-8.85866
▁priority	-8.8604
▁today	-8.8633
▁money	-8.86485
▁using	-8.86579
▁plans	-8.87228
▁organized	-8.87269
▁achieve	-8.87394
▁laws	-8.87546
▁trafficking	-8.87638
▁communication	-8.87854
▁arms	-8.87897
▁reduction	-8.88022
▁Israel	-8.88204
▁greater	-8.88312
▁months	-8.88416
▁III	-8.88442
▁potential	-8.88726
▁procedure	-8.88873
▁course	-8.88878
▁principle	-8.8892
▁discussion	-8.88956
▁e	-8.89074
▁evaluation	-8.8908
▁letter	-8.89106
▁strategic	-8.89243
▁Representative	-8.8932
▁natural	-8.89847
▁statements	-8.89916
▁exchange	-8.90089
▁involved	-8.90208
▁promoting	-8.90242
▁workers	-8.90275
▁supported	-8.90604
▁partners	-8.90628
▁recommendation	-8.90643
▁higher	-8.90706
▁Iraq	-8.90927
▁nature	-8.91152
▁having	-8.91186
▁financing	-8.91198
▁recommended	-8.91376
▁biennium	-8.91383
▁previous	-8.91611
▁crisis	-8.91619
▁enhance	-8.91663
▁purpose	-8.91675
▁find	-8.91738
▁Central	-8.91788
▁1997	-8.91812
▁until	-8.91905
▁carried	-8.91994
▁cannot	-8.92021
▁sexual	-8.92134
▁HIV	-8.92328
▁peoples	-8.92336
▁1996	-8.92668
▁changes	-8.92693
▁awareness	-8.92876
▁violations	-8.92907
▁strategies	-8.92912
▁thus	-8.92927
▁affected	-8.93003
▁steps	-8.9302
▁29	-8.93184
▁Director	-8.93547
▁rural	-8.93655
▁essential	-8.93799
▁call	-8.93815
▁approved	-8.9397
▁forward	-8.94005
▁treaty	-8.94107
▁mechanism	-8.9422
▁girls	-8.94259
▁climate	-8.94341
▁facilities	-8.94478
▁implemented	-8.94987
▁American	-8.95109
▁Bank	-8.95194
▁limited	-8.95372
▁products	-8.95399
▁agreements	-8.95478
▁six	-8.95482
▁officials	-8.9551
▁G	-8.95532
▁issued	-8.95936
with	-8.96256
▁evidence	-8.96337
▁2014	-8.96434
▁forms	-8.96472
▁please	-8.96528
▁implementing	-8.96628
▁understanding	-8.96756
▁Ms	-8.96978
▁done	-8.96992
▁opportunities	-8.97014
▁increasing	-8.97088
▁operation	-8.97164
▁Article	-8.97508
▁whole	-8.97782
▁de	-8.97867
▁objectives	-8.97978
▁Division	-8.98108
▁acts	-8.98248
▁1994	-8.98334
▁experts	-8.98351
▁aimed	-8.98393
▁delegations	-8.98546
▁communities	-8.98554
▁behalf	-8.98802
▁committed	-8.98975
▁offices	-8.99141
▁air	-8.99284
▁going	-8.99304
▁medical	-8.99465
▁assist	-8.99577
▁adequate	-8.99653
▁overall	-8.99772
▁hand	-8.99795
▁facilitate	-8.99853
▁instruments	-9.00057
▁prepared	-9.00154
▁conduct	-9.0033
▁play	-9.00791
▁look	-9.01036
▁pay	-9.01155
▁benefits	-9.01159
▁strong	-9.01365
▁protect	-9.01482
▁why	-9.01629
▁arrangements	-9.01659
▁let	-9.01668
▁below	-9.01774
▁equal	-9.01899
▁safety	-9.01919
▁proposals	-9.01939
▁media	-9.02021
▁50	-9.02042
▁am	-9.02582
▁court	-9.02679
▁war	-9.02705
▁material	-9.02803
▁1995	-9.02887
when	-9.02897
▁hours	-9.02948
▁Chairman	-9.03024
▁English	-9.03141
▁currently	-9.03147
▁opportunity	-9.03189
▁Europe	-9.03319
▁Covenant	-9.03471
▁capital	-9.03486
▁Commissioner	-9.03551
▁US	-9.03562
▁presented	-9.03613
▁independent	-9.03631
▁Minister	-9.03668
▁face	-9.03816
▁informed	-9.03948
▁proposal	-9.04141
▁design	-9.04328
while	-9.04344
▁posts	-9.04362
▁processes	-9.04642
▁remain	-9.04703
▁functions	-9.04807
▁AIDS	-9.04961
▁stated	-9.05127
they	-9.05184
▁Treaty	-9.05205
▁labour	-9.05318
ve	-9.05388
▁questions	-9.05416
▁bring	-9.05423
▁individuals	-9.05431
▁love	-9.05453
▁goals	-9.05468
▁transfer	-9.05497
▁ensuring	-9.05585
▁reduce	-9.05654
▁People	-9.05717
▁administration	-9.05752
▁once	-9.05789
▁60	-9.05799
▁guidelines	-9.05847
▁Tribunal	-9.05873
▁conducted	-9.05914
▁close	-9.0612
▁Panel	-9.06138
▁team	-9.06299
▁exercise	-9.06421
▁wish	-9.06583
▁Add	-9.06667
▁direct	-9.06788
▁Permanent	-9.0721
.2	-9.07233
▁students	-9.07276
▁aspects	-9.07493
▁recommends	-9.07494
▁positive	-9.07533
▁Democratic	-9.07538
▁York	-9.07583
▁resource	-9.07616
▁effects	-9.07642
▁informal	-9.07809
S	-9.07823
▁poor	-9.07876
▁method	-9.07968
▁Millennium	-9.08018
▁real	-9.0803
▁authority	-9.08038
▁provisional	-9.08248
▁contribute	-9.08262
▁internal	-9.08342
▁death	-9.084
▁manner	-9.08583
▁primary	-9.08639
▁freedom	-9.08663
▁remains	-9.08747
▁Russian	-9.08791
▁away	-9.08795
▁"2	-9.08853
▁undertaken	-9.08879
▁Management	-9.08914
▁UN	-9.08941
▁items	-9.08976
▁reference	-9.09436
▁lead	-9.09448
▁negotiations	-9.09544
▁methods	-9.09843
▁return	-9.0998
▁communications	-9.10218
▁Japan	-9.10496
▁concerns	-9.10861
▁integrated	-9.10997
▁Plan	-9.11037
▁final	-9.11096
▁pursuant	-9.11176
▁contribution	-9.11177
▁fundamental	-9.11281
▁Information	-9.11624
▁structure	-9.11855
▁act	-9.12068
▁1993	-9.12071
▁language	-9.1215
▁infrastructure	-9.12194
▁share	-9.12504
▁calls	-9.12726
▁rates	-9.13072
▁drug	-9.13156
▁fifty	-9.13162
▁compliance	-9.13183
▁recognized	-9.13207
▁things	-9.13372
▁wide	-9.13485
▁believe	-9.1355
▁"1	-9.13703
▁industry	-9.13727
there	-9.13735
▁officers	-9.13799
▁materials	-9.13962
▁regions	-9.13963
▁companies	-9.14134
▁difficult	-9.14232
▁dated	-9.14449
▁model	-9.14541
▁articles	-9.14541
▁keep	-9.14854
▁short	-9.15098
▁allow	-9.15146
▁connection	-9.15302
▁itself	-9.15459
▁active	-9.15691
▁regulations	-9.15707
▁Agency	-9.15744
▁rather	-9.15823
▁former	-9.15985
▁kind	-9.16126
▁preparation	-9.16248
▁construction	-9.16267
▁text	-9.16317
▁Israeli	-9.16342
▁institutional	-9.16362
▁Trade	-9.16537
▁hope	-9.1665
▁identified	-9.16853
▁Charter	-9.16952
▁refugees	-9.17013
▁asked	-9.17179
▁achieved	-9.17311
▁participants	-9.18141
▁multilateral	-9.18147
▁benefit	-9.18305
▁range	-9.18395
▁job	-9.18418
▁Global	-9.18456
▁conference	-9.18513
▁Criminal	-9.18524
▁came	-9.18577
▁detention	-9.18602
▁Federation	-9.18663
▁ways	-9.18837
▁leave	-9.18954
▁vote	-9.19117
▁crimes	-9.19175
▁improving	-9.19203
▁effectively	-9.19326
▁enforcement	-9.19438
▁views	-9.19444
er	-9.19476
▁throughout	-9.19525
▁effort	-9.19537
▁i	-9.19585
▁judicial	-9.19624
▁live	-9.19907
▁left	-9.19975
▁substantive	-9.20029
▁introduced	-9.20045
▁Forum	-9.20183
▁says	-9.20659
▁40	-9.20685
▁name	-9.20704
▁fourth	-9.20743
▁commitments	-9.20846
▁half	-9.20884
▁critical	-9.20979
▁integration	-9.2105
▁Unit	-9.21368
▁across	-9.21417
▁referred	-9.21473
▁led	-9.21586
▁families	-9.21636
▁Geneva	-9.21667
▁create	-9.21691
▁Justice	-9.21748
▁outcome	-9.21754
▁outside	-9.21822
▁Code	-9.21902
▁schools	-9.21994
▁debt	-9.22008
▁claims	-9.22117
▁goods	-9.22252
▁activity	-9.22258
▁demand	-9.22741
▁indicated	-9.22751
▁Hong	-9.22938
▁words	-9.22946
▁Kong	-9.23014
▁participate	-9.23121
▁Pacific	-9.23135
▁Sudan	-9.23144
▁interests	-9.23279
▁times	-9.23284
▁entities	-9.23333
▁purposes	-9.23371
▁central	-9.23509
▁travel	-9.23531
▁governance	-9.23533
▁themselves	-9.23568
▁mind	-9.2367
an	-9.23691
▁"3	-9.23745
▁require	-9.23769
n	-9.23826
▁month	-9.23896
▁circumstances	-9.23958
▁supply	-9.24121
▁oil	-9.24156
▁assets	-9.24227
▁UNICEF	-9.24231
A	-9.24256
▁similar	-9.24487
▁paragraphs	-9.24498
▁transport	-9.24719
▁week	-9.24889
▁submit	-9.24891
▁got	-9.25011
▁scale	-9.25046
▁room	-9.25092
▁ongoing	-9.25101
▁relations	-9.25296
▁directly	-9.25387
▁culture	-9.25583
▁Institute	-9.25698
▁apply	-9.25741
▁house	-9.25755
▁brought	-9.25857
▁contract	-9.2592
▁elements	-9.25972
▁traditional	-9.25992
▁territory	-9.26023
▁price	-9.26044
▁Kingdom	-9.26044
▁show	-9.26171
▁re	-9.26511
▁side	-9.26748
▁summary	-9.26858
▁enable	-9.26917
▁standard	-9.26948
▁effectiveness	-9.27112
i	-9.27157
▁source	-9.2728
▁improved	-9.27362
▁build	-9.27395
▁estimated	-9.27471
▁India	-9.27501
▁whose	-9.27626
▁Review	-9.2772
▁factors	-9.27868
▁balance	-9.27993
▁Agreement	-9.28181
▁civilian	-9.28203
▁signed	-9.28302
▁network	-9.28319
▁centres	-9.28446
▁anti	-9.28457
▁soon	-9.28654
▁Summit	-9.28751
▁disabilities	-9.28854
▁revised	-9.28907
▁met	-9.28936
▁sixty	-9.29016
▁Services	-9.2913
▁later	-9.29145
▁guidance	-9.29199
▁maintenance	-9.29245
al	-9.294
▁sources	-9.29403
▁Constitution	-9.2942
▁applied	-9.29531
▁discussions	-9.29787
▁along	-9.29891
▁scope	-9.29893
▁although	-9.29939
▁UNCTAD	-9.3001
▁really	-9.30061
▁IV	-9.30127
▁deal	-9.30232
▁sessions	-9.30236
▁mentioned	-9.30287
▁average	-9.30309
▁something	-9.30413
▁includes	-9.30595
▁step	-9.3064
▁complete	-9.30841
▁un	-9.30972
▁fund	-9.31104
▁expert	-9.31107
▁core	-9.31107
▁Meeting	-9.31129
▁Health	-9.31396
▁welcomed	-9.31446
:	-9.31496
▁efficiency	-9.31499
▁billion	-9.31501
▁distribution	-9.31575
▁c	-9.31611
▁physical	-9.31958
▁stability	-9.32095
▁either	-9.32096
▁indicators	-9.32208
▁technologies	-9.32325
▁proceedings	-9.32399
▁aid	-9.32482
▁points	-9.32555
▁delivery	-9.32556
▁sectors	-9.32659
▁universal	-9.33034
▁city	-9.33046
▁Cooperation	-9.33047
▁seen	-9.3333
▁Party	-9.33359
▁events	-9.33384
tergovernmental	-9.33433
▁Korea	-9.33497
▁combat	-9.33561
▁single	-9.33564
▁known	-9.33593
▁head	-9.33684
▁initiative	-9.33738
▁parts	-9.33796
▁stakeholders	-9.33919
▁legislative	-9.3393
▁type	-9.3396
▁paid	-9.34072
▁investigation	-9.34077
▁situations	-9.34251
▁Canada	-9.34473
these	-9.3448
▁prior	-9.34643
▁claim	-9.34868
▁cause	-9.34999
.3	-9.35
▁relationship	-9.35222
▁Support	-9.35231
▁collaboration	-9.35234
▁peaceful	-9.35399
▁urban	-9.35414
▁takes	-9.35436
▁"4	-9.3545
▁comments	-9.35473
▁University	-9.35522
▁markets	-9.35584
Mr	-9.3577
▁thought	-9.35787
▁hold	-9.35915
▁ever	-9.35976
▁continues	-9.35984
▁start	-9.36019
▁went	-9.36343
▁ability	-9.36394
responsibilities	-9.36489
▁twenty	-9.3659
▁citizens	-9.36595
▁Public	-9.3672
▁task	-9.36733
▁border	-9.36746
▁studies	-9.3678
▁associated	-9.36796
▁priorities	-9.36816
▁encourage	-9.36978
▁1990	-9.37
▁Force	-9.37039
▁discussed	-9.37062
▁goal	-9.37132
▁abuse	-9.37152
▁torture	-9.37157
▁ground	-9.37174
▁leaders	-9.37174
▁Protection	-9.37316
▁carry	-9.37436
▁elections	-9.3744
.4	-9.37547
▁U	-9.37732
▁receive	-9.3775
▁emergency	-9.37892
▁ethnic	-9.37996
▁longer	-9.3804
▁likely	-9.3809
▁achieving	-9.38322
▁2015	-9.38384
▁success	-9.38403
▁relation	-9.38411
▁target	-9.3856
▁practical	-9.38897
▁loss	-9.39076
▁fifth	-9.39092
▁lower	-9.39127
▁growing	-9.39167
▁extent	-9.39359
▁personal	-9.39515
▁identify	-9.39557
▁Report	-9.39803
▁voluntary	-9.39838
▁debate	-9.39847
▁hard	-9.39924
▁reached	-9.40008
▁transition	-9.40075
▁completed	-9.4008
▁scientific	-9.40136
▁almost	-9.40247
▁Goals	-9.40413
▁addressing	-9.4053
by	-9.40804
▁"5	-9.40865
▁maintain	-9.40896
▁compensation	-9.41175
▁alia	-9.41287
▁In	-9.41352
▁co	-9.41398
▁vulnerable	-9.41399
▁continuing	-9.4143
▁external	-9.41485
▁adopt	-9.41492
▁states	-9.41947
▁election	-9.41973
▁threat	-9.42017
▁housing	-9.4207
▁UNEP	-9.42195
▁successful	-9.42213
▁designed	-9.42457
▁economies	-9.42567
▁permanent	-9.42618
▁conclusion	-9.42653
▁Regional	-9.42724
▁supporting	-9.42733
▁prices	-9.42761
▁religious	-9.42766
▁opinion	-9.42767
▁stage	-9.42846
▁commercial	-9.42871
▁partnership	-9.42914
▁units	-9.4296
▁enough	-9.42982
▁initial	-9.43026
▁invited	-9.4304
▁developments	-9.43164
article	-9.43209
▁OF	-9.43457
▁UNHCR	-9.43479
▁advice	-9.43787
▁woman	-9.43828
during	-9.43864
▁visit	-9.43888
▁specialized	-9.44028
▁welcomes	-9.4421
▁reason	-9.44239
▁57	-9.44241
▁reasons	-9.44254
▁determination	-9.4438
▁beyond	-9.44479
that	-9.44518
▁establishing	-9.44563
▁encouraged	-9.44615
▁THE	-9.44627
one	-9.44673
▁function	-9.4472
▁Headquarters	-9.44765
▁periodic	-9.44801
▁proliferation	-9.4487
▁class	-9.45051
▁expenditure	-9.45433
▁Caribbean	-9.45434
▁makes	-9.45513
▁feel	-9.45556
▁night	-9.45778
▁recently	-9.45817
▁Afghanistan	-9.45821
▁agency	-9.45871
▁creation	-9.45906
▁Congo	-9.46026
▁Crime	-9.46041
since	-9.46282
▁Non	-9.46446
▁solution	-9.46474
▁appreciation	-9.46586
▁France	-9.46588
▁West	-9.46631
▁female	-9.4681
▁positions	-9.46819
▁100	-9.47047
▁consensus	-9.47115
you	-9.47125
▁event	-9.47185
▁professional	-9.47264
▁consultation	-9.47353
▁majority	-9.47406
▁Foreign	-9.47441
▁tell	-9.47458
▁recovery	-9.47464
▁raised	-9.47473
▁export	-9.47487
▁educational	-9.47549
▁remained	-9.4763
▁seek	-9.47819
▁Room	-9.47957
▁approval	-9.47965
▁obligation	-9.48016
▁Political	-9.48184
▁Al	-9.4821
▁requires	-9.48217
▁big	-9.48357
▁violation	-9.48437
▁serve	-9.48445
▁challenge	-9.48529
▁V	-9.48629
▁65	-9.48634
▁heart	-9.48787
▁French	-9.48803
▁sub	-9.48831
▁youth	-9.48834
▁Environment	-9.48872
▁mother	-9.48925
▁detailed	-9.4924
▁created	-9.49356
▁M	-9.49465
▁road	-9.49496
o	-9.49697
after	-9.49715
▁follows	-9.49724
▁phase	-9.49774
furthermore	-9.4985
▁55	-9.49862
▁Chair	-9.49863
▁North	-9.49869
▁bilateral	-9.49924
▁concluded	-9.50002
▁leadership	-9.50011
she	-9.50022
▁cover	-9.50117
▁site	-9.50148
▁Beijing	-9.50172
▁move	-9.50188
▁statistics	-9.50264
▁test	-9.50345
▁read	-9.50416
▁CN	-9.50434
▁Administrative	-9.50781
▁Implementation	-9.50901
▁skills	-9.50968
▁58	-9.51054
▁sent	-9.51092
▁doing	-9.51243
▁disaster	-9.5133
▁...	-9.51465
▁terrorist	-9.51611
es	-9.51822
▁caused	-9.52119
▁applicable	-9.5215
▁compared	-9.52156
▁1992	-9.52223
▁59	-9.52267
▁product	-9.52267
▁covered	-9.52325
▁"6	-9.52371
▁Islamic	-9.52425
▁treaties	-9.52452
▁run	-9.52488
▁encourages	-9.52499
▁offer	-9.52594
▁61	-9.52703
▁procurement	-9.52719
▁clearly	-9.52772
.5	-9.52789
▁jurisdiction	-9.528
▁improvement	-9.52812
▁history	-9.5295
▁Disarmament	-9.52986
▁audit	-9.53017
g	-9.5302
▁displaced	-9.53046
▁courts	-9.53071
▁Iran	-9.53189
▁Latin	-9.53244
▁62	-9.53275
▁chapter	-9.53276
▁achievement	-9.53285
▁avoid	-9.53446
▁sufficient	-9.53496
▁original	-9.53521
▁suggested	-9.53557
▁Civil	-9.53559
▁agricultural	-9.53763
▁art	-9.53854
▁nothing	-9.53862
▁sharing	-9.53883
▁sea	-9.54016
▁Peace	-9.5405
▁accountability	-9.54074
▁trust	-9.54176
▁cross	-9.54241
▁settlement	-9.54325
▁regime	-9.54413
▁science	-9.54449
▁weapon	-9.5451
▁turn	-9.54598
▁confidence	-9.54694
▁lives	-9.54704
▁aim	-9.54733
▁enterprises	-9.5474
▁duty	-9.54844
▁though	-9.5486
▁beginning	-9.54885
▁despite	-9.54931
▁parents	-9.55014
▁net	-9.55026
▁Germany	-9.55065
▁plenary	-9.55073
▁temporary	-9.55098
▁Education	-9.55107
▁reflected	-9.55133
▁multi	-9.55211
▁began	-9.55332
▁64	-9.55383
▁applications	-9.55509
▁insurance	-9.55645
▁focused	-9.55653
▁destruction	-9.55712
▁Syrian	-9.55824
▁Section	-9.55919
▁reach	-9.56035
according	-9.5608
▁Administration	-9.56153
▁contact	-9.56186
▁movement	-9.56224
▁cash	-9.56301
▁mainly	-9.56326
▁record	-9.56413
▁alleged	-9.56417
▁tax	-9.56455
▁leading	-9.56578
te	-9.56716
C	-9.56874
▁operating	-9.56883
▁thing	-9.5693
▁illegal	-9.56968
▁respective	-9.56981
▁pre	-9.5699
▁submission	-9.57063
▁Middle	-9.57207
▁formal	-9.57941
▁told	-9.57982
▁Children	-9.58058
▁sound	-9.58126
▁concept	-9.58135
▁tools	-9.5816
▁heard	-9.5823
▁mass	-9.58233
▁written	-9.58276
▁actors	-9.5829
▁Cuba	-9.5831
▁monitor	-9.5834
▁credit	-9.58531
▁conclusions	-9.58543
▁industrial	-9.58638
▁efficient	-9.58681
▁consistent	-9.58686
▁presence	-9.58686
▁trial	-9.58759
▁payment	-9.58927
▁broad	-9.59069
▁partnerships	-9.59141
▁bank	-9.59228
▁finance	-9.59392
▁approaches	-9.59452
▁introduction	-9.5966
▁UNFPA	-9.5976
▁measure	-9.59823
▁53	-9.59824
▁judges	-9.59834
▁added	-9.5986
▁observations	-9.59902
▁System	-9.59983
▁63	-9.60211
▁Optional	-9.60256
▁learning	-9.60295
▁implications	-9.605
▁negative	-9.60559
▁guarantee	-9.60676
▁resulting	-9.60696
▁Mexico	-9.60871
▁appeal	-9.60887
▁criteria	-9.60974
moreover	-9.61031
▁generally	-9.61076
▁All	-9.61196
▁Federal	-9.61208
▁entry	-9.61287
▁35	-9.6135
▁series	-9.61492
▁understand	-9.61533
▁committee	-9.61537
▁48	-9.61543
▁Asian	-9.61931
▁useful	-9.61936
▁closely	-9.61941
▁content	-9.62022
▁ago	-9.62102
▁urges	-9.62106
▁damage	-9.62147
▁independence	-9.62155
▁safe	-9.622
▁senior	-9.62213
▁Joint	-9.62218
▁Child	-9.62264
▁involving	-9.62271
▁Discrimination	-9.62373
▁conferences	-9.62383
▁52	-9.62403
▁Association	-9.62479
▁seven	-9.62504
recalling	-9.62563
▁round	-9.62667
▁types	-9.62698
org	-9.62702
▁raising	-9.62767
▁instrument	-9.62795
▁near	-9.62887
▁Australia	-9.63031
▁host	-9.63176
2	-9.63224
▁actual	-9.63335
▁"7	-9.63363
▁consequences	-9.63408
▁H	-9.63415
▁sixth	-9.63467
▁launched	-9.63637
▁66	-9.63842
▁reduced	-9.6389
▁sanctions	-9.63953
▁Internet	-9.64002
▁God	-9.64036
▁fight	-9.64195
▁sex	-9.64236
▁complex	-9.64351
▁component	-9.64371
▁registration	-9.64379
▁54	-9.64446
▁transparency	-9.64519
▁shown	-9.64526
although	-9.64608
▁father	-9.64645
▁described	-9.64696
▁advance	-9.64833
▁unit	-9.64879
▁conflicts	-9.64964
▁minimum	-9.65071
▁56	-9.65176
▁medium	-9.65183
▁collection	-9.65271
▁forest	-9.65351
▁competition	-9.65525
▁lot	-9.65541
▁difficulties	-9.65688
▁electronic	-9.65719
▁planned	-9.65737
▁welcome	-9.65957
▁capacities	-9.65958
▁decides	-9.65966
▁reflect	-9.65981
▁Pakistan	-9.66076
▁Sustainable	-9.66144
▁risks	-9.66175
▁base	-9.66188
▁timely	-9.66286
▁followed	-9.66321
▁top	-9.66466
▁exploitation	-9.66477
▁limit	-9.66552
▁pressure	-9.66574
▁fire	-9.66644
▁try	-9.66702
▁waste	-9.66705
▁alternative	-9.66706
▁concrete	-9.66947
▁stressed	-9.67005
▁Persons	-9.67123
▁relief	-9.67205
▁32	-9.67276
▁gave	-9.67383
▁elected	-9.674
▁Vienna	-9.67626
▁1991	-9.67635
▁Lebanon	-9.67859
▁nor	-9.68018
▁actively	-9.68093
▁dollars	-9.68195
▁late	-9.68262
▁subregional	-9.6827
▁illicit	-9.68357
▁Bureau	-9.68393
▁true	-9.68484
▁survey	-9.68539
▁absence	-9.68581
▁causes	-9.68867
▁car	-9.69007
b	-9.69054
▁opening	-9.69097
▁coming	-9.69099
▁aircraft	-9.6913
▁Countries	-9.69149
▁rise	-9.69158
B	-9.69186
▁determine	-9.69218
▁Western	-9.69289
▁Brazil	-9.69363
▁enhancing	-9.69493
▁"8	-9.69509
▁ended	-9.69533
▁raise	-9.6957
▁donors	-9.69574
▁Authority	-9.69638
▁determined	-9.6964
so	-9.69922
▁urgent	-9.69932
▁recognition	-9.69964
▁island	-9.69997
▁34	-9.70127
▁banks	-9.70207
▁corruption	-9.7031
▁enhanced	-9.70532
▁modern	-9.70566
▁democratic	-9.70617
▁intended	-9.70621
▁saw	-9.70656
▁defined	-9.70742
▁Somalia	-9.70779
▁counter	-9.7093
▁33	-9.71137
▁prepare	-9.71183
▁increasingly	-9.71329
▁governments	-9.71352
E	-9.71396
▁membership	-9.71581
▁sure	-9.71724
▁mutual	-9.71747
▁fair	-9.71759
▁deployment	-9.71768
▁word	-9.71969
▁lost	-9.72028
▁NGOs	-9.72058
▁departments	-9.72064
▁mean	-9.72273
▁36	-9.72331
▁placed	-9.72419
▁computer	-9.72458
▁accepted	-9.72479
▁accounts	-9.72511
▁reducing	-9.72541
▁45	-9.72576
▁s	-9.72613
▁contributing	-9.72622
▁shared	-9.72692
▁idea	-9.72771
▁Prevention	-9.7288
▁Governing	-9.72896
▁failure	-9.7303
▁67	-9.7313
▁extended	-9.73134
▁respond	-9.73176
▁languages	-9.7321
▁published	-9.73269
▁looking	-9.73343
▁immediately	-9.73366
▁v	-9.73378
▁UNIDO	-9.73381
▁possibility	-9.73427
st	-9.73458
▁organizational	-9.73497
▁deep	-9.73794
▁Elimination	-9.73888
▁enterprise	-9.73954
▁immediate	-9.73978
▁allowed	-9.74101
▁Chief	-9.74131
▁discuss	-9.74405
▁documentation	-9.74413
▁seventh	-9.74475
▁definition	-9.74546
▁Police	-9.74559
▁prison	-9.74683
▁owing	-9.74787
▁marriage	-9.74816
▁Technology	-9.75062
▁sense	-9.75104
▁gas	-9.75165
▁COP	-9.75193
▁attacks	-9.7521
▁shows	-9.75215
▁emerging	-9.75259
▁migration	-9.75266
▁thank	-9.75307
▁forced	-9.7539
▁Officer	-9.75441
▁51	-9.75692
▁R	-9.75707
▁reviewed	-9.75712
amp	-9.75817
▁involvement	-9.75963
no	-9.76077
▁charge	-9.7613
▁consumption	-9.76241
▁Operations	-9.76336
▁highest	-9.76354
▁centre	-9.7642
▁expertise	-9.76482
r	-9.76496
▁percent	-9.76589
▁Territory	-9.76647
▁workshops	-9.76783
▁produced	-9.76876
▁civilians	-9.76921
▁Annex	-9.76966
▁solutions	-9.76981
▁usually	-9.76985
▁Labour	-9.77019
▁rehabilitation	-9.77068
▁started	-9.77074
▁"9	-9.77237
▁assessments	-9.77342
1	-9.77471
▁keeping	-9.77483
▁strengthened	-9.77511
▁Community	-9.77663
▁democracy	-9.77796
▁Nuclear	-9.77803
▁estimates	-9.77814
▁morning	-9.77826
▁percentage	-9.77857
▁represented	-9.78399
▁engaged	-9.78436
▁fields	-9.78507
▁Coordination	-9.78527
▁ask	-9.78674
▁recruitment	-9.78845
▁39	-9.78895
▁accounting	-9.78973
▁crucial	-9.78999
▁37	-9.79064
▁express	-9.79094
▁workshop	-9.79106
some	-9.79186
▁mandates	-9.79215
▁became	-9.79255
▁approximately	-9.79384
▁setting	-9.79402
▁options	-9.79407
▁category	-9.79408
▁ready	-9.79457
▁affairs	-9.79517
▁entire	-9.79542
▁direction	-9.79562
all	-9.7958
▁undertake	-9.79582
▁friends	-9.79785
▁book	-9.79833
▁alone	-9.79884
▁participated	-9.79986
▁press	-9.80092
▁49	-9.80157
▁cooperate	-9.80225
▁68	-9.80234
▁stop	-9.80341
▁affect	-9.80361
▁separate	-9.80442
▁donor	-9.80609
▁Guinea	-9.80625
▁expression	-9.80634
▁Strategy	-9.80655
▁eighth	-9.80738
▁values	-9.80784
▁representation	-9.80799
▁eight	-9.8094
▁www	-9.8097
▁urged	-9.81213
▁remaining	-9.81397
▁himself	-9.81533
▁racial	-9.81723
▁didn	-9.81728
▁emphasized	-9.81812
▁size	-9.82012
▁Rwanda	-9.82049
▁forty	-9.8224
▁learned	-9.82314
▁inclusion	-9.82318
▁coordinated	-9.82346
▁organs	-9.82354
▁"10	-9.82454
▁Egypt	-9.82471
▁defence	-9.82552
▁origin	-9.82579
▁processing	-9.82589
▁highly	-9.82595
▁rest	-9.82678
▁mine	-9.82722
▁places	-9.82741
▁K	-9.82882
▁refugee	-9.82897
▁earlier	-9.82982
▁dealing	-9.83057
▁records	-9.83265
▁Vice	-9.83316
▁produce	-9.83327
▁Legal	-9.83339
▁behind	-9.83372
▁occupied	-9.83421
▁learn	-9.83535
▁resulted	-9.8367
▁ninth	-9.839
▁influence	-9.84025
▁Kuwait	-9.84175
▁imposed	-9.84256
▁targets	-9.84457
un	-9.84467
▁etc	-9.84502
▁Palestine	-9.84757
▁executive	-9.848
▁enjoy	-9.84827
▁eyes	-9.84886
▁sometimes	-9.84946
▁headquarters	-9.85193
▁cut	-9.85302
▁networks	-9.85336
▁easy	-9.85369
▁won	-9.85477
▁findings	-9.85487
▁respectively	-9.85514
▁disease	-9.85611
▁assess	-9.85759
▁occupation	-9.8576
▁felt	-9.85823
▁users	-9.85833
▁Policy	-9.8588
▁Second	-9.85904
▁47	-9.86043
▁examination	-9.86082
▁closed	-9.86134
▁collective	-9.86158
▁Kosovo	-9.86171
▁Other	-9.86221
▁holding	-9.86253
▁conventions	-9.86331
▁agriculture	-9.86353
▁Rules	-9.86379
▁figure	-9.86381
under	-9.86395
▁chemical	-9.86436
▁subprogramme	-9.86448
▁factor	-9.86454
of	-9.86594
▁perspective	-9.86727
▁fuel	-9.86797
▁constitute	-9.86817
▁tool	-9.86824
▁floor	-9.86837
▁wife	-9.86886
▁looked	-9.86904
▁emphasis	-9.86986
▁combating	-9.86999
▁"11	-9.8707
▁speaking	-9.87078
▁quite	-9.87083
▁spirit	-9.87246
▁38	-9.87313
▁engage	-9.87317
▁everyone	-9.87396
▁observers	-9.87396
▁girl	-9.87565
▁appointed	-9.87585
▁speak	-9.87679
▁requirement	-9.87725
▁participating	-9.87765
▁details	-9.87833
▁website	-9.8786
▁fall	-9.87964
▁contributed	-9.87996
▁indicate	-9.88015
▁degree	-9.8802
▁statistical	-9.88048
▁listed	-9.88091
▁campaign	-9.8812
▁regulation	-9.8822
▁weeks	-9.88285
▁creating	-9.88289
▁daily	-9.8844
▁components	-9.88575
▁interested	-9.88614
▁honour	-9.88632
.6	-9.88664
▁structures	-9.88824
▁ratification	-9.8886
▁threats	-9.8888
▁works	-9.89008
▁integrity	-9.89022
▁inform	-9.89198
▁offences	-9.89309
▁registered	-9.89382
▁41	-9.89557
▁eliminate	-9.89602
▁Islands	-9.89637
▁contracts	-9.89681
▁observed	-9.89795
▁offered	-9.89921
▁page	-9.89952
▁bad	-9.90005
▁contains	-9.90022
▁worked	-9.90068
▁subsequent	-9.9018
▁grounds	-9.90267
▁authorized	-9.90347
▁specifically	-9.90367
▁secondary	-9.90378
▁Liberia	-9.90457
▁son	-9.90536
▁trying	-9.90599
▁44	-9.90646
▁gross	-9.90652
▁46	-9.90796
▁tasks	-9.90981
▁institution	-9.90996
▁accept	-9.91063
▁candidates	-9.91085
▁Indonesia	-9.91146
▁highlighted	-9.91201
▁reforms	-9.91289
.9	-9.91342
▁responses	-9.91364
▁software	-9.91506
▁entered	-9.9168
▁trends	-9.9173
▁whom	-9.91831
▁declaration	-9.91921
▁unless	-9.9193
▁department	-9.91972
▁zone	-9.92114
▁42	-9.92116
▁employees	-9.92154
▁EU	-9.92184
▁appointment	-9.92268
▁freedoms	-9.92302
▁internationally	-9.92403
▁Ireland	-9.92422
▁condition	-9.92422
▁punishment	-9.92504
▁Territories	-9.9252
▁Turkey	-9.92597
▁played	-9.92671
▁recorded	-9.92673
▁interpretation	-9.92708
▁drugs	-9.92757
▁Agenda	-9.92776
▁background	-9.92817
▁secure	-9.92817
▁faced	-9.92834
▁giving	-9.9285
▁sought	-9.92876
▁century	-9.9289
▁al	-9.92955
▁moment	-9.93086
▁significantly	-9.93149
▁agree	-9.93197
▁Research	-9.93199
▁70	-9.93305
▁recognize	-9.93396
▁rapid	-9.93456
▁Weapons	-9.93459
▁Framework	-9.93461
▁Italy	-9.93664
▁stock	-9.93792
▁owned	-9.93811
▁77	-9.93947
▁existence	-9.94036
▁vital	-9.94167
▁lessons	-9.94186
▁OHCHR	-9.94237
▁nations	-9.94296
▁investigations	-9.94303
▁T	-9.94323
▁AND	-9.94328
▁widely	-9.94334
▁visits	-9.94354
▁simple	-9.94417
▁seems	-9.94467
▁anything	-9.94492
▁completion	-9.94577
ness	-9.94599
▁spoke	-9.94677
▁vehicles	-9.94721
▁competent	-9.94769
▁"12	-9.94779
▁hear	-9.94794
▁Space	-9.94802
▁Sierra	-9.9486
▁courses	-9.94905
▁outcomes	-9.94997
▁failed	-9.95055
▁identification	-9.95062
▁Experts	-9.95072
▁Congress	-9.95144
▁obtained	-9.95169
▁minorities	-9.95242
▁namely	-9.95286
▁talk	-9.95299
▁diseases	-9.95369
▁strength	-9.95394
▁consent	-9.95491
▁categories	-9.95544
▁obtain	-9.95562
▁First	-9.956
▁sites	-9.95604
▁VI	-9.9561
▁outstanding	-9.95611
▁substantial	-9.95611
▁extend	-9.95683
▁cycle	-9.95747
▁Assistance	-9.95847
▁door	-9.95926
▁hands	-9.96069
▁Inter	-9.96082
▁Ambassador	-9.96255
▁marine	-9.9628
▁element	-9.96297
▁begin	-9.964
▁comply	-9.96471
▁proper	-9.96485
▁comes	-9.96492
▁allegations	-9.96538
▁Chamber	-9.96638
▁expenditures	-9.96639
▁largest	-9.96663
▁release	-9.96741
▁granted	-9.96817
▁O	-9.96852
▁religion	-9.96916
▁stand	-9.96968
▁80	-9.96995
▁stay	-9.97046
▁teaching	-9.97194
▁actually	-9.97209
▁seeking	-9.97215
able	-9.97387
▁migrants	-9.9739
▁experiences	-9.97439
▁cities	-9.97447
ealand	-9.97485
▁Peacekeeping	-9.97557
▁traffic	-9.9756
▁complaints	-9.97623
therefore	-9.97638
▁except	-9.97817
▁flow	-9.97937
▁Spain	-9.97971
▁considers	-9.98048
▁database	-9.98116
▁forum	-9.98172
▁strongly	-9.98216
▁losses	-9.98227
▁decide	-9.98357
▁delay	-9.98428
▁everything	-9.98524
▁funded	-9.98661
▁43	-9.98694
▁Cultural	-9.98763
▁Leone	-9.98858
▁otherwise	-9.98886
▁thematic	-9.99041
▁inclusive	-9.99157
▁expansion	-9.99159
▁Switzerland	-9.99258
▁aware	-9.99301
▁considerable	-9.99497
▁thirty	-9.99543
▁Chairperson	-9.99562
▁considering	-9.99767
▁teachers	-9.99851
▁availability	-9.99874
▁advisory	-9.99877
▁territorial	-9.99899
▁Control	-9.9991
▁Financial	-9.99916
▁Netherlands	-10.0008
▁presentation	-10.0023
▁mail	-10.0024
▁enter	-10.0027
▁Great	-10.0028
▁someone	-10.0031
▁minority	-10.0035
▁IAEA	-10.0035
▁jobs	-10.004
▁selected	-10.0041
such	-10.0044
▁facing	-10.0044
▁attack	-10.0045
▁emissions	-10.0046
▁regulatory	-10.0048
▁territories	-10.0051
▁constitutional	-10.0057
▁killed	-10.0059
▁opened	-10.006
▁supplies	-10.0062
▁trend	-10.0073
▁electoral	-10.0076
c	-10.0082
▁principal	-10.009
▁norms	-10.0095
▁"13	-10.0102
▁Gaza	-10.0112
▁Haiti	-10.0113
▁exist	-10.0113
▁front	-10.0114
▁instance	-10.0121
▁topic	-10.0122
▁maintained	-10.0139
▁preventing	-10.014
▁firm	-10.0162
▁Parliament	-10.0166
▁victim	-10.0167
▁functioning	-10.0181
▁instead	-10.0203
▁writing	-10.0205
▁sovereignty	-10.0209
▁specified	-10.0217
▁ill	-10.0242
▁diplomatic	-10.0243
▁theme	-10.0252
▁nation	-10.026
▁payments	-10.0264
▁search	-10.0284
▁linked	-10.0286
▁uses	-10.0287
▁previously	-10.0288
▁decrease	-10.0306
▁code	-10.0306
▁Sea	-10.0318
▁expenses	-10.0319
▁Fifth	-10.0321
▁sign	-10.0327
▁latest	-10.034
▁teams	-10.0345
▁globalization	-10.035
▁announced	-10.0353
▁reproductive	-10.0358
▁Field	-10.0367
▁Deputy	-10.0369
▁dissemination	-10.037
▁standing	-10.0371
▁Bosnia	-10.0371
▁N	-10.0372
▁differences	-10.0378
▁pointed	-10.039
▁carrying	-10.039
▁showed	-10.0397
▁90	-10.0403
▁engagement	-10.041
▁unable	-10.0412
▁Ministers	-10.0413
▁built	-10.0413
▁station	-10.0421
▁coverage	-10.0429
▁amendments	-10.0431
▁British	-10.0434
▁advantage	-10.0442
▁nationality	-10.0447
▁characteristics	-10.0447
▁draw	-10.0452
.7	-10.0453
▁concluding	-10.0461
▁inside	-10.0462
▁happy	-10.0491
▁advanced	-10.0493
▁investments	-10.05
▁white	-10.05
▁nearly	-10.0502
▁friend	-10.051
▁buy	-10.0513
▁Year	-10.0514
▁containing	-10.0514
▁realization	-10.0516
▁Argentina	-10.0526
▁duties	-10.054
▁subsidiary	-10.0544
▁identity	-10.0544
▁restrictions	-10.0552
▁Norway	-10.056
▁theory	-10.0561
▁Day	-10.0571
▁populations	-10.0572
his	-10.0581
▁oversight	-10.0582
▁sentence	-10.0605
▁El	-10.0606
▁Burundi	-10.0609
▁character	-10.0619
▁Cyprus	-10.0619
▁news	-10.0621
▁convened	-10.0626
▁targeted	-10.0642
▁heavy	-10.0642
▁"14	-10.0649
▁blood	-10.0661
▁Yugoslavia	-10.0671
▁minutes	-10.0678
▁numerous	-10.068
▁answer	-10.068
▁formulation	-10.0682
▁maximum	-10.0684
▁amounts	-10.0686
▁program	-10.0689
▁00	-10.069
▁surface	-10.07
▁located	-10.0707
▁Gender	-10.0709
▁birth	-10.0715
▁Prosecutor	-10.0716
▁cold	-10.0726
▁reintegration	-10.0728
▁Darfur	-10.073
ization	-10.0735
▁normal	-10.0743
▁hour	-10.0747
▁sustained	-10.0751
▁contents	-10.0754
▁complainant	-10.0754
▁sales	-10.0759
▁maintaining	-10.0763
▁technological	-10.0769
▁ideas	-10.0775
▁sale	-10.0778
▁supports	-10.0784
▁disability	-10.0784
▁Habitat	-10.0789
▁online	-10.0796
▁add	-10.08
▁choice	-10.0808
▁flows	-10.0814
▁ownership	-10.0816
▁elimination	-10.0817
▁reconciliation	-10.0817
▁middle	-10.0818
▁delivered	-10.0822
▁guide	-10.0828
▁aims	-10.0829
▁ad	-10.0834
▁reasonable	-10.0843
▁quickly	-10.0848
▁confirmed	-10.0848
▁fulfil	-10.0865
▁numbers	-10.0875
▁satisfaction	-10.0881
▁object	-10.0882
▁green	-10.0882
▁Lebanese	-10.0889
▁partner	-10.089
▁Decade	-10.0891
▁Food	-10.0892
▁favour	-10.0897
▁Technical	-10.0899
▁enjoyment	-10.0902
▁judge	-10.0903
▁Assistant	-10.0916
▁simply	-10.0917
▁Herzegovina	-10.0934
▁offence	-10.0941
▁Supreme	-10.0941
▁investigate	-10.0943
▁wanted	-10.0943
▁unemployment	-10.0948
▁mortality	-10.0953
▁h	-10.0956
▁"15	-10.0958
▁troops	-10.096
▁Prime	-10.0961
▁wishes	-10.0962
▁receiving	-10.0972
▁getting	-10.0973
▁endorsed	-10.0978
▁attend	-10.0979
▁69	-10.0989
Ivoire	-10.0996
▁rich	-10.1004
from	-10.1006
▁nine	-10.1012
D	-10.1014
my	-10.1016
▁governing	-10.1017
▁allocation	-10.1017
▁appear	-10.102
▁Third	-10.1025
▁worldwide	-10.103
▁updated	-10.1043
▁l	-10.1053
▁arising	-10.1053
▁transportation	-10.1056
▁reservations	-10.1058
▁AC	-10.1059
▁Population	-10.106
▁protected	-10.1071
▁recognizes	-10.1075
▁designated	-10.1081
▁generation	-10.1082
▁disasters	-10.1088
▁ten	-10.1088
▁older	-10.1089
▁speakers	-10.1089
▁Regulations	-10.1096
nd	-10.1096
▁trading	-10.11
▁board	-10.1103
▁tried	-10.1106
▁expresses	-10.1111
▁budgetary	-10.1112
▁combined	-10.1125
▁fixed	-10.1131
▁enabling	-10.114
▁achievements	-10.114
▁stress	-10.1148
▁encouraging	-10.1155
▁convention	-10.1162
▁link	-10.1169
thus	-10.1174
▁changed	-10.1178
▁kept	-10.1179
▁proportion	-10.1181
▁internally	-10.1185
▁latter	-10.1191
▁Britain	-10.1192
▁ratified	-10.1197
▁Training	-10.1197
▁initiated	-10.1202
▁assessed	-10.1212
▁returned	-10.122
▁equitable	-10.1222
▁sensitive	-10.1227
▁verification	-10.123
▁outer	-10.1233
▁fine	-10.1255
▁seem	-10.1258
▁speed	-10.1258
▁primarily	-10.1261
▁Nigeria	-10.1262
▁selection	-10.1264
▁preliminary	-10.1283
▁resolve	-10.1302
▁Northern	-10.1302
▁stations	-10.1305
▁diversity	-10.131
▁race	-10.1311
▁difference	-10.1319
▁clean	-10.1324
▁helped	-10.1329
▁asylum	-10.1332
▁corporate	-10.1334
▁penalty	-10.1342
▁finally	-10.1343
▁contain	-10.1347
▁"16	-10.1349
▁unique	-10.1352
▁amended	-10.1354
▁changing	-10.1356
▁systematic	-10.1369
▁saying	-10.1371
▁protecting	-10.1377
▁m	-10.1381
▁attended	-10.1386
▁productive	-10.1396
▁mainstreaming	-10.1405
▁heads	-10.1406
▁Colombia	-10.141
▁location	-10.1412
▁troop	-10.1416
l	-10.1423
▁names	-10.1423
▁And	-10.1432
▁structural	-10.1438
▁eradication	-10.1442
▁Co	-10.1446
▁accused	-10.1448
▁gap	-10.1451
▁Ukraine	-10.1457
▁amendment	-10.1459
▁preparing	-10.1462
▁occurred	-10.1471
▁option	-10.1475
▁Ethiopia	-10.1492
▁Trust	-10.1498
▁voice	-10.1508
▁mental	-10.1509
▁thousands	-10.1513
▁relatively	-10.1513
▁pursue	-10.1515
▁fear	-10.152
▁managers	-10.1528
▁paras	-10.1535
▁prosecution	-10.1536
▁believes	-10.1549
▁send	-10.1557
▁commission	-10.1571
▁figures	-10.1574
▁radio	-10.158
▁Sweden	-10.1592
▁publications	-10.1593
▁publication	-10.1597
▁frameworks	-10.1601
▁Humanitarian	-10.161
▁examine	-10.1612
▁estimate	-10.1616
▁entity	-10.163
▁becoming	-10.1636
▁examples	-10.1641
▁Spanish	-10.1643
▁spread	-10.1644
3	-10.1645
▁Internal	-10.1648
▁exports	-10.1661
▁sides	-10.1664
▁represent	-10.1665
▁thereby	-10.1673
▁variety	-10.1685
▁lines	-10.169
▁join	-10.169
▁passed	-10.17
▁incidents	-10.1702
▁multiple	-10.1706
▁Staff	-10.1714
▁manage	-10.1724
▁commissions	-10.1726
▁sustainability	-10.1727
▁refer	-10.1727
▁liability	-10.1734
▁dispute	-10.1735
▁Fourth	-10.1738
▁binding	-10.1743
▁ILO	-10.1748
▁pilot	-10.176
▁hoped	-10.1763
▁jointly	-10.1775
▁finding	-10.1781
▁arrest	-10.1785
▁committees	-10.1797
▁empowerment	-10.1802
▁released	-10.1805
▁observer	-10.1808
▁transparent	-10.1812
▁boy	-10.1819
▁fell	-10.1836
▁game	-10.1837
▁geographical	-10.1852
▁"17	-10.1855
▁red	-10.1865
▁Eastern	-10.1866
▁allocated	-10.1883
▁expand	-10.189
▁invites	-10.1892
▁Under	-10.19
▁facilitating	-10.1901
▁chemicals	-10.1902
▁believed	-10.1911
▁regularly	-10.1922
▁racism	-10.1926
▁socio	-10.1933
▁Initiative	-10.1947
▁yourself	-10.1948
▁drafting	-10.1951
▁user	-10.1956
▁innovative	-10.1962
▁transit	-10.1971
finally	-10.198
▁drawn	-10.1983
▁obstacles	-10.1984
uestions	-10.1999
▁Morocco	-10.2002
▁turned	-10.2014
▁intention	-10.2014
▁patients	-10.2015
The	-10.2016
▁tourism	-10.2016
▁adaptation	-10.2024
▁formed	-10.2025
▁attempt	-10.2035
▁extensive	-10.2038
▁rose	-10.2047
▁perform	-10.2053
▁message	-10.2057
▁inspection	-10.2057
▁fish	-10.2059
▁reconstruction	-10.2062
▁gives	-10.2066
▁ICT	-10.2076
▁impacts	-10.2084
▁improvements	-10.2089
▁coordinate	-10.209
▁severe	-10.2097
▁vehicle	-10.2102
▁legitimate	-10.2103
▁pollution	-10.2107
▁"19	-10.2114
▁web	-10.2118
▁"18	-10.2121
▁FAO	-10.2127
▁Indigenous	-10.213
▁image	-10.2136
▁beautiful	-10.2142
▁examined	-10.2147
▁burden	-10.2151
▁charges	-10.2152
▁investors	-10.2153
▁extension	-10.2159
▁vision	-10.2163
▁suffering	-10.2163
▁town	-10.2164
▁leaving	-10.2167
▁Principles	-10.2177
▁black	-10.2186
▁husband	-10.2197
▁Thailand	-10.2198
▁scheduled	-10.2204
▁declared	-10.2207
▁male	-10.221
▁conformity	-10.2211
▁notice	-10.2219
▁perhaps	-10.222
▁affecting	-10.2226
▁Kenya	-10.2227
▁reservation	-10.2231
▁earth	-10.2232
▁forth	-10.2247
▁check	-10.2249
▁savings	-10.2256
▁UNODC	-10.2263
▁doesn	-10.2264
▁plant	-10.2267
▁choose	-10.2279
▁fast	-10.2284
▁stable	-10.2304
▁attached	-10.2309
▁neither	-10.2311
▁Subcommittee	-10.2321
▁write	-10.2325
▁expanded	-10.2333
▁wrong	-10.2334
▁Paris	-10.2341
▁Iraqi	-10.2341
▁abroad	-10.2343
ers	-10.2352
▁powers	-10.2352
▁Uganda	-10.2353
▁transactions	-10.2355
▁preparatory	-10.236
▁controls	-10.2361
▁testing	-10.2363
▁UNESCO	-10.2373
▁Azerbaijan	-10.2373
▁pending	-10.2374
▁increases	-10.2387
▁Resources	-10.239
▁disputes	-10.2393
noting	-10.2395
▁prisoners	-10.2398
4	-10.2406
▁identifying	-10.2411
▁schedule	-10.2415
▁Myanmar	-10.2418
▁indeed	-10.2423
▁City	-10.2429
▁boys	-10.243
▁grave	-10.2431
▁London	-10.2431
▁Power	-10.2433
▁born	-10.2447
▁SR	-10.2448
▁currency	-10.2451
▁violated	-10.2458
▁constraints	-10.2464
▁bear	-10.2465
▁version	-10.2467
▁substances	-10.2471
▁capabilities	-10.2471
▁Energy	-10.2484
▁Rev	-10.2484
▁Terrorism	-10.2486
▁constructive	-10.2489
▁He	-10.2491
▁valuable	-10.2495
▁bringing	-10.2496
▁demands	-10.25
▁interim	-10.2506
▁Philippines	-10.2513
▁mines	-10.2519
▁satellite	-10.252
▁thinking	-10.2538
▁Jerusalem	-10.2543
▁preventive	-10.2544
▁train	-10.2544
▁grant	-10.2545
▁innovation	-10.2547
▁welfare	-10.2547
▁Project	-10.2551
▁meaning	-10.2564
▁employed	-10.2565
▁Status	-10.2572
▁His	-10.2582
▁music	-10.2583
▁It	-10.2585
▁import	-10.2596
▁eat	-10.2608
▁sanitation	-10.261
▁managed	-10.2621
▁extreme	-10.2623
▁reality	-10.2626
▁remedies	-10.2637
▁CEDAW	-10.2639
▁joined	-10.2641
▁teacher	-10.2645
▁decade	-10.2646
▁Lord	-10.2648
▁ahead	-10.2656
▁soldiers	-10.2656
▁migrant	-10.2662
▁links	-10.2666
▁covering	-10.2672
▁books	-10.268
▁served	-10.268
▁customs	-10.268
▁truth	-10.2685
▁discriminatory	-10.2691
▁Members	-10.2692
▁Refugees	-10.2694
▁arrested	-10.2699
▁reiterated	-10.2701
▁probably	-10.271
▁define	-10.272
▁scheme	-10.2727
▁safeguards	-10.2732
▁Georgia	-10.2737
▁acting	-10.2738
▁spent	-10.2738
▁launch	-10.2738
▁largely	-10.2743
▁extremely	-10.2745
▁recalled	-10.2749
▁consultative	-10.275
▁president	-10.2754
▁gold	-10.2757
▁explore	-10.2759
▁asset	-10.2763
▁appears	-10.2771
▁running	-10.2774
▁file	-10.278
▁reiterates	-10.2781
▁VII	-10.28
▁Chile	-10.2806
▁machine	-10.2815
▁Drugs	-10.2817
▁story	-10.282
▁Russia	-10.2826
▁monthly	-10.2828
▁mid	-10.2831
now	-10.2839
▁explained	-10.2842
▁"20	-10.2842
▁comment	-10.2844
▁advocacy	-10.2849
▁break	-10.2855
▁adjustment	-10.2856
▁letters	-10.2858
▁volume	-10.2859
▁panel	-10.2861
▁reply	-10.2862
▁equity	-10.2864
,000	-10.2866
▁trained	-10.2874
▁composition	-10.2876
▁Family	-10.2877
▁guarantees	-10.2877
▁Timor	-10.2879
▁south	-10.2882
▁larger	-10.2883
▁worth	-10.2883
▁reviews	-10.2885
▁NPT	-10.2885
▁remember	-10.2891
▁represents	-10.2892
▁moving	-10.2895
▁Network	-10.29
▁wall	-10.2901
▁easily	-10.2905
▁decline	-10.2914
▁focal	-10.2918
▁map	-10.2926
▁television	-10.2928
▁quarter	-10.2945
▁academic	-10.2962
.8	-10.2969
▁offers	-10.2972
▁fiscal	-10.2973
h	-10.2989
▁permit	-10.2998
also	-10.2999
▁update	-10.3003
▁knew	-10.3003
▁master	-10.3008
▁looks	-10.3009
▁perpetrators	-10.3011
▁limits	-10.3018
▁Foundation	-10.3034
▁75	-10.3041
ic	-10.3042
▁dignity	-10.3048
▁decades	-10.3055
▁Forms	-10.306
▁reading	-10.3068
▁overcome	-10.307
▁facts	-10.3072
▁treated	-10.3075
▁remote	-10.3077
▁On	-10.3078
▁Partnership	-10.3086
▁distributed	-10.3093
▁village	-10.3107
▁acceptance	-10.311
▁Forces	-10.3122
▁experienced	-10.3123
▁indicates	-10.3127
▁reaching	-10.3129
▁methodology	-10.3129
▁Scientific	-10.3138
▁weather	-10.314
▁dangerous	-10.315
▁helping	-10.3154
▁settlements	-10.3167
▁WTO	-10.3169
despite	-10.317
▁chance	-10.3173
▁carbon	-10.3173
▁Ad	-10.3175
▁officer	-10.3175
▁utilization	-10.3179
▁introduce	-10.3181
▁Task	-10.3195
man	-10.3195
▁judiciary	-10.3196
▁programming	-10.3197
▁J	-10.32
▁district	-10.3205
▁campaigns	-10.3209
▁suffered	-10.3211
▁hot	-10.3211
▁Saudi	-10.3212
▁seriously	-10.3229
▁broader	-10.3236
▁belief	-10.3239
▁bearing	-10.3245
▁features	-10.3245
▁Monitoring	-10.3247
▁Earth	-10.325
▁weight	-10.3255
▁north	-10.3263
▁staffing	-10.3267
▁popular	-10.3293
▁storage	-10.3297
▁Coordinator	-10.3301
▁seemed	-10.3322
▁techniques	-10.3324
even	-10.3328
▁Monday	-10.3339
▁talks	-10.3339
▁Budgetary	-10.3342
▁authors	-10.3342
▁Sub	-10.3344
▁"21	-10.3345
our	-10.3349
▁double	-10.3355
▁subsequently	-10.3365
▁mandated	-10.3371
▁supervision	-10.3391
▁mining	-10.3399
▁Algeria	-10.3403
▁stresses	-10.3406
▁mobile	-10.3409
▁track	-10.3411
▁pension	-10.3412
▁You	-10.3422
▁goes	-10.3422
▁association	-10.3424
▁humanity	-10.3426
▁transmitted	-10.343
▁depth	-10.3434
▁t	-10.3435
▁bill	-10.3438
▁demonstrated	-10.3441
▁reaffirms	-10.3446
▁output	-10.3446
▁career	-10.3449
▁Austria	-10.3454
▁Statute	-10.3458
▁imprisonment	-10.3458
▁warning	-10.346
▁involve	-10.3464
▁else	-10.3465
▁noting	-10.3467
▁starting	-10.3481
▁seminars	-10.3489
▁ship	-10.3493
▁assigned	-10.3505
▁serving	-10.3509
▁greatly	-10.3518
▁salary	-10.3518
▁Jordan	-10.3519
▁deliver	-10.3522
▁historical	-10.3525
▁cutting	-10.3532
▁transferred	-10.3538
or	-10.3541
▁roles	-10.3556
▁reflects	-10.3558
▁Malaysia	-10.3562
▁hoc	-10.3562
▁enemy	-10.3566
▁coordinating	-10.3575
▁complaint	-10.3577
▁studied	-10.3585
▁impunity	-10.3586
▁Movement	-10.3586
▁locations	-10.3588
▁performed	-10.3589
▁foundation	-10.359
▁continuous	-10.3597
▁acquisition	-10.3604
▁Bangladesh	-10.3605
▁friendly	-10.3611
▁controlled	-10.3612
▁fighting	-10.3618
▁anyone	-10.3619
▁outlined	-10.362
▁grow	-10.3622
▁southern	-10.364
▁slow	-10.3642
▁rising	-10.3645
▁contrary	-10.3647
▁associations	-10.3649
well	-10.3649
▁sets	-10.3655
accordingly	-10.3657
▁Planning	-10.367
▁Universal	-10.3671
▁bit	-10.3678
▁Safety	-10.3682
▁assisting	-10.3687
▁dead	-10.3694
▁street	-10.3699
▁vulnerability	-10.3706
▁evaluate	-10.3708
▁relative	-10.3713
▁WHO	-10.3714
▁hospital	-10.3715
▁resumed	-10.3716
▁OIOS	-10.372
▁Mechanism	-10.3722
▁LDCs	-10.3725
ity	-10.373
▁replace	-10.3731
▁biological	-10.3745
▁intellectual	-10.375
▁gaps	-10.375
▁corresponding	-10.3752
▁pattern	-10.3761
▁recommend	-10.3761
▁platform	-10.3762
▁Nairobi	-10.3768
▁subjected	-10.3768
▁gone	-10.3768
▁federal	-10.3769
▁engineering	-10.3773
rd	-10.3801
▁Belarus	-10.3808
▁pleased	-10.381
▁"22	-10.3825
▁purchase	-10.3828
▁competitive	-10.3835
V	-10.3836
▁doubt	-10.3836
▁arbitrary	-10.3841
▁oriented	-10.3843
▁Expert	-10.3856
▁operate	-10.3857
then	-10.3866
▁Peoples	-10.3866
▁Southern	-10.3874
▁directed	-10.3888
▁army	-10.3906
▁Science	-10.3908
▁focusing	-10.3912
▁disabled	-10.3934
▁insufficient	-10.3935
▁detained	-10.394
▁Red	-10.395
▁suitable	-10.3952
▁farmers	-10.3963
first	-10.3968
many	-10.3973
▁W	-10.3974
▁deliberations	-10.3976
▁commodity	-10.3978
▁topics	-10.3981
▁modalities	-10.3985
▁inflation	-10.3986
▁widespread	-10.3991
gt	-10.3997
▁household	-10.3998
▁seminar	-10.3999
▁invitation	-10.4007
▁opposition	-10.4011
▁temperature	-10.4011
▁papers	-10.4018
▁Professional	-10.4024
▁card	-10.4025
▁mobilization	-10.4027
▁societies	-10.4027
▁200	-10.4027
▁prohibited	-10.4032
▁ones	-10.4034
▁spending	-10.4039
▁hit	-10.4048
▁student	-10.4049
▁soil	-10.4049
▁gain	-10.4053
▁premises	-10.4062
what	-10.4066
▁balanced	-10.4071
▁conservation	-10.4073
▁models	-10.4077
▁execution	-10.408
▁Peru	-10.4095
▁intervention	-10.4102
▁path	-10.4103
following	-10.4106
▁completely	-10.4114
▁segment	-10.4119
▁John	-10.4124
▁coherence	-10.4126
▁buildings	-10.4127
▁industries	-10.4128
▁solidarity	-10.4129
▁loans	-10.4133
▁digital	-10.4134
▁sections	-10.4137
▁constitutes	-10.4141
▁wind	-10.4146
▁Croatia	-10.4147
▁thanks	-10.4152
▁periods	-10.4152
▁danger	-10.4153
▁Japanese	-10.4155
▁yesterday	-10.4157
▁Strategic	-10.4158
▁dealt	-10.4158
▁"23	-10.416
▁disposal	-10.416
▁deployed	-10.4163
▁hearing	-10.4165
▁appeals	-10.4178
▁GDP	-10.418
▁substance	-10.4185
▁legally	-10.4187
▁foster	-10.4188
▁prostitution	-10.4189
▁Independent	-10.4193
▁speech	-10.4195
▁Statistics	-10.4197
▁pass	-10.4198
▁Finland	-10.4216
▁charged	-10.4218
▁Friday	-10.4223
▁died	-10.4235
▁budgets	-10.4238
▁healthy	-10.4246
▁strict	-10.4247
▁briefing	-10.4248
▁anniversary	-10.4255
▁Eritrea	-10.4256
▁reaffirmed	-10.4257
▁complement	-10.4262
▁successfully	-10.4263
▁greatest	-10.4266
▁Sri	-10.427
▁sun	-10.427
▁save	-10.4273
▁wished	-10.4273
▁German	-10.4274
▁university	-10.4275
▁harm	-10.4283
P	-10.4283
▁War	-10.4288
▁relevance	-10.4295
▁UNOPS	-10.4295
▁Preparatory	-10.4304
▁newly	-10.4305
▁overview	-10.4312
▁stocks	-10.4314
▁promoted	-10.4316
▁resident	-10.4316
▁index	-10.4317
▁input	-10.4321
▁maternal	-10.4322
▁productivity	-10.4323
▁Torture	-10.4323
▁faith	-10.4328
▁picture	-10.4339
▁integrate	-10.4346
▁airspace	-10.4348
▁"24	-10.4356
▁lasting	-10.4357
▁rapidly	-10.4358
▁properly	-10.4359
▁chief	-10.4361
▁visited	-10.4363
▁bound	-10.4374
▁conventional	-10.4375
▁summer	-10.4377
▁suggestions	-10.4383
▁dynamic	-10.4387
▁witnesses	-10.4388
▁Cambodia	-10.4389
▁drive	-10.439
▁Finance	-10.439
▁Society	-10.439
▁vocational	-10.4396
▁competence	-10.4398
▁explain	-10.4401
▁functional	-10.4411
▁none	-10.4413
▁realize	-10.4442
▁moved	-10.4444
▁huge	-10.4447
▁inventory	-10.4448
▁advancement	-10.4461
▁Platform	-10.4465
▁voting	-10.4469
▁expect	-10.4475
▁film	-10.4478
▁Comprehensive	-10.4481
indeed	-10.4481
▁cluster	-10.4484
▁reliable	-10.4488
▁preparations	-10.4492
▁interventions	-10.4497
▁sponsors	-10.4511
▁fishing	-10.4519
▁calling	-10.4522
▁allows	-10.4531
▁Turkish	-10.4532
▁objects	-10.454
▁yes	-10.4553
▁Ministerial	-10.4556
▁barriers	-10.456
▁video	-10.4563
is	-10.4564
▁businesses	-10.4565
▁Nepal	-10.458
▁wider	-10.4586
▁firms	-10.4594
▁sports	-10.4595
▁Financing	-10.4597
▁homes	-10.4605
▁length	-10.4613
▁recalls	-10.4616
▁phone	-10.462
▁embargo	-10.463
▁Shanghai	-10.4631
▁Region	-10.464
recognizing	-10.464
▁telephone	-10.4645
▁playing	-10.4646
▁accessible	-10.4655
▁dollar	-10.4657
▁"25	-10.4657
▁Hoc	-10.4666
▁conducting	-10.4667
▁Guatemala	-10.4669
▁tomorrow	-10.4681
▁Poland	-10.4683
▁Singapore	-10.4689
▁revenue	-10.4689
▁envisaged	-10.4692
▁unilateral	-10.4692
▁acknowledged	-10.4693
▁equally	-10.4695
▁copies	-10.4704
▁NGO	-10.471
▁liberty	-10.4714
▁deeply	-10.4715
other	-10.4717
▁married	-10.4718
▁toward	-10.472
▁camps	-10.4721
▁posed	-10.4723
▁residence	-10.4725
▁package	-10.4737
▁consumer	-10.4739
▁crises	-10.474
▁box	-10.474
▁customers	-10.474
▁wealth	-10.4743
▁withdrawal	-10.4745
▁patterns	-10.4747
▁counsel	-10.4748
▁Angola	-10.4753
▁Excellency	-10.4759
▁certainly	-10.4765
▁reserve	-10.4773
▁laid	-10.4777
▁eye	-10.4778
▁transnational	-10.4784
▁myself	-10.4786
▁dedicated	-10.4787
▁Peacebuilding	-10.4787
▁emphasizes	-10.4792
▁ministerial	-10.4815
▁occur	-10.4816
▁Czech	-10.4822
▁Model	-10.484
▁kinds	-10.4843
▁doctor	-10.4844
▁neighbour	-10.4847
▁drawing	-10.4852
▁phenomenon	-10.4862
▁recognizing	-10.4864
▁regards	-10.4865
▁detail	-10.4865
▁inadequate	-10.4877
▁rape	-10.4878
▁facility	-10.4882
▁UNRWA	-10.4886
▁title	-10.4888
▁becomes	-10.4892
▁organize	-10.4894
▁residents	-10.4894
▁appeared	-10.4895
▁integral	-10.4896
▁interaction	-10.4896
▁formulated	-10.4897
▁1989	-10.4905
▁contingent	-10.4907
▁conclude	-10.4909
▁stood	-10.4912
▁undertaking	-10.493
▁Dr	-10.4933
over	-10.4943
▁manufacturing	-10.4944
▁walk	-10.4955
▁exception	-10.4956
▁incorporated	-10.497
▁aged	-10.497
▁outreach	-10.4985
▁tree	-10.499
▁adverse	-10.4993
▁remove	-10.5006
▁format	-10.5008
▁zones	-10.5016
▁Auditors	-10.5018
▁circulated	-10.5022
▁households	-10.5027
▁representing	-10.5028
▁significance	-10.5032
▁Kyoto	-10.5035
▁duration	-10.5037
▁explanation	-10.5038
▁Observer	-10.5041
▁"26	-10.5042
▁species	-10.5043
▁weak	-10.5046
▁fees	-10.5048
▁wait	-10.5048
▁n	-10.505
▁rejected	-10.5055
▁1980	-10.5069
▁adopting	-10.5072
▁"27	-10.5073
▁sleep	-10.5077
▁qualified	-10.5078
▁gains	-10.5079
▁allowance	-10.5081
▁covers	-10.5093
F	-10.5094
▁organ	-10.5102
▁desire	-10.5106
▁financed	-10.5106
▁frequently	-10.5106
▁plants	-10.5108
▁suggest	-10.5115
▁oral	-10.5116
▁Developing	-10.512
given	-10.5121
▁degradation	-10.5125
▁window	-10.5133
▁ex	-10.5134
▁Lanka	-10.5137
▁mercury	-10.5148
izing	-10.5152
▁moral	-10.5158
▁profit	-10.516
▁allowing	-10.5163
▁composed	-10.5167
▁stages	-10.518
▁flexible	-10.5183
▁carefully	-10.5188
▁demonstrate	-10.5188
▁Self	-10.5196
having	-10.5202
▁bed	-10.5206
▁equivalent	-10.5213
▁programs	-10.5213
▁212	-10.5213
▁devoted	-10.5214
▁movements	-10.5216
▁copy	-10.5224
▁Equality	-10.5232
▁solid	-10.5239
more	-10.5241
China	-10.5245
▁orders	-10.5253
▁dependent	-10.5256
▁flexibility	-10.5257
▁cell	-10.5258
▁brother	-10.5268
▁Change	-10.5272
▁claimed	-10.5275
▁cancer	-10.5282
▁feeling	-10.5308
▁Serbia	-10.5309
▁Ecuador	-10.5311
▁accordingly	-10.5312
▁powerful	-10.5313
▁Afghan	-10.5313
▁arbitration	-10.5324
▁hair	-10.5327
▁die	-10.5328
▁guaranteed	-10.5329
▁spend	-10.533
▁Small	-10.533
▁outputs	-10.5332
▁relationships	-10.5334
▁Belgium	-10.5339
▁applying	-10.5342
▁style	-10.5343
▁begun	-10.5345
▁assisted	-10.5356
▁Olympic	-10.5363
▁fill	-10.5368
▁leader	-10.5369
▁drew	-10.5371
▁devices	-10.5372
based	-10.5373
▁ratio	-10.5377
▁forums	-10.5382
▁proved	-10.5382
▁An	-10.5385
▁Team	-10.539
en	-10.5392
▁Island	-10.5394
▁revision	-10.5395
▁House	-10.5395
▁urge	-10.5397
▁acceptable	-10.5398
II	-10.5398
▁skin	-10.5401
▁manager	-10.5408
▁la	-10.5408
▁projected	-10.5415
▁happened	-10.5425
▁Part	-10.5428
▁Climate	-10.5431
▁tenth	-10.5443
▁District	-10.5445
▁refers	-10.5449
because	-10.5451
▁injury	-10.5464
▁highlight	-10.5467
▁behaviour	-10.5467
▁flight	-10.547
▁win	-10.5474
▁agents	-10.5476
where	-10.5481
▁Indian	-10.5482
▁73	-10.5489
▁CD	-10.5491
▁watch	-10.5498
▁School	-10.5501
▁negotiation	-10.5505
▁translation	-10.5507
▁Oversight	-10.5511
▁lose	-10.5513
▁sell	-10.5521
▁understood	-10.5523
▁Greece	-10.5529
▁northern	-10.553
▁arts	-10.5531
▁CRC	-10.5531
▁managing	-10.5532
▁ministries	-10.5533
▁"28	-10.5536
▁accession	-10.5536
▁ordinary	-10.5537
▁presidential	-10.554
▁psychological	-10.554
▁occasion	-10.5551
G	-10.5551
▁reaffirm	-10.5554
▁via	-10.5561
▁memory	-10.557
▁impossible	-10.5582
▁professionals	-10.5588
▁Venezuela	-10.5589
▁command	-10.5598
▁Costa	-10.5601
▁borders	-10.5606
M	-10.5608
▁lawyers	-10.5609
▁mitigation	-10.5614
▁secret	-10.5622
▁heat	-10.563
▁Promotion	-10.5634
▁Rome	-10.5653
▁Denmark	-10.5654
taking	-10.5654
▁San	-10.5655
▁drop	-10.566
▁grateful	-10.5662
▁arrangement	-10.5664
▁SBI	-10.5667
▁procedural	-10.5676
▁lay	-10.5679
▁Taiwan	-10.5683
ism	-10.5692
▁prohibition	-10.5696
▁adjustments	-10.5705
▁deaths	-10.5712
▁properties	-10.5721
▁Violence	-10.5723
▁"29	-10.5738
▁machinery	-10.5738
▁extradition	-10.5748
▁prohibit	-10.575
▁commended	-10.5758
▁determining	-10.5759
▁expanding	-10.5762
▁considerations	-10.5769
▁intelligence	-10.5776
▁hundred	-10.5778
nevertheless	-10.5788
▁correct	-10.5789
▁excellent	-10.5793
most	-10.5808
reaffirm	-10.5814
▁biennial	-10.5838
▁remedy	-10.5849
▁Military	-10.5862
▁proceed	-10.5871
▁violent	-10.5872
▁wants	-10.5874
▁Arabia	-10.5875
▁Agriculture	-10.5879
those	-10.5882
▁Roma	-10.5882
▁mention	-10.5885
through	-10.5889
▁forests	-10.5897
▁cooperative	-10.59
▁submissions	-10.5903
▁mostly	-10.5908
▁Integrated	-10.591
▁dark	-10.591
▁accurate	-10.5918
▁transmission	-10.5922
▁Business	-10.5923
▁Operation	-10.5923
▁pain	-10.5924
▁ban	-10.5927
▁aspect	-10.5928
▁adequately	-10.5929
▁requiring	-10.5931
▁separation	-10.5937
▁tolerance	-10.5945
▁root	-10.595
▁Open	-10.5952
▁aggression	-10.5953
▁incident	-10.5967
▁cells	-10.5977
▁1988	-10.5982
▁formation	-10.5991
5	-10.5994
▁signature	-10.6012
est	-10.6018
▁capable	-10.6019
▁72	-10.6025
▁lived	-10.6034
▁talking	-10.6035
▁commend	-10.6036
▁wage	-10.6039
▁millions	-10.6047
▁peacebuilding	-10.6052
▁notification	-10.6057
▁quick	-10.6067
▁custody	-10.6069
▁shift	-10.6071
▁consultants	-10.6076
▁color	-10.608
▁For	-10.6084
▁One	-10.6089
▁transfers	-10.6093
▁producing	-10.6095
▁consolidated	-10.6096
▁Palestinians	-10.6098
▁Standing	-10.6122
▁intolerance	-10.6122
▁belonging	-10.6139
▁steel	-10.6139
▁commit	-10.614
▁Tanzania	-10.614
▁reserves	-10.6141
▁Mali	-10.6145
▁denied	-10.6151
▁medicine	-10.6152
▁arrived	-10.6152
ons	-10.6152
▁sovereign	-10.6154
▁brief	-10.6155
▁coastal	-10.6155
▁requesting	-10.6163
▁We	-10.6163
▁eastern	-10.6166
▁provinces	-10.6167
▁scientists	-10.6168
▁entering	-10.617
▁college	-10.6171
▁missing	-10.6173
▁generated	-10.6174
▁collected	-10.6174
▁maritime	-10.6176
▁TV	-10.6183
▁tests	-10.6189
▁combination	-10.619
▁banking	-10.6193
us	-10.6199
▁award	-10.6203
▁removal	-10.6206
▁valid	-10.6208
▁seeks	-10.6212
▁distance	-10.6214
▁Kazakhstan	-10.6219
▁consolidation	-10.622
ized	-10.6226
▁closer	-10.6227
▁protocol	-10.6227
▁driven	-10.6239
▁transmit	-10.624
▁journalists	-10.6245
▁detainees	-10.6251
▁finds	-10.6256
▁willing	-10.6259
▁isn	-10.626
▁Senegal	-10.6267
further	-10.6269
▁"30	-10.6274
T	-10.6276
▁handling	-10.6281
▁chain	-10.6282
▁Defence	-10.6287
▁dream	-10.6289
▁Procedure	-10.6292
▁g	-10.6293
▁marked	-10.6308
▁biggest	-10.6315
▁river	-10.6319
▁Water	-10.6319
▁brain	-10.6319
▁bottom	-10.6324
▁Treatment	-10.6325
▁electricity	-10.6327
▁Web	-10.6327
▁Tuesday	-10.6329
▁Washington	-10.6336
▁meant	-10.6336
▁witness	-10.634
▁applies	-10.6346
▁Ghana	-10.6348
▁sectoral	-10.6349
▁receipt	-10.6349
▁feet	-10.6371
▁schemes	-10.6374
▁researchers	-10.6376
▁stronger	-10.6385
▁Corr	-10.6389
▁UNCITRAL	-10.6389
▁generate	-10.6391
▁hunger	-10.6392
▁SBSTA	-10.6399
▁Rica	-10.641
▁exploration	-10.6415
▁Process	-10.642
▁vast	-10.6427
▁observation	-10.643
▁exposure	-10.6432
▁square	-10.6438
▁Uruguay	-10.6439
▁reviewing	-10.6442
O	-10.6447
▁filed	-10.6447
▁98	-10.6449
▁surveys	-10.645
▁constant	-10.6452
▁repatriation	-10.6458
▁investigated	-10.6461
▁offering	-10.6467
▁Rio	-10.648
▁Tunisia	-10.6487
▁hazardous	-10.6492
▁employers	-10.6495
▁displacement	-10.6499
▁reportedly	-10.6515
K	-10.6516
▁71	-10.6516
▁king	-10.6518
▁liabilities	-10.6518
▁waiting	-10.6523
▁rely	-10.6528
▁f	-10.6529
▁capability	-10.6534
u	-10.6535
▁baby	-10.6536
▁subjects	-10.6536
▁Doha	-10.6537
▁presents	-10.6548
▁blue	-10.6549
▁Budget	-10.655
▁Portugal	-10.6551
▁derived	-10.6558
▁biodiversity	-10.6559
▁"31	-10.6568
▁customer	-10.6569
▁fresh	-10.6571
▁frame	-10.6571
H	-10.6575
▁signing	-10.6577
▁Ban	-10.6582
▁95	-10.6584
▁clarify	-10.6586
▁municipal	-10.6587
▁delays	-10.6587
▁76	-10.6587
▁responded	-10.6595
▁depend	-10.6596
▁Reduction	-10.6602
▁suffer	-10.6603
▁relate	-10.6607
▁shares	-10.6607
▁branch	-10.661
▁hopes	-10.6614
▁regardless	-10.662
▁lists	-10.6634
▁animals	-10.6638
▁retain	-10.664
▁trees	-10.6641
▁gradually	-10.6644
▁universities	-10.6656
▁conjunction	-10.6657
▁shape	-10.6662
▁depends	-10.6668
▁resolved	-10.6671
▁demobilization	-10.6671
▁Counter	-10.6676
▁Use	-10.6677
▁attempts	-10.6685
▁destroyed	-10.6686
▁accountable	-10.6686
▁renewed	-10.669
▁85	-10.669
▁invite	-10.6692
▁marketing	-10.6693
▁League	-10.67
▁instances	-10.6709
N	-10.671
▁explosive	-10.6711
once	-10.6714
▁exists	-10.672
▁atmosphere	-10.6721
▁struggle	-10.6727
▁nationals	-10.6732
▁ESCAP	-10.6737
▁Wednesday	-10.6739
▁lies	-10.6742
▁extrabudgetary	-10.6744
▁collect	-10.6746
▁suggests	-10.6747
▁Armenia	-10.6747
▁convinced	-10.6755
▁extra	-10.6755
▁thousand	-10.6761
▁Thursday	-10.6762
▁customary	-10.6762
▁Nam	-10.6762
▁administering	-10.6766
▁replaced	-10.6769
▁season	-10.6771
▁device	-10.6772
▁harmful	-10.6772
▁division	-10.6776
▁MDGs	-10.6779
▁Libyan	-10.6784
▁afternoon	-10.6788
▁transmitting	-10.6791
less	-10.6791
▁Occupied	-10.6799
▁vacancy	-10.68
▁intensify	-10.6802
▁ending	-10.6803
▁commodities	-10.6804
▁consists	-10.6805
▁judgement	-10.6806
ncreased	-10.6807
▁maybe	-10.6808
▁drinking	-10.6815
▁transitional	-10.6826
▁labor	-10.6828
▁western	-10.6829
▁animal	-10.683
▁smaller	-10.6831
▁Mrs	-10.6835
▁laundering	-10.6838
▁grants	-10.6838
▁filled	-10.6839
▁regarded	-10.6841
▁forthcoming	-10.6844
▁et	-10.6849
▁Euro	-10.6857
▁port	-10.6859
▁gonna	-10.686
▁frequency	-10.6862
▁province	-10.6863
▁fisheries	-10.6864
▁contractual	-10.6866
▁Environmental	-10.687
▁enforced	-10.6874
▁annually	-10.6874
atar	-10.6883
▁solve	-10.6884
▁sorry	-10.6892
▁VIII	-10.6892
▁harassment	-10.6897
▁Anti	-10.6897
▁analytical	-10.6898
▁If	-10.6899
▁realized	-10.6906
▁evaluations	-10.691
▁transaction	-10.6916
▁camp	-10.6923
▁Armed	-10.6929
▁facilitated	-10.693
▁Youth	-10.693
▁Introduction	-10.6933
▁balances	-10.6935
▁assessing	-10.6937
▁summit	-10.6941
▁CP	-10.6944
▁alternatives	-10.6945
▁comparison	-10.6945
▁prospects	-10.6946
▁monetary	-10.6958
▁seized	-10.6958
▁amounted	-10.696
▁restricted	-10.6968
▁whatever	-10.6969
▁"32	-10.697
▁Chad	-10.6974
▁HRC	-10.6975
▁accident	-10.6981
▁union	-10.6981
▁count	-10.6983
▁GEF	-10.6987
▁Center	-10.6988
▁parameters	-10.699
▁store	-10.6994
▁motion	-10.7007
▁anticipated	-10.7009
▁piece	-10.7015
▁Road	-10.7021
today	-10.7027
▁eligible	-10.7034
▁environmentally	-10.7035
▁exchanges	-10.7042
▁undermine	-10.7046
▁dog	-10.7048
▁renewable	-10.7051
▁accelerate	-10.7054
▁spring	-10.7055
▁agent	-10.7056
▁pertaining	-10.7058
▁parallel	-10.7058
▁expectations	-10.7062
▁formulate	-10.7066
▁instructions	-10.7067
▁genuine	-10.707
▁Proliferation	-10.7071
▁daughter	-10.7075
▁certificate	-10.7078
▁description	-10.7085
▁ON	-10.7085
▁underlying	-10.7093
▁continent	-10.7099
▁963	-10.7101
▁heading	-10.7101
▁"33	-10.7103
▁incurred	-10.7109
▁linkages	-10.7118
▁pursued	-10.7118
▁sold	-10.7123
▁falling	-10.7124
▁mothers	-10.7128
▁driving	-10.7137
▁coherent	-10.7137
▁distinction	-10.7138
▁74	-10.714
▁advantages	-10.7153
▁wastes	-10.7153
▁perfect	-10.7159
▁coal	-10.7165
▁merely	-10.717
▁divided	-10.7175
▁houses	-10.7175
▁happen	-10.7177
▁register	-10.7181
▁evening	-10.7185
▁Salvador	-10.7192
▁assembly	-10.7206
▁dimension	-10.7208
▁citizen	-10.721
▁restructuring	-10.7216
▁accompanied	-10.7216
▁Adviser	-10.722
▁discharge	-10.722
▁j	-10.7222
▁Heads	-10.7226
▁transformation	-10.7227
▁negotiating	-10.7228
▁necessity	-10.7231
▁dimensions	-10.7237
▁famous	-10.7238
▁Assessment	-10.7241
▁advances	-10.7245
ation	-10.7245
▁reflecting	-10.725
▁providers	-10.7255
▁300	-10.7256
▁constituted	-10.726
▁prove	-10.7265
.12	-10.7268
▁pro	-10.7272
▁Racial	-10.7274
its	-10.7276
▁consumers	-10.7279
▁removed	-10.7282
▁dry	-10.7287
▁refused	-10.7292
similarly	-10.7294
▁responding	-10.7305
▁incentives	-10.7307
▁limitations	-10.7315
▁concepts	-10.7315
▁Inspection	-10.7317
▁east	-10.7318
▁lawyer	-10.7319
▁difficulty	-10.7325
▁Romania	-10.7326
▁facilitation	-10.7331
▁injured	-10.7331
▁plays	-10.7348
▁99	-10.7349
▁120	-10.7352
▁terrorists	-10.7355
▁couple	-10.7359
▁contacts	-10.7362
▁"34	-10.7379
▁ancient	-10.738
▁objection	-10.7386
▁Sixth	-10.7395
▁compulsory	-10.74
▁closing	-10.7402
▁organizing	-10.7403
▁WFP	-10.7411
▁supplementary	-10.7414
▁inequality	-10.7419
▁inputs	-10.7426
▁respected	-10.7428
▁TO	-10.7433
▁director	-10.7441
▁parliamentary	-10.7451
▁Obama	-10.7459
▁twice	-10.746
▁78	-10.7463
▁Constitutional	-10.7473
▁macroeconomic	-10.7479
▁issuance	-10.7481
▁x	-10.7482
▁Bill	-10.7482
▁incorporate	-10.7484
▁subparagraph	-10.7487
▁sort	-10.7487
▁Bolivia	-10.7491
▁sponsor	-10.7495
▁accommodation	-10.7503
▁ratify	-10.7505
▁adults	-10.7505
▁liaison	-10.7506
▁observe	-10.7511
▁defenders	-10.7513
▁Communications	-10.7515
▁fit	-10.7517
▁500	-10.752
▁ordered	-10.7535
▁Army	-10.7539
▁center	-10.7541
▁putting	-10.7542
▁connected	-10.7543
▁OECD	-10.755
▁ammunition	-10.7553
▁micro	-10.7558
▁elderly	-10.756
▁Mauritius	-10.757
▁unto	-10.7571
▁acquired	-10.7572
▁Bissau	-10.7589
▁involves	-10.7593
▁Employment	-10.7593
▁match	-10.7596
▁rain	-10.7596
▁Land	-10.7599
▁overseas	-10.7605
▁gained	-10.7605
▁tables	-10.7606
▁Head	-10.7608
▁mutually	-10.761
▁attributable	-10.7611
▁warm	-10.7612
▁Acting	-10.7613
▁trouble	-10.7615
▁tend	-10.7616
▁CO	-10.7617
▁feature	-10.7623
▁mandatory	-10.7627
▁Trafficking	-10.7645
▁drink	-10.7649
▁signal	-10.7651
▁excessive	-10.7652
▁normally	-10.7658
▁Greek	-10.7665
▁clothes	-10.767
▁Ordinance	-10.7673
▁Guide	-10.7674
▁loan	-10.7678
▁detection	-10.7679
▁harmonization	-10.768
▁provincial	-10.7682
▁deemed	-10.7682
▁mode	-10.7682
▁"35	-10.7684
▁0	-10.7684
▁Building	-10.7685
▁fraud	-10.7689
ary	-10.7691
▁immigration	-10.7699
▁IPSAS	-10.77
▁listen	-10.7701
do	-10.7702
▁Cross	-10.7705
▁opinions	-10.7706
▁resistance	-10.7711
▁emphasize	-10.7714
▁http	-10.7718
▁pace	-10.772
▁replies	-10.7723
▁invasion	-10.7724
▁fail	-10.7734
▁headed	-10.7735
▁mobilize	-10.7739
▁truly	-10.7746
.10	-10.7748
▁disseminate	-10.7749
▁interference	-10.7749
▁heritage	-10.775
▁glass	-10.7753
▁mark	-10.7756
▁Transport	-10.7759
▁nutrition	-10.776
▁notably	-10.7765
▁meaningful	-10.7777
▁pregnancy	-10.7782
▁forget	-10.7788
▁indicator	-10.7789
▁securities	-10.779
▁Transitional	-10.7796
▁continuation	-10.78
▁Guidelines	-10.7802
▁reinforce	-10.7808
▁measurement	-10.7809
▁FCCC	-10.7815
▁exclusion	-10.7821
▁clearance	-10.7824
▁prescribed	-10.7828
▁quantity	-10.7833
▁killing	-10.7834
▁attitude	-10.7835
▁careful	-10.7844
▁clients	-10.7845
▁broken	-10.785
▁votes	-10.7852
▁hotel	-10.7852
▁Local	-10.7852
▁handle	-10.7853
▁speaker	-10.7856
▁client	-10.7858
▁Industrial	-10.7869
▁freely	-10.7871
▁Ombudsman	-10.7877
▁permitted	-10.7878
▁Chapter	-10.7883
▁assume	-10.7886
▁clinical	-10.7887
▁autonomous	-10.7888
▁commerce	-10.789
▁Cameroon	-10.789
▁introducing	-10.7892
▁"36	-10.79
▁relates	-10.7901
▁minute	-10.7903
▁showing	-10.7906
▁exceptional	-10.7908
▁o	-10.791
▁closure	-10.792
▁strictly	-10.7926
▁bridge	-10.793
▁resort	-10.7931
▁Investment	-10.7932
▁unity	-10.7938
▁deprived	-10.7944
▁comprising	-10.7946
▁replacement	-10.7947
▁Yemen	-10.7948
▁bus	-10.7952
▁remarks	-10.7953
▁pregnant	-10.7959
▁proof	-10.7964
▁propose	-10.7973
▁thereof	-10.7973
▁telecommunicati	-10.7977
▁circle	-10.7984
L	-10.8
▁desertification	-10.8006
▁81	-10.8012
▁servicing	-10.8022
▁xenophobia	-10.8025
▁St	-10.8031
▁Hungary	-10.8032
▁sit	-10.8036
▁Street	-10.8045
▁mouth	-10.8047
▁seat	-10.8052
▁Saint	-10.8053
▁arise	-10.8057
▁sum	-10.8065
▁hospitals	-10.8065
her	-10.8068
▁Session	-10.8069
▁NLB	-10.8069
▁afraid	-10.8076
▁"37	-10.8083
new	-10.8084
let	-10.809
▁Disabilities	-10.8093
▁mobility	-10.8101
▁diverse	-10.8103
▁literacy	-10.811
▁necessarily	-10.8117
▁Penal	-10.8119
▁manufacture	-10.8122
▁persistent	-10.8135
▁politics	-10.8139
▁texts	-10.814
▁Nicaragua	-10.8141
▁conducive	-10.8142
▁92	-10.817
▁Province	-10.8176
▁signs	-10.8177
▁landlocked	-10.8183
▁references	-10.8183
▁minor	-10.8184
▁adult	-10.8188
▁consist	-10.8194
ambia	-10.8195
▁Mongolia	-10.8195
▁Jamaica	-10.8207
▁cultures	-10.8207
▁technique	-10.8217
▁logistics	-10.8225
▁wood	-10.8231
▁97	-10.8233
▁eventually	-10.8237
▁villages	-10.8243
▁orientation	-10.8245
▁Li	-10.8251
▁prosperity	-10.8253
▁breach	-10.8254
▁declarations	-10.8255
▁Uzbekistan	-10.828
▁sentenced	-10.8281
▁intensive	-10.8282
▁operative	-10.8284
▁preserve	-10.8287
▁happiness	-10.8291
▁interactive	-10.8314
▁consequence	-10.8314
▁IMF	-10.8319
▁west	-10.833
▁Viet	-10.8331
▁150	-10.8332
▁grade	-10.8333
▁Outer	-10.8343
▁93	-10.8346
▁citizenship	-10.8355
▁occupying	-10.8357
▁seats	-10.836
▁appreciate	-10.8362
▁Korean	-10.8363
▁airport	-10.8364
▁"38	-10.8368
▁Main	-10.8371
▁As	-10.8372
▁briefings	-10.8373
▁ocean	-10.8377
▁beneficiaries	-10.8377
▁ourselves	-10.8377
▁causing	-10.8383
▁entirely	-10.8384
▁Montreal	-10.8385
not	-10.8385
▁sister	-10.8391
▁79	-10.8393
▁"39	-10.8395
▁decreased	-10.8395
▁contrast	-10.8397
▁Customs	-10.84
▁imports	-10.8401
▁massive	-10.8404
▁mountain	-10.8418
▁genocide	-10.8422
▁candidate	-10.8426
▁sponsored	-10.8435
▁assumed	-10.8438
▁hundreds	-10.8443
▁appoint	-10.8446
▁1986	-10.8449
▁Company	-10.8449
▁nice	-10.8451
▁reductions	-10.8452
▁consistently	-10.8456
consequently	-10.8456
▁Prohibition	-10.8464
▁82	-10.847
▁accomplishments	-10.8471
▁River	-10.8474
6	-10.8475
▁Drug	-10.8479
▁metal	-10.8479
▁"40	-10.8488
▁possession	-10.85
▁knows	-10.8502
▁conviction	-10.8505
▁96	-10.8506
▁attitudes	-10.8513
▁themes	-10.8517
▁orally	-10.8521
▁obvious	-10.8521
▁behavior	-10.8525
▁absolute	-10.8527
Oh	-10.8532
▁clarification	-10.8544
▁Americans	-10.8547
▁competitiveness	-10.8547
▁hosted	-10.8548
▁revealed	-10.855
▁winter	-10.8551
ntergovernmental	-10.8552
▁83	-10.8561
▁paying	-10.8572
▁interesting	-10.8575
▁Issues	-10.8585
▁chosen	-10.8588
▁juvenile	-10.8588
▁describe	-10.8588
▁FDI	-10.8589
▁salaries	-10.8591
▁This	-10.8592
▁focuses	-10.8593
▁soft	-10.8596
▁library	-10.8607
▁Basel	-10.8607
▁suspected	-10.8609
▁helps	-10.8609
▁treat	-10.8611
▁ran	-10.8615
▁CRP	-10.8616
▁wear	-10.8618
▁earthquake	-10.8619
▁prejudice	-10.8626
▁Faso	-10.8629
▁targeting	-10.8632
▁kill	-10.8634
▁guided	-10.8639
&#91;	-10.8643
▁employee	-10.8648
▁logistical	-10.8655
▁channels	-10.8663
▁1,000	-10.8663
▁abuses	-10.8665
▁trip	-10.8667
▁consult	-10.8672
▁declined	-10.8681
▁elsewhere	-10.8684
▁prisons	-10.8689
▁presidency	-10.8691
another	-10.8699
among	-10.87
▁87	-10.8701
▁patient	-10.8701
▁foot	-10.8701
▁error	-10.8702
▁reaction	-10.8705
▁What	-10.8706
▁classes	-10.8708
▁repeated	-10.872
▁drought	-10.8722
▁makers	-10.8722
▁dates	-10.8733
▁secured	-10.874
▁taxes	-10.8744
▁leaves	-10.875
▁Conventions	-10.875
▁ODA	-10.8753
▁survival	-10.8757
▁impose	-10.8757
▁David	-10.8758
▁evident	-10.8764
▁eliminating	-10.8764
▁CONF	-10.8768
▁Procurement	-10.8773
▁grown	-10.8773
▁wages	-10.8773
▁herself	-10.8775
▁addendum	-10.8783
▁See	-10.8784
▁Evaluation	-10.8788
▁favourable	-10.8788
▁analyses	-10.879
▁unions	-10.879
▁measured	-10.8796
▁subsidies	-10.8798
▁generations	-10.8799
▁Area	-10.8799
▁delegates	-10.8799
▁easier	-10.8801
,500	-10.8803
▁servants	-10.8805
▁fulfilment	-10.8807
▁shelter	-10.8811
▁Relations	-10.8816
p	-10.882
▁profile	-10.882
▁trials	-10.8823
▁credibility	-10.8823
▁enhancement	-10.8826
▁Work	-10.8827
▁Burkina	-10.8838
▁Ocean	-10.8838
▁elaboration	-10.8839
▁repair	-10.8843
R	-10.8847
▁sky	-10.8856
▁UK	-10.8865
▁cruel	-10.8866
▁Arms	-10.8868
▁restore	-10.8868
▁recall	-10.8871
▁addresses	-10.8876
▁stopped	-10.8878
▁retirement	-10.8882
▁Corruption	-10.8884
▁Developed	-10.8884
▁applicant	-10.8885
▁congratulate	-10.8889
▁stands	-10.8896
▁players	-10.89
▁"41	-10.8902
▁Bush	-10.8902
▁supplement	-10.8908
▁Migration	-10.8912
▁tons	-10.8913
lt	-10.8914
▁86	-10.8916
▁threatened	-10.8921
f	-10.8922
le	-10.8926
▁regulate	-10.8933
▁offset	-10.8933
▁memorandum	-10.8939
▁liberalization	-10.8949
▁Decree	-10.8953
▁fax	-10.8959
▁proceeds	-10.8959
▁firmly	-10.8965
▁catch	-10.8966
▁enabled	-10.898
▁argument	-10.898
▁Emergency	-10.898
▁surveillance	-10.8986
▁safeguard	-10.8987
▁Closed	-10.8988
▁INF	-10.8991
▁Games	-10.8993
▁electric	-10.9001
▁Tajikistan	-10.9003
▁stipulated	-10.9011
▁appropriation	-10.9012
▁convening	-10.9015
▁comparative	-10.9016
▁Directorate	-10.902
▁calculated	-10.9023
▁approve	-10.9025
▁Appeals	-10.9026
▁architecture	-10.9027
▁penalties	-10.9031
▁pages	-10.904
▁saving	-10.9041
▁acute	-10.9042
▁ice	-10.9044
▁UNIFIL	-10.9045
▁sentences	-10.9052
▁counselling	-10.9056
▁fruit	-10.9057
▁shot	-10.9058
▁expulsion	-10.9061
▁amend	-10.9065
▁Standards	-10.9068
▁uniform	-10.9077
▁suggestion	-10.9085
before	-10.9087
▁84	-10.9088
▁roads	-10.9089
▁Protocols	-10.9095
▁tel	-10.9107
▁exposed	-10.9109
▁Sahara	-10.9114
▁progressive	-10.9117
▁indicating	-10.9118
▁historic	-10.9121
▁mediation	-10.9122
▁prompt	-10.9128
▁systematically	-10.9129
▁moon	-10.913
▁emergencies	-10.9132
▁chap	-10.9132
▁That	-10.9135
▁touch	-10.9138
▁appointments	-10.9144
▁combatants	-10.9145
▁91	-10.9145
▁Least	-10.9151
▁obtaining	-10.9151
▁turning	-10.9157
▁whenever	-10.9157
▁"42	-10.9163
▁exceed	-10.9164
▁manual	-10.9166
▁pool	-10.9168
▁beings	-10.9171
▁sat	-10.9172
▁merits	-10.9173
▁interview	-10.9179
▁Branch	-10.9182
▁Audit	-10.9187
▁acquire	-10.9189
▁ministers	-10.9193
▁dropped	-10.9193
▁occasions	-10.9194
▁Montenegro	-10.9195
▁vessels	-10.9197
ist	-10.9202
▁zero	-10.9202
▁prosecutors	-10.9203
▁Leste	-10.9205
▁movie	-10.9206
▁Alliance	-10.9207
▁Air	-10.9223
▁imperative	-10.9227
▁inquiry	-10.9232
▁momentum	-10.9235
▁Re	-10.9237
▁gets	-10.9239
▁94	-10.9244
▁"43	-10.9245
▁Settlements	-10.9247
▁chaired	-10.9248
▁Strip	-10.9248
imbabwe	-10.9249
▁88	-10.925
▁disclosure	-10.925
▁disadvantaged	-10.9251
▁organic	-10.9253
▁consolidate	-10.926
▁wrote	-10.9263
▁couldn	-10.9265
▁promise	-10.9266
▁complexity	-10.9269
▁IDB	-10.9274
▁radiation	-10.9274
▁smooth	-10.9275
▁deadline	-10.9276
▁regimes	-10.9277
▁Interim	-10.928
▁sight	-10.928
▁Facility	-10.9281
▁claimant	-10.9285
▁USD	-10.9294
▁spare	-10.9295
please	-10.9298
▁Post	-10.9302
▁grass	-10.9312
▁evolution	-10.9315
▁Mozambique	-10.9319
▁convicted	-10.9321
▁underlined	-10.9322
▁adolescents	-10.9325
▁dinner	-10.9335
▁leads	-10.9341
▁deposit	-10.9345
▁twentieth	-10.9347
▁mainstream	-10.9348
second	-10.935
▁Activities	-10.9355
▁malaria	-10.9356
▁Sector	-10.9358
▁block	-10.9359
▁employer	-10.9361
▁classification	-10.9362
▁"44	-10.9368
▁coffee	-10.9369
▁concerted	-10.9369
▁replied	-10.9376
▁exactly	-10.9377
▁delayed	-10.9387
▁estate	-10.9392
▁thereto	-10.9394
▁enormous	-10.9395
▁faces	-10.9399
▁entrusted	-10.9401
▁Combat	-10.9402
▁waters	-10.9405
▁inhuman	-10.9408
▁durable	-10.9409
▁tangible	-10.9411
▁strike	-10.9412
▁lie	-10.9413
▁reiterate	-10.9419
▁Slovenia	-10.9419
▁noise	-10.9432
▁Test	-10.9439
▁curriculum	-10.944
▁municipalities	-10.9442
▁contemporary	-10.945
▁violate	-10.9455
▁named	-10.9456
▁Bulgaria	-10.9462
▁willingness	-10.9475
▁promptly	-10.9477
▁fashion	-10.948
ally	-10.9486
▁09	-10.9486
▁Survey	-10.9488
▁fired	-10.9489
▁Organized	-10.9489
▁characterized	-10.9493
▁calendar	-10.9497
▁shop	-10.95
▁Arabic	-10.9504
▁endorse	-10.9506
▁certification	-10.9506
welcoming	-10.9507
▁sport	-10.9511
▁slightly	-10.9513
yes	-10.9518
▁ultimately	-10.9524
▁potentially	-10.9526
▁outline	-10.9526
▁complementary	-10.9528
▁tackle	-10.9531
▁holders	-10.9532
▁satisfied	-10.9532
▁suspended	-10.9532
yet	-10.9536
▁administered	-10.9537
▁caught	-10.9538
▁Australian	-10.9541
▁depending	-10.9545
▁budgeting	-10.9549
▁recruited	-10.9551
two	-10.9552
▁Chemical	-10.9552
▁sick	-10.9556
.11	-10.9565
▁enforce	-10.9566
▁suppliers	-10.9568
▁greenhouse	-10.9568
▁yuan	-10.9571
▁worst	-10.9571
▁methodologies	-10.9571
▁cease	-10.9573
,200	-10.9578
▁suspension	-10.9579
▁chair	-10.9585
▁MONUC	-10.9586
▁heavily	-10.9588
▁deprivation	-10.9589
▁facto	-10.9591
▁Strengthening	-10.9592
▁corporations	-10.9593
▁acid	-10.9598
▁iron	-10.96
▁fewer	-10.96
▁monitored	-10.96
▁decent	-10.96
▁authorization	-10.9601
▁prevented	-10.9603
▁whereas	-10.9604
▁false	-10.9606
▁attract	-10.9606
▁tribunal	-10.9608
ce	-10.9611
▁uphold	-10.9611
▁tea	-10.9612
,600	-10.9623
▁emerged	-10.9624
▁expensive	-10.9631
▁seekers	-10.9633
▁arm	-10.964
▁Right	-10.9643
▁Educational	-10.9644
▁enshrined	-10.9645
▁Library	-10.9656
▁Oh	-10.9656
▁1987	-10.9657
▁murder	-10.966
▁selling	-10.9665
▁Atomic	-10.9665
▁bar	-10.9666
▁89	-10.967
▁contractors	-10.9671
▁"46	-10.9675
▁Benin	-10.9682
▁analyzed	-10.9682
▁algorithm	-10.9684
▁thorough	-10.9687
meanwhile	-10.9687
▁"45	-10.9695
▁feedback	-10.9695
▁fee	-10.9695
▁invest	-10.97
,400	-10.971
▁sole	-10.971
▁NEPAD	-10.9712
▁sitting	-10.9715
▁holds	-10.9717
▁granting	-10.9722
▁milk	-10.9723
▁sufficiently	-10.9725
▁integrating	-10.9729
J	-10.9732
▁enjoyed	-10.9737
▁bought	-10.9739
▁concentration	-10.974
▁feasible	-10.9741
▁doctors	-10.9743
▁insecurity	-10.9762
▁admissibility	-10.9763
▁subregion	-10.9766
▁experiment	-10.9768
▁cars	-10.9769
▁unlawful	-10.9769
▁Interior	-10.9771
▁analyse	-10.9776
▁limitation	-10.9776
▁occupational	-10.9778
▁thereon	-10.9783
▁1967	-10.9783
▁degrading	-10.9785
ia	-10.9786
▁engine	-10.9787
▁UNIFEM	-10.98
▁Official	-10.98
III	-10.9804
▁GC	-10.9805
▁messages	-10.9805
▁ball	-10.9806
▁brings	-10.9811
▁profits	-10.9816
▁inhabitants	-10.982
▁scene	-10.9823
▁protocols	-10.9823
.15	-10.9829
,800	-10.983
▁110	-10.983
▁era	-10.9834
▁files	-10.9835
▁nevertheless	-10.9836
▁mixed	-10.9838
▁cards	-10.9845
▁substantially	-10.9846
▁reimbursement	-10.9846
▁eradicate	-10.9851
▁plus	-10.9855
▁sir	-10.9858
▁generating	-10.9864
▁Measures	-10.9866
▁lands	-10.9869
▁engaging	-10.9872
▁worse	-10.9872
▁pretty	-10.9872
▁severely	-10.9874
▁adjusted	-10.9877
▁pursuit	-10.9879
▁endeavour	-10.9886
▁restoration	-10.9888
▁flowers	-10.9894
▁Legislative	-10.9899
▁1985	-10.9901
▁serves	-10.9902
▁refrain	-10.9902
▁portion	-10.9903
▁boost	-10.9913
▁satisfactory	-10.9913
▁Commonwealth	-10.9916
▁credible	-10.9916
▁confirm	-10.9917
▁Syria	-10.9917
▁wave	-10.9918
▁accounted	-10.9921
▁emission	-10.9925
▁beneficial	-10.9927
▁modified	-10.9931
▁intends	-10.9933
▁possibly	-10.9936
▁display	-10.9938
▁regrets	-10.9939
▁"48	-10.9939
▁Representatives	-10.9943
▁attendance	-10.9944
▁aviation	-10.9947
▁destination	-10.9957
▁partly	-10.996
▁Consultative	-10.9961
▁brand	-10.9964
▁rock	-10.9965
▁returns	-10.9969
▁regret	-10.9975
▁RIGHTS	-10.9976
▁deals	-10.9985
▁channel	-10.9989
▁boat	-10.9992
▁prevalence	-10.9995
▁termination	-10.9998
▁Be	-11.0001
▁haven	-11.0003
ive	-11.0005
▁pick	-11.0006
▁retained	-11.0006
▁auspices	-11.0007
,100	-11.001
▁sample	-11.0012
▁Iranian	-11.0012
▁therein	-11.0017
▁initiate	-11.003
▁105	-11.0034
▁communicate	-11.0035
▁Libya	-11.0037
▁adapt	-11.0039
,900	-11.0042
▁soul	-11.0044
▁Their	-11.0047
▁Biological	-11.0048
▁spite	-11.0054
▁"47	-11.0057
▁measuring	-11.0076
▁mitigate	-11.0078
▁Pension	-11.0085
▁vis	-11.0091
▁encountered	-11.0097
▁awarded	-11.0104
▁discipline	-11.0106
be	-11.0111
▁Cuban	-11.0115
▁Durban	-11.0116
▁pose	-11.012
▁finished	-11.0121
▁Canadian	-11.0128
▁participatory	-11.0134
▁ships	-11.0135
▁redress	-11.0137
▁maintains	-11.0138
▁thou	-11.0142
▁Supplement	-11.0144
▁Saharan	-11.0146
▁gratitude	-11.0148
▁discovered	-11.0151
▁My	-11.0158
▁handed	-11.0165
▁excess	-11.0166
▁des	-11.0168
▁images	-11.0169
▁possibilities	-11.0171
▁questionnaire	-11.0172
▁performing	-11.0178
▁suit	-11.018
,300	-11.018
▁prevailing	-11.0183
▁studying	-11.0183
▁Scheme	-11.0184
▁conversion	-11.0185
▁Journal	-11.0187
▁Slovakia	-11.0191
▁excluded	-11.0192
▁duplication	-11.0192
▁parent	-11.0193
▁ruling	-11.0195
▁appearance	-11.0197
▁ecosystem	-11.02
▁Panama	-11.0201
▁slowly	-11.0206
▁pursuing	-11.0207
▁producers	-11.0209
▁push	-11.0211
▁adding	-11.0213
▁Equal	-11.0215
several	-11.0216
▁owners	-11.0218
▁"50	-11.022
▁immunity	-11.0225
▁#	-11.0227
▁computers	-11.0228
▁cast	-11.0229
▁recalling	-11.023
▁games	-11.0231
▁statute	-11.0238
▁presentations	-11.0244
▁grew	-11.0246
▁capita	-11.025
▁star	-11.0259
▁explicitly	-11.026
▁maternity	-11.0261
▁establishes	-11.0277
▁England	-11.0278
▁beauty	-11.028
▁en	-11.0281
▁initially	-11.0282
▁benefited	-11.0283
▁existed	-11.0284
▁submits	-11.0288
▁infection	-11.0289
▁advisers	-11.0291
▁prosecute	-11.0291
▁branches	-11.0292
▁condemn	-11.0292
▁College	-11.0295
▁confident	-11.0298
▁tension	-11.03
▁separately	-11.0301
▁frequent	-11.0302
▁Country	-11.0303
▁straight	-11.0303
▁tensions	-11.0303
▁opposed	-11.0305
▁repeatedly	-11.0306
▁county	-11.031
▁Officers	-11.0311
like	-11.0313
▁sharp	-11.0314
▁ecosystems	-11.0314
▁ideal	-11.032
▁injuries	-11.0322
each	-11.0328
▁layer	-11.0329
▁ASEAN	-11.0332
▁Electoral	-11.0336
▁disciplinary	-11.0338
▁IT	-11.0338
▁Poverty	-11.0339
com	-11.0341
▁Senior	-11.0346
▁urgently	-11.0347
▁upper	-11.0351
▁literature	-11.0351
▁plane	-11.0356
▁districts	-11.036
▁garden	-11.0368
▁surplus	-11.0372
▁workplace	-11.0374
▁&#124;	-11.0377
▁appreciated	-11.038
▁indirect	-11.0381
▁Muslim	-11.0384
▁At	-11.0385
▁exclusive	-11.0386
▁spot	-11.0387
▁expressing	-11.0387
▁Tibet	-11.0388
▁translated	-11.0393
▁formally	-11.0396
▁IN	-11.0397
▁contracting	-11.0398
▁gathering	-11.0398
▁Punishment	-11.0403
▁afford	-11.0403
▁Hall	-11.0404
▁constantly	-11.0406
▁workload	-11.0409
▁Draft	-11.0413
▁pleasure	-11.0429
▁assurances	-11.0431
▁remuneration	-11.0432
▁colleagues	-11.0433
▁affects	-11.0438
▁resume	-11.0439
▁De	-11.0448
▁consisting	-11.0449
▁assignment	-11.045
▁1970	-11.0451
▁viable	-11.0452
▁Tom	-11.0454
▁1982	-11.0454
▁preservation	-11.0461
▁incidence	-11.0464
▁genetic	-11.0469
▁Administrator	-11.047
▁readiness	-11.0472
▁creative	-11.0476
▁wine	-11.048
▁exercises	-11.0481
▁factory	-11.0483
▁answered	-11.0483
▁coordinator	-11.0488
▁Statistical	-11.0491
▁stone	-11.0492
▁enrolment	-11.05
▁"49	-11.0501
▁seeing	-11.0501
▁finalized	-11.0502
▁whereby	-11.0504
▁Transnational	-11.0506
▁preceding	-11.0514
▁compilation	-11.0514
▁select	-11.0518
▁elaborate	-11.052
▁minister	-11.0522
▁gathered	-11.0522
▁visiting	-11.0526
k	-11.0531
,700	-11.0536
▁submitting	-11.054
▁preparedness	-11.054
▁hurt	-11.0543
▁minimize	-11.0543
third	-11.0553
▁surrounding	-11.0553
▁Logistics	-11.0555
▁assure	-11.0556
▁Stockholm	-11.0559
▁newspaper	-11.0559
▁automatic	-11.0562
▁owner	-11.0562
▁Somali	-11.0563
▁ethics	-11.0565
▁asking	-11.0567
▁guilty	-11.0568
ar	-11.0573
▁observance	-11.0578
▁fun	-11.0578
▁boss	-11.0579
▁wishing	-11.0583
▁ultimate	-11.0585
▁Sunday	-11.0588
▁compromise	-11.0593
▁DP	-11.0607
▁disappearance	-11.0607
▁dress	-11.0609
▁King	-11.061
▁busy	-11.061
▁usual	-11.061
▁innocent	-11.0611
▁Study	-11.0611
▁UNMIK	-11.0612
▁Disaster	-11.0615
▁guy	-11.0618
▁considerably	-11.062
▁worker	-11.0622
▁sixtieth	-11.0624
▁permits	-11.0624
▁comprises	-11.0627
▁perspectives	-11.0627
▁chronic	-11.063
▁viewed	-11.0632
▁sect	-11.0633
▁crops	-11.0633
▁"52	-11.0633
8	-11.0637
▁certificates	-11.0643
▁urgency	-11.0643
▁eating	-11.0647
▁summarized	-11.0648
▁feasibility	-11.065
▁publicly	-11.0652
▁ranging	-11.0653
▁extraordinary	-11.0655
▁aside	-11.0655
▁apart	-11.0666
▁distinct	-11.0668
▁"51	-11.0677
▁Basic	-11.0678
▁guiding	-11.0679
▁Dialogue	-11.0682
▁Jamahiriya	-11.0685
▁partial	-11.0685
▁UNAMID	-11.0696
▁tested	-11.07
▁organisations	-11.07
▁WP	-11.07
▁dual	-11.0701
▁suddenly	-11.0706
▁robust	-11.0708
▁marginalized	-11.0717
▁faster	-11.0719
▁assurance	-11.0724
▁cited	-11.0733
▁Macedonia	-11.0734
▁1373	-11.0737
▁Relief	-11.0739
▁definitions	-11.0743
▁tracking	-11.0747
▁When	-11.0748
▁unprecedented	-11.075
▁enacted	-11.076
▁launching	-11.076
IV	-11.0764
▁impartial	-11.077
▁screen	-11.0773
men	-11.0775
▁apparent	-11.0777
ian	-11.0778
▁Emirates	-11.0781
▁experimental	-11.0784
▁wasn	-11.0785
▁negotiated	-11.0787
▁unanimous	-11.0791
▁withdraw	-11.0791
pursuant	-11.0794
upon	-11.0795
▁steady	-11.0796
▁wouldn	-11.0802
▁thy	-11.0803
▁missile	-11.0807
▁earnings	-11.0807
▁convene	-11.0815
▁subsistence	-11.0815
▁constitution	-11.0816
▁driver	-11.0817
▁defense	-11.0818
▁Christmas	-11.0821
▁calculation	-11.0823
▁liquid	-11.0824
▁Moldova	-11.0826
▁ecological	-11.0833
▁bright	-11.0833
▁cargo	-11.0836
▁Property	-11.0837
▁loved	-11.0838
▁Ma	-11.0849
▁Resolution	-11.0851
▁Governmental	-11.0852
mulating	-11.0857
women	-11.0861
ling	-11.0875
▁revenues	-11.088
▁Sir	-11.0882
▁Italian	-11.0885
▁accessibility	-11.089
▁consistency	-11.09
▁autonomy	-11.0902
▁smuggling	-11.0904
▁visitors	-11.0906
▁Lithuania	-11.092
▁defin	-11.0925
na	-11.0926
▁minors	-11.0928
▁synergies	-11.0932
▁ensured	-11.0937
▁obliged	-11.0938
▁Order	-11.0941
▁Contracting	-11.0953
▁accuracy	-11.0958
▁raw	-11.0962
▁instability	-11.0962
▁hostilities	-11.0967
▁referendum	-11.0971
▁credentials	-11.0971
▁advised	-11.098
▁installation	-11.098
▁Advancement	-11.0983
▁ceasefire	-11.0983
▁fault	-11.0984
▁Dominican	-11.0986
▁argued	-11.0986
▁Albania	-11.0988
▁characteristic	-11.099
▁exclusively	-11.0992
▁fostering	-11.0994
▁farm	-11.1002
rs	-11.1003
▁CMP	-11.101
▁rendered	-11.1017
▁ageing	-11.102
▁250	-11.102
▁08	-11.1031
▁foundations	-11.1032
▁sustain	-11.1037
▁declare	-11.1041
▁"53	-11.1041
▁realistic	-11.1048
Ms	-11.1051
▁Housing	-11.1052
▁stories	-11.1053
▁arrival	-11.1053
▁advancing	-11.1059
▁fulfilling	-11.1062
▁abortion	-11.1065
▁worry	-11.1068
▁Welfare	-11.1069
▁Document	-11.1072
▁justify	-11.1075
▁accidents	-11.1076
▁WG	-11.1076
▁battle	-11.1077
▁separated	-11.1078
▁indispensable	-11.1085
▁referring	-11.1086
▁ceremony	-11.1086
▁Aligned	-11.1086
▁miss	-11.109
▁economically	-11.109
▁meat	-11.1097
▁List	-11.1099
▁White	-11.1105
▁deficit	-11.1114
▁rice	-11.1116
▁indication	-11.1128
▁miles	-11.1129
▁With	-11.113
▁diagnosis	-11.1131
▁Volunteers	-11.1132
▁Malta	-11.1133
▁succeed	-11.1136
▁Capital	-11.1138
▁feelings	-11.114
▁flying	-11.1144
▁Namibia	-11.1146
▁epidemic	-11.1153
▁There	-11.1158
report	-11.1161
▁rare	-11.1163
▁101	-11.1165
instead	-11.1166
▁rental	-11.1169
▁PC	-11.1171
▁uncertainty	-11.1181
▁solely	-11.1182
▁audience	-11.1184
▁Industry	-11.1196
▁instruction	-11.1197
▁narrow	-11.1199
▁childhood	-11.1204
▁returning	-11.1211
▁Monetary	-11.1212
▁unknown	-11.1213
▁poorest	-11.122
▁fly	-11.1225
▁policymakers	-11.1225
▁resolv	-11.1228
▁"54	-11.1237
▁equipped	-11.1242
▁curricula	-11.1246
within	-11.125
any	-11.125
7	-11.1251
without	-11.1252
▁executed	-11.1257
▁Mediterranean	-11.1258
▁contributes	-11.1263
▁printing	-11.1264
▁pledges	-11.1265
▁continuity	-11.1265
▁profound	-11.1267
▁operated	-11.1269
▁settled	-11.127
▁welcoming	-11.1275
▁budgeted	-11.1276
▁Yugoslav	-11.1277
▁judgment	-11.1279
▁advise	-11.1286
▁desk	-11.1286
▁extending	-11.1287
▁Former	-11.1295
▁relatives	-11.1301
▁escape	-11.1301
▁electrical	-11.1306
▁firearms	-11.1307
▁fat	-11.1307
United	-11.1307
▁perceived	-11.1314
▁drafted	-11.1322
ah	-11.1332
▁familiar	-11.1332
▁Trial	-11.1335
▁justified	-11.1336
▁pieces	-11.1337
▁furthermore	-11.1338
▁helpful	-11.1339
▁yield	-11.134
▁Reform	-11.1348
▁edge	-11.1355
▁Resource	-11.1356
▁tradition	-11.1358
▁"55	-11.1371
▁fate	-11.1373
▁complicated	-11.1373
▁describes	-11.1378
▁recipient	-11.1381
▁validity	-11.1381
▁updating	-11.1381
▁102	-11.1384
▁confidential	-11.1384
▁Hague	-11.1386
▁disaggregat	-11.1386
ie	-11.139
▁reminded	-11.1397
▁formula	-11.1399
▁contractor	-11.1399
▁utilized	-11.1399
▁laboratory	-11.14
▁walked	-11.1402
▁render	-11.1403
▁damaged	-11.1405
▁automatically	-11.1407
▁horse	-11.1408
▁demographic	-11.1412
▁rescue	-11.1414
▁broke	-11.1416
▁originally	-11.1423
▁Atlantic	-11.1424
▁Envoy	-11.1426
▁normative	-11.1429
▁affordable	-11.1433
▁smile	-11.1435
▁departure	-11.144
▁park	-11.1445
▁interface	-11.1447
▁acknowledge	-11.1449
▁ring	-11.1449
▁mankind	-11.1455
▁qualifications	-11.146
▁ii	-11.1461
▁lending	-11.1474
▁feed	-11.1482
▁pillars	-11.1486
▁UNMIL	-11.1492
▁ties	-11.1496
▁FOR	-11.1496
▁ECOWAS	-11.1496
▁Organizations	-11.1502
▁continuously	-11.1505
▁towns	-11.1505
▁snow	-11.1506
▁Independence	-11.1516
▁precise	-11.1518
▁smoke	-11.1519
▁sized	-11.152
▁gear	-11.152
▁Swiss	-11.152
▁registry	-11.1532
▁Kuwaiti	-11.1532
▁Analysis	-11.1534
▁fissile	-11.1547
▁solar	-11.1547
▁upgrading	-11.155
▁buyer	-11.155
▁Y	-11.1551
▁codes	-11.1558
▁admitted	-11.1562
▁Appeal	-11.1568
▁Medical	-11.157
▁Kyrgyzstan	-11.157
▁skill	-11.1571
▁falls	-11.1574
how	-11.1575
▁kilometres	-11.1578
de	-11.1579
▁adherence	-11.1581
▁route	-11.1585
▁damages	-11.1585
▁oceans	-11.1587
▁Honduras	-11.1588
▁admission	-11.1588
▁Annual	-11.1589
▁fallen	-11.1594
▁000	-11.1595
▁dont	-11.1595
▁infant	-11.1599
▁hate	-11.1604
▁holiday	-11.1612
▁authorize	-11.1613
▁Free	-11.1613
▁hardly	-11.1615
▁specify	-11.1621
▁pledged	-11.1626
SecretaryGeneral	-11.1627
am	-11.1627
It	-11.164
▁statutory	-11.1644
▁advertising	-11.1647
▁visual	-11.1648
▁degrees	-11.1648
▁prefer	-11.1649
ies	-11.1649
▁decolonization	-11.1656
.13	-11.166
▁condemned	-11.1662
▁choices	-11.1666
▁Ltd	-11.1671
▁governed	-11.1672
▁residential	-11.1673
▁Taliban	-11.1674
▁promotes	-11.1675
▁gift	-11.1681
▁inherent	-11.1683
international	-11.1688
▁legitimacy	-11.1689
▁defend	-11.1694
▁reverse	-11.1698
▁clothing	-11.17
▁utmost	-11.1702
▁colour	-11.1709
▁Do	-11.1713
▁highlights	-11.1716
▁divorce	-11.1719
▁aspirations	-11.1729
▁wild	-11.1732
▁typically	-11.1733
▁appraisal	-11.1734
▁permission	-11.1738
▁ozone	-11.1739
▁"58	-11.174
▁geographic	-11.1745
▁munitions	-11.1746
▁lowest	-11.1751
▁opposite	-11.1752
▁But	-11.1755
▁"56	-11.1756
▁sending	-11.1763
▁roots	-11.1763
▁stakeholder	-11.1763
▁wonder	-11.1766
.17	-11.1768
▁Follow	-11.1768
▁offenders	-11.1773
▁mineral	-11.178
▁planet	-11.1785
ability	-11.1785
▁finish	-11.1791
▁Professor	-11.1793
▁founded	-11.1797
▁flag	-11.1797
▁efficiently	-11.1805
▁passing	-11.1805
▁proposes	-11.1806
▁Latvia	-11.1807
▁Conduct	-11.1807
▁illness	-11.1813
▁furniture	-11.1819
▁privacy	-11.1821
▁friendship	-11.1822
▁Institutions	-11.1824
▁allocate	-11.1824
▁boundary	-11.1828
here	-11.183
▁unified	-11.1834
▁103	-11.1834
▁differ	-11.1834
▁designing	-11.1835
▁examining	-11.1835
▁supportive	-11.1835
▁desirable	-11.1837
▁predictable	-11.184
▁UNCCD	-11.1849
▁unemployed	-11.185
▁corner	-11.1851
▁Data	-11.1857
▁virus	-11.1862
▁collecting	-11.1865
▁UNOCI	-11.1867
▁assumption	-11.1869
VI	-11.1872
▁securing	-11.1875
▁networking	-11.1879
ment	-11.1881
▁OSCE	-11.1882
▁diversification	-11.1886
▁stereotypes	-11.1888
▁phrase	-11.1892
▁verify	-11.1892
▁load	-11.1892
▁1978	-11.1893
▁controlling	-11.1894
▁livelihoods	-11.1894
▁baseline	-11.1896
▁simulation	-11.1913
▁06	-11.1918
▁challenging	-11.192
.1.	-11.1921
▁Academy	-11.1926
▁adjust	-11.1927
▁sphere	-11.1927
▁supposed	-11.1929
▁listing	-11.193
▁"57	-11.1933
.18	-11.1936
▁Paraguay	-11.1943
▁bird	-11.1945
▁directors	-11.195
▁104	-11.1953
▁cultivation	-11.1955
▁ease	-11.1956
▁Niger	-11.1962
▁deposits	-11.1963
▁symbol	-11.1963
▁calm	-11.1967
▁remind	-11.1973
▁islands	-11.1974
▁investigating	-11.1978
▁thoughts	-11.1979
▁kids	-11.198
▁essentially	-11.1984
▁prosecutor	-11.1986
▁Program	-11.1991
unfortunately	-11.1993
▁payable	-11.1997
▁roll	-11.1997
▁collaborative	-11.2004
▁visible	-11.2008
▁111	-11.2013
▁reflection	-11.203
▁regulated	-11.2033
.16	-11.204
▁Workers	-11.204
▁100,000	-11.2044
▁Bangkok	-11.2049
▁reinforcing	-11.205
▁Culture	-11.205
▁La	-11.2052
▁Standard	-11.2053
duly	-11.2054
▁EC	-11.2056
▁Note	-11.206
▁licence	-11.2064
▁documented	-11.2065
▁occurs	-11.2069
▁redeployment	-11.2076
▁motor	-11.2083
▁watching	-11.2084
▁arguments	-11.2085
▁obstacle	-11.2085
▁rooms	-11.209
▁shipment	-11.209
▁Wall	-11.2097
▁interviews	-11.2098
▁harmony	-11.2098
▁UNDCP	-11.21
▁Base	-11.2101
▁Jesus	-11.2103
their	-11.2115
▁partially	-11.212
▁Green	-11.2121
▁JIU	-11.2124
▁commonly	-11.2125
▁106	-11.2127
▁bonds	-11.2129
just	-11.2133
▁classified	-11.2136
▁Bahrain	-11.2142
▁Sha	-11.2143
▁thanked	-11.2148
▁executions	-11.2157
▁proceeding	-11.2161
lastly	-11.2164
▁Studies	-11.2168
▁Dec	-11.2169
▁rent	-11.217
▁foreigners	-11.2174
▁tobacco	-11.2178
▁comparable	-11.2182
▁Djibouti	-11.2188
▁silence	-11.2188
▁operators	-11.219
▁everybody	-11.2196
▁slavery	-11.2197
▁07	-11.2201
▁01	-11.2202
▁GM	-11.2203
▁"60	-11.2205
▁carrier	-11.222
▁concentrated	-11.222
▁plastic	-11.2224
▁modernization	-11.2226
▁databases	-11.2227
▁proven	-11.2229
▁destroy	-11.2234
▁tonight	-11.2239
▁vacancies	-11.2243
▁Narcotic	-11.2246
▁totally	-11.2247
▁borne	-11.2247
▁arrive	-11.2249
▁buying	-11.2253
▁delivering	-11.2254
▁108	-11.2263
▁peer	-11.2265
▁clause	-11.2265
▁teach	-11.2268
▁retention	-11.2272
▁phases	-11.2273
▁Committees	-11.2274
▁ECA	-11.2278
▁"59	-11.228
▁portfolio	-11.2285
▁associate	-11.2286
▁unlikely	-11.2286
▁Ali	-11.2288
▁Lao	-11.2289
▁walking	-11.2289
▁hence	-11.2289
▁typical	-11.2291
▁proactive	-11.2294
▁Man	-11.2294
▁semi	-11.2295
ne	-11.2297
▁Estonia	-11.2297
▁Goal	-11.2304
▁Records	-11.2311
v	-11.2327
▁attending	-11.2329
▁sweet	-11.2331
um	-11.2332
▁shipping	-11.2334
▁annexes	-11.2334
▁attempted	-11.2336
▁km	-11.234
▁flat	-11.2343
▁traditions	-11.2345
▁blind	-11.2345
▁accorded	-11.235
▁lots	-11.2351
▁collaborate	-11.2353
▁Cypriot	-11.2354
▁struck	-11.2356
▁mere	-11.2357
last	-11.236
▁pornography	-11.2362
▁attributed	-11.2373
▁outset	-11.2375
▁Fiji	-11.2379
▁church	-11.2383
▁vary	-11.2389
▁settings	-11.239
▁inadmissible	-11.2391
▁1981	-11.2393
▁Monterrey	-11.2394
▁birds	-11.2396
▁LORD	-11.2399
▁expense	-11.2401
ry	-11.2403
▁renew	-11.2403
▁column	-11.2404
▁chairman	-11.2404
▁awards	-11.2405
▁verbale	-11.2408
▁Michael	-11.2409
▁acknowledges	-11.2411
▁Commerce	-11.2411
▁Togo	-11.2413
▁Life	-11.2413
▁protective	-11.2414
▁notify	-11.2416
▁Gulf	-11.2418
▁coast	-11.2425
▁notion	-11.2426
▁Registrar	-11.2428
▁locally	-11.2428
▁sons	-11.2428
▁rank	-11.2431
▁ECE	-11.2433
▁fragile	-11.2437
▁forestry	-11.2444
▁realities	-11.2453
▁punished	-11.2457
▁till	-11.2461
▁recording	-11.2468
▁negotiate	-11.2468
▁globally	-11.2469
▁undertook	-11.2469
▁inequalities	-11.2471
▁toxic	-11.2472
▁Conflict	-11.2474
▁settle	-11.2477
co	-11.248
▁Luxembourg	-11.2482
▁Voluntary	-11.2484
▁football	-11.2492
▁hatred	-11.2493
▁kg	-11.2497
▁unacceptable	-11.2499
▁wake	-11.2499
▁pressing	-11.2502
▁click	-11.2503
▁guard	-11.2503
▁revolution	-11.2505
▁player	-11.2509
▁venture	-11.251
▁processed	-11.2511
▁elaborated	-11.2511
▁inspections	-11.2514
▁fiftieth	-11.2515
▁bid	-11.2515
▁skilled	-11.2516
▁alcohol	-11.2517
▁quiet	-11.2518
▁pupils	-11.2521
▁1984	-11.2525
▁130	-11.2535
▁exercising	-11.2535
▁debates	-11.2536
▁applicants	-11.2537
▁112	-11.2542
▁domain	-11.2542
▁liable	-11.2546
▁elect	-11.2549
▁analysed	-11.2551
▁Organisation	-11.2553
▁Round	-11.2554
▁installed	-11.2555
▁prime	-11.2558
▁dance	-11.2561
▁happens	-11.2563
▁Golan	-11.2565
ous	-11.2567
▁"61	-11.2569
▁sugar	-11.2569
▁Soviet	-11.2572
▁Body	-11.2574
don	-11.2574
▁insolvency	-11.2578
▁refusal	-11.2579
▁weekly	-11.258
▁samples	-11.2581
▁lift	-11.2585
▁wisdom	-11.2587
ion	-11.259
▁forever	-11.2603
▁107	-11.2604
▁exercised	-11.2607
▁smoking	-11.2607
▁115	-11.2613
▁crop	-11.2613
▁deterioration	-11.2614
▁restaurant	-11.2614
▁strive	-11.2622
▁mistake	-11.2623
▁Related	-11.2623
▁passage	-11.2625
.14	-11.2626
▁imported	-11.2626
▁nominated	-11.2631
▁Peter	-11.2632
▁harmonized	-11.2632
▁trigger	-11.2638
▁400	-11.2644
decentralization	-11.2645
▁photo	-11.2645
▁arrange	-11.2647
▁Desertification	-11.2649
▁nongovernmental	-11.2664
both	-11.2665
▁responsive	-11.2668
▁Royal	-11.2677
▁tenure	-11.2679
▁empty	-11.2699
▁radioactive	-11.2699
▁summits	-11.27
▁Iceland	-11.2701
▁placement	-11.2703
▁evaluated	-11.2703
▁Corporation	-11.2709
▁George	-11.271
▁interpreted	-11.2711
▁Additional	-11.2718
▁voters	-11.2722
▁creditors	-11.2723
▁meets	-11.2723
▁environments	-11.2727
ch	-11.2729
▁announcement	-11.273
▁Wang	-11.2731
▁fairly	-11.2731
▁Mary	-11.2733
▁Your	-11.2734
▁song	-11.2736
▁evaluating	-11.2737
▁proud	-11.2738
▁bases	-11.2738
▁wing	-11.2741
▁census	-11.2744
▁discussing	-11.275
▁modify	-11.2752
▁contingency	-11.2754
▁gun	-11.2761
▁External	-11.2761
▁threshold	-11.2762
▁journey	-11.2764
▁salt	-11.2765
▁optional	-11.2768
▁shoes	-11.2771
▁maximize	-11.2773
▁religions	-11.2774
▁cool	-11.2774
▁patent	-11.2775
▁jurisprudence	-11.2776
▁refuse	-11.2778
▁telling	-11.2779
▁seas	-11.2781
▁reinforced	-11.2782
▁witnessed	-11.2787
▁acted	-11.279
▁cuts	-11.2794
▁crowd	-11.2798
▁mm	-11.2799
States	-11.2803
▁Paul	-11.2805
▁therapy	-11.2814
▁eleventh	-11.2814
▁Malawi	-11.2815
▁fulfilled	-11.282
▁Samoa	-11.2822
▁sheet	-11.2823
▁moreover	-11.2826
▁preferred	-11.2827
▁Accounting	-11.283
▁medicines	-11.2835
▁taught	-11.2835
▁ESCWA	-11.2838
▁runs	-11.2838
▁tribunals	-11.2849
▁Congolese	-11.2852
▁silver	-11.2853
▁recurrent	-11.2854
▁CAT	-11.2855
▁younger	-11.2859
▁justification	-11.286
▁practitioners	-11.2862
▁streets	-11.2869
▁breakdown	-11.287
▁print	-11.2873
▁Regulation	-11.2873
▁dust	-11.2874
▁ought	-11.2876
▁Time	-11.2878
▁assured	-11.288
▁How	-11.288
▁Haitian	-11.2884
▁Mine	-11.2885
▁"62	-11.2888
▁possess	-11.2893
▁tired	-11.2893
▁Park	-11.2895
▁ethical	-11.2897
▁reliance	-11.2904
▁withdrawn	-11.2908
▁Christian	-11.2909
▁evolving	-11.2909
▁divisions	-11.2911
▁explicit	-11.2914
▁convey	-11.2915
▁Powers	-11.292
▁workforce	-11.2921
▁Forests	-11.2923
▁everywhere	-11.2927
▁passengers	-11.2932
▁officially	-11.2934
▁crossing	-11.2935
▁managerial	-11.2936
▁114	-11.2936
▁surprise	-11.2936
▁module	-11.2936
▁killings	-11.2938
li	-11.2942
▁punish	-11.2942
▁mobilizing	-11.2943
▁Production	-11.2946
ial	-11.2946
▁manifestations	-11.2947
▁unpaid	-11.2948
▁reputation	-11.2949
▁vessel	-11.2962
▁euro	-11.2962
▁lesson	-11.2966
▁descent	-11.2967
▁Common	-11.2972
▁sincere	-11.2976
W	-11.2977
▁allowances	-11.2984
▁consequently	-11.2985
▁evil	-11.2989
▁03	-11.2991
▁somewhat	-11.2993
▁forecast	-11.2995
▁thirds	-11.2996
▁Communication	-11.2997
x	-11.2998
▁demonstration	-11.3002
▁SMEs	-11.3003
▁accommodate	-11.3003
▁glad	-11.3004
▁exclude	-11.3019
▁05	-11.302
▁1949	-11.3022
▁transboundary	-11.3025
▁virtue	-11.3027
▁shortage	-11.3031
▁Final	-11.3031
▁shut	-11.3039
▁abolition	-11.304
▁stipulates	-11.3042
▁parliament	-11.3049
▁spokesman	-11.3054
▁alive	-11.3055
▁debris	-11.3061
▁succession	-11.3061
▁simultaneously	-11.3062
▁Aid	-11.3063
▁abide	-11.3065
▁Tokelau	-11.307
▁testimony	-11.3076
▁1973	-11.3078
▁fellow	-11.3079
▁Election	-11.3081
▁vice	-11.3083
▁thin	-11.3091
▁diet	-11.3092
▁Turkmenistan	-11.3094
▁116	-11.3098
▁Decolonization	-11.3099
▁Consensus	-11.3109
▁arranged	-11.311
▁releases	-11.3113
▁Brussels	-11.3117
▁immigrants	-11.3117
▁seller	-11.3117
▁kindly	-11.3118
▁109	-11.3122
▁Distr	-11.3122
▁advocate	-11.3123
▁Account	-11.3123
▁Diversity	-11.3125
▁exacerbate	-11.3129
▁pull	-11.3132
▁default	-11.3132
▁ratifying	-11.314
▁"63	-11.3146
▁intensified	-11.3148
▁satisfy	-11.3148
▁mechanical	-11.3149
▁NATO	-11.3156
▁participant	-11.316
▁timetable	-11.3162
▁plate	-11.3165
▁"64	-11.3174
▁Bar	-11.3175
▁answers	-11.3181
▁personality	-11.3181
▁underscored	-11.3186
▁commentary	-11.3191
▁theoretical	-11.3192
▁Prosecution	-11.3194
▁metres	-11.3195
▁exceptions	-11.3198
▁guideline	-11.3199
▁denial	-11.3202
▁Tokyo	-11.3206
▁detect	-11.3207
▁club	-11.3207
▁Unity	-11.3208
▁benchmarks	-11.321
▁2020	-11.3211
▁criticism	-11.3212
▁quantitative	-11.3219
▁piracy	-11.3219
regarding	-11.3225
▁reliability	-11.3229
▁Register	-11.3236
▁orbit	-11.3241
▁introduces	-11.3245
▁specialists	-11.3246
▁missiles	-11.3248
▁independently	-11.3253
▁OAU	-11.3255
▁intend	-11.3256
▁marry	-11.3262
▁alien	-11.3265
▁Ensure	-11.3265
▁Madrid	-11.3269
▁Systems	-11.3274
▁Botswana	-11.3279
▁promulgated	-11.3285
▁impartiality	-11.3287
▁Workshop	-11.3289
▁navigation	-11.3291
▁Works	-11.3296
▁novel	-11.3302
▁Further	-11.3304
▁capture	-11.3307
▁Barbados	-11.3307
▁allocations	-11.3312
▁guess	-11.3313
▁configuration	-11.3323
▁losing	-11.3323
▁patrol	-11.3323
▁yellow	-11.3325
▁appealed	-11.3327
▁Moscow	-11.3331
▁UNITAR	-11.3335
▁Liechtenstein	-11.3344
▁Treasury	-11.3345
▁hosting	-11.3347
▁shortly	-11.3351
▁Maritime	-11.3357
▁resilience	-11.3358
▁joy	-11.3359
▁employ	-11.336
▁exact	-11.3362
▁utility	-11.3363
every	-11.3365
▁screening	-11.3366
▁wearing	-11.3366
▁malnutrition	-11.3371
▁belong	-11.3375
▁Number	-11.3376
▁1960	-11.3377
▁motivated	-11.3378
▁valuation	-11.3378
▁spoken	-11.338
▁wonderful	-11.3382
▁weekend	-11.3383
▁militia	-11.3384
▁appropriately	-11.3385
▁decree	-11.339
▁hole	-11.3391
▁Level	-11.3397
▁1979	-11.3397
▁lady	-11.3398
▁wording	-11.3403
informal	-11.3406
▁rational	-11.341
▁distinguished	-11.3415
▁desired	-11.3415
▁TD	-11.3416
▁penal	-11.3419
▁conversation	-11.342
▁attain	-11.3423
▁neutral	-11.3424
▁super	-11.3427
▁bag	-11.3427
▁acceded	-11.3428
▁recession	-11.3437
▁Decision	-11.3439
▁confirmation	-11.3439
▁server	-11.3448
▁Cape	-11.3454
▁visa	-11.3461
▁Bolivarian	-11.3461
▁aforementioned	-11.3464
▁accomplished	-11.3468
▁ages	-11.347
land	-11.3472
▁okay	-11.3472
▁prosecuted	-11.3473
▁holistic	-11.3474
▁decisive	-11.3475
.19	-11.348
▁Registry	-11.3481
▁mix	-11.3491
▁Personal	-11.3492
ty	-11.3493
▁excluding	-11.3493
▁supplied	-11.3495
▁emotional	-11.3501
▁storm	-11.3504
▁Capacity	-11.3505
▁utilize	-11.3506
▁122	-11.3506
▁accelerated	-11.3507
▁Saturday	-11.3507
▁attainment	-11.3513
▁avoiding	-11.3516
▁dear	-11.3517
▁disparities	-11.3521
▁voted	-11.3529
▁imposition	-11.353
▁tendency	-11.353
▁fails	-11.3533
▁Madagascar	-11.3537
▁strange	-11.3538
▁118	-11.3542
▁circulation	-11.3544
▁shoulder	-11.3546
▁placing	-11.3555
out	-11.3556
▁onto	-11.3559
▁gather	-11.3559
▁structured	-11.3559
▁2016	-11.3566
▁wherever	-11.3567
▁counterparts	-11.3572
▁begins	-11.3573
▁genital	-11.3578
▁Commander	-11.3579
▁bond	-11.358
▁creates	-11.3581
▁comprise	-11.3582
▁Prince	-11.3583
▁resettlement	-11.3595
▁alternate	-11.3595
▁threaten	-11.36
only	-11.3602
el	-11.3605
▁600	-11.3606
▁absolutely	-11.3607
▁briefed	-11.3609
▁160	-11.3615
▁pillar	-11.3619
▁Woods	-11.362
though	-11.3625
▁Long	-11.3628
▁tribute	-11.3629
▁Press	-11.3635
▁dis	-11.3637
▁stimulate	-11.3644
▁stars	-11.3644
▁remarkable	-11.3656
▁grain	-11.3657
▁pair	-11.3663
▁Matters	-11.3667
▁incorporating	-11.3671
▁intimidation	-11.3673
▁communicated	-11.3674
▁arbitral	-11.3679
▁courage	-11.3683
▁sad	-11.3687
▁diplomacy	-11.3689
▁sand	-11.3691
▁survivors	-11.3692
ine	-11.3693
▁Judge	-11.3693
▁posted	-11.3701
▁conceptual	-11.3702
▁shopping	-11.3705
▁Colonial	-11.3705
▁imagine	-11.3706
10	-11.3707
▁abstentions	-11.3713
hang	-11.3717
▁shortcomings	-11.3718
▁incumbent	-11.372
di	-11.3724
▁113	-11.3724
▁"66	-11.3725
▁isolation	-11.3726
▁prominent	-11.3727
▁Presidents	-11.373
▁notwithstanding	-11.373
▁Application	-11.373
▁taste	-11.3733
▁routine	-11.3736
▁angry	-11.3737
▁victory	-11.3737
▁optimal	-11.3739
▁"65	-11.3741
▁upcoming	-11.3746
▁reject	-11.3746
econdly	-11.3754
▁breast	-11.3757
▁smart	-11.3758
▁Manual	-11.376
disciplinary	-11.3761
▁correction	-11.3763
▁freeze	-11.3765
▁resumption	-11.3766
▁attacked	-11.3767
▁Judicial	-11.3769
▁virtually	-11.3772
▁tears	-11.3773
▁compound	-11.3774
▁audits	-11.3778
▁dismissed	-11.3782
▁disappeared	-11.3782
▁receives	-11.3783
▁promised	-11.3785
additionally	-11.3794
▁recover	-11.3794
▁stick	-11.3796
▁Suppression	-11.3797
▁spouse	-11.3798
▁tariff	-11.38
▁commencement	-11.3802
▁intent	-11.3807
▁Marine	-11.3809
os	-11.3814
▁concludes	-11.3816
ton	-11.3819
▁broadly	-11.3821
▁cat	-11.3828
▁clarified	-11.3831
▁cope	-11.384
▁disseminated	-11.3848
▁enables	-11.385
▁Port	-11.3852
▁issuing	-11.3856
▁Steer	-11.3856
▁divide	-11.3858
▁nobody	-11.386
▁irrespective	-11.3862
▁breaking	-11.3863
▁receivable	-11.3863
▁politicians	-11.3863
▁unnecessary	-11.3867
▁Maldives	-11.3868
▁substitute	-11.3869
▁timing	-11.3872
▁handled	-11.3873
▁standardized	-11.3873
▁Jean	-11.3874
▁quantities	-11.3875
▁Care	-11.388
▁volunteers	-11.3881
▁sudden	-11.3882
▁installations	-11.3884
▁Attorney	-11.3887
▁Responsible	-11.3888
▁1.5	-11.3888
▁investing	-11.3894
.26	-11.3894
▁attractive	-11.3901
▁warrant	-11.3906
▁Insurance	-11.3907
▁bigger	-11.3907
▁Holy	-11.3909
▁virtual	-11.3911
▁wise	-11.3912
▁Johannesburg	-11.3914
▁1540	-11.3915
▁ends	-11.3921
▁scenario	-11.3922
▁rotation	-11.3924
▁diamond	-11.3926
z	-11.3928
▁UNMIS	-11.3929
▁drivers	-11.3932
▁Olympics	-11.3932
▁Puerto	-11.3933
▁tank	-11.3933
▁commenced	-11.3936
▁identical	-11.3937
▁assault	-11.3939
▁Art	-11.394
▁traditionally	-11.394
▁Immigration	-11.3942
▁jurisdictions	-11.3947
aida	-11.395
▁solving	-11.3951
▁exhausted	-11.3952
▁usage	-11.3952
▁Practice	-11.3952
▁prospect	-11.3957
▁Arbitration	-11.396
currently	-11.3961
▁burning	-11.3965
▁CDM	-11.3968
▁investigative	-11.3974
▁02	-11.3974
▁institutes	-11.3975
▁"67	-11.3977
▁Copenhagen	-11.3982
▁machines	-11.3983
▁obviously	-11.3987
▁Parliamentary	-11.3988
▁births	-11.3988
▁fertility	-11.3992
▁broadcast	-11.3993
▁ambitious	-11.3996
▁council	-11.3998
▁Page	-11.3999
▁bis	-11.3999
▁characters	-11.4002
▁pure	-11.4002
▁licensing	-11.4002
▁adapted	-11.4012
▁flights	-11.4018
▁birthday	-11.4018
▁terror	-11.4019
▁dreams	-11.402
▁Rule	-11.4023
▁profession	-11.4024
▁casualties	-11.403
▁terrible	-11.4031
▁rough	-11.4033
between	-11.4035
▁140	-11.4036
▁UNAIDS	-11.4037
▁weaknesses	-11.4038
▁argues	-11.4039
▁Governor	-11.4046
▁emergence	-11.4048
subsequently	-11.4049
▁politically	-11.4053
▁117	-11.4055
▁Tribunals	-11.4058
▁collapse	-11.4071
▁writer	-11.4075
▁incorporation	-11.4079
▁license	-11.4083
▁Where	-11.4098
▁wondered	-11.41
▁expects	-11.41
▁1983	-11.41
▁landscape	-11.4103
▁marks	-11.4105
▁carries	-11.4106
▁entail	-11.4114
▁Mauritania	-11.4114
▁spectrum	-11.4114
▁cry	-11.4119
▁prolonged	-11.4119
▁Light	-11.412
▁circuit	-11.4121
▁coordinates	-11.4122
▁aren	-11.4124
▁diamonds	-11.4127
▁Guyana	-11.4137
▁10,000	-11.4137
people	-11.4139
▁Baghdad	-11.4139
▁experiments	-11.414
▁Brett	-11.4142
▁updates	-11.4143
▁magnitude	-11.4144
▁assumptions	-11.4149
▁hardware	-11.4152
▁Illicit	-11.4161
▁stabilization	-11.4164
▁entrepreneurs	-11.4169
▁ibid	-11.417
▁twelfth	-11.4173
▁adds	-11.4175
▁suicide	-11.4177
▁Personnel	-11.4179
▁Home	-11.418
▁MINUSTAH	-11.4182
▁briefly	-11.4188
▁supplier	-11.4193
▁livelihood	-11.4199
▁curb	-11.4201
▁oversee	-11.4203
▁ensures	-11.4204
▁intersessional	-11.4204
▁119	-11.4221
▁peak	-11.4222
▁exit	-11.4222
▁deleted	-11.4224
▁rarely	-11.4224
▁rapporteurs	-11.4225
▁coordinators	-11.4234
▁Cairo	-11.4236
▁hearings	-11.4236
▁Reserve	-11.424
▁Articles	-11.424
▁Sun	-11.424
▁preambular	-11.4241
bearing	-11.4243
▁Addis	-11.4244
▁talent	-11.4249
▁liquidation	-11.4265
Geneva	-11.4265
delegations	-11.4265
▁clarity	-11.4267
▁Table	-11.4275
▁2017	-11.4278
▁AMISOM	-11.4281
▁adversely	-11.4281
▁mapping	-11.4284
entrepreneurship	-11.4288
▁stating	-11.429
▁regulating	-11.429
▁revise	-11.4291
▁discretion	-11.4296
▁Adoption	-11.4297
▁Sudanese	-11.4299
▁aligned	-11.4307
▁apparently	-11.4308
▁beliefs	-11.4311
▁forming	-11.4315
▁empower	-11.4318
▁parental	-11.4325
▁directions	-11.4326
▁incompatible	-11.4329
▁painting	-11.4331
bn	-11.4332
▁miscellaneous	-11.4335
▁ST	-11.4335
▁Inhuman	-11.4338
▁UNU	-11.4341
▁nationally	-11.4343
▁ticket	-11.4346
▁wounded	-11.4349
▁cleaning	-11.435
▁universality	-11.4352
▁consulted	-11.4355
Y	-11.4357
▁Degrading	-11.4357
▁exploit	-11.436
▁cup	-11.436
▁ECLAC	-11.4362
▁ballot	-11.4364
▁overwhelming	-11.4365
▁underlines	-11.4373
▁Coordinating	-11.4375
▁colonial	-11.4377
▁isolated	-11.4385
▁pertinent	-11.4387
▁UNFCCC	-11.439
▁synthesis	-11.439
▁restrict	-11.4397
▁thereafter	-11.4398
▁conscience	-11.44
▁upgrade	-11.4404
▁herewith	-11.4406
▁gradual	-11.4407
▁modest	-11.4416
▁earned	-11.4417
▁warned	-11.442
▁Tax	-11.4422
▁Ababa	-11.4429
▁infected	-11.4431
▁native	-11.4431
▁females	-11.4433
▁feels	-11.4438
▁Cabinet	-11.4439
▁PV	-11.444
▁neighbours	-11.4441
la	-11.4441
▁adhere	-11.4445
▁"68	-11.4448
▁designate	-11.4452
▁gate	-11.4453
▁Violations	-11.4455
▁compatible	-11.4459
▁pictures	-11.4471
▁presenting	-11.4471
▁farming	-11.4475
▁tour	-11.4475
▁Serious	-11.4479
▁lunch	-11.448
▁attaches	-11.448
▁mutilation	-11.448
▁saved	-11.4481
▁publish	-11.4485
▁Victims	-11.4486
▁abandoned	-11.4486
▁draws	-11.449
▁agrees	-11.4491
▁180	-11.4498
▁Chairs	-11.4498
▁lacking	-11.4504
▁Urban	-11.4506
▁revitalization	-11.4506
▁accreditation	-11.4509
▁reconnaissance	-11.4513
▁preference	-11.4515
▁newspapers	-11.4516
In	-11.4517
▁leg	-11.4518
▁Martin	-11.4518
▁blow	-11.452
▁essence	-11.452
▁04	-11.4529
▁hinder	-11.4531
▁programmatic	-11.4541
▁earliest	-11.4547
▁reserved	-11.4547
▁extrajudicial	-11.455
▁interdependence	-11.455
▁debtor	-11.4557
Thursday	-11.4558
▁criterion	-11.456
▁magazine	-11.4561
▁spheres	-11.4564
▁railway	-11.4564
▁varied	-11.4565
▁invested	-11.4567
▁aliens	-11.457
▁Rwandan	-11.4571
▁indirectly	-11.4572
▁realizing	-11.4573
▁stuff	-11.4573
▁claimants	-11.4574
▁clearing	-11.4577
▁throw	-11.4577
▁flood	-11.4581
▁Granting	-11.4582
▁Two	-11.4586
▁questioned	-11.4586
▁countering	-11.4586
▁certified	-11.4591
ka	-11.4592
▁returnees	-11.4593
▁currencies	-11.4597
▁123	-11.4598
▁thirteenth	-11.4601
▁"69	-11.4603
▁Exchange	-11.4603
▁prohibiting	-11.4605
▁creditor	-11.4605
▁meal	-11.4609
besides	-11.4611
▁confidentiality	-11.4613
▁125	-11.4614
▁spiritual	-11.4616
▁developmental	-11.4617
▁bread	-11.4623
▁quota	-11.4623
▁So	-11.4624
▁guys	-11.4625
▁corrections	-11.4628
▁comfortable	-11.4629
ma	-11.4633
▁panels	-11.4633
▁alleviate	-11.4635
▁spouses	-11.4635
▁honest	-11.4636
▁Agricultural	-11.4636
▁corporal	-11.4641
▁custom	-11.4643
▁cooperating	-11.4645
▁Trinidad	-11.4649
▁misconduct	-11.4652
▁CERD	-11.4654
▁valued	-11.4655
▁dramatic	-11.4657
▁exceeding	-11.4666
▁Bhutan	-11.4673
▁silent	-11.4674
▁SCO	-11.4674
▁renewal	-11.468
▁explored	-11.4683
▁thesis	-11.4689
▁examinations	-11.4695
▁expressly	-11.4696
▁boundaries	-11.47
▁Blue	-11.4703
▁align	-11.4705
▁transform	-11.4705
▁Lakes	-11.4706
table	-11.471
▁Inc	-11.471
▁flower	-11.4713
▁ye	-11.4717
▁halt	-11.472
▁declining	-11.4723
▁NATIONS	-11.4727
▁threatening	-11.4728
▁avoided	-11.474
▁linking	-11.4741
▁intensity	-11.4742
▁Hu	-11.4743
▁HK	-11.4744
▁nationwide	-11.475
▁Cruel	-11.4752
▁puts	-11.4755
▁Sexual	-11.4756
▁recourse	-11.4756
▁bulk	-11.4759
▁precisely	-11.476
▁California	-11.476
up	-11.4761
▁Tobago	-11.4762
▁deferred	-11.4763
▁ports	-11.4766
▁professor	-11.4766
▁lawful	-11.4766
▁beat	-11.4767
▁attach	-11.4772
▁band	-11.4781
▁HUMAN	-11.4795
▁Ben	-11.4796
▁collectively	-11.4796
▁expedite	-11.4796
▁accord	-11.4798
▁bottle	-11.4805
▁Natural	-11.4806
▁purchasing	-11.4808
▁marriages	-11.4812
▁ICRC	-11.4813
▁concentrate	-11.4814
▁Guam	-11.4814
▁correspond	-11.4825
▁moves	-11.4827
held	-11.4832
▁sexually	-11.4832
▁reveal	-11.4834
▁appropriations	-11.4835
▁relocation	-11.4835
▁She	-11.4836
▁enquiry	-11.4836
ro	-11.4838
▁freight	-11.4841
▁steadily	-11.4841
▁consultant	-11.485
▁emphasiz	-11.4852
▁intense	-11.4857
▁Commercial	-11.4858
▁Bay	-11.4858
▁perception	-11.486
▁alleviation	-11.4861
▁qualitative	-11.4861
▁tender	-11.4864
▁Black	-11.4864
▁JS	-11.4869
▁affirmed	-11.4869
▁linguistic	-11.4871
▁retail	-11.4872
▁printed	-11.4874
▁modules	-11.4875
▁objections	-11.4878
▁thoroughly	-11.4881
▁earn	-11.4881
▁mistakes	-11.4885
▁accede	-11.489
▁pensions	-11.489
▁Tourism	-11.4893
▁Domestic	-11.4894
▁exploring	-11.4895
▁monitors	-11.4895
▁revisions	-11.4901
▁suspect	-11.4901
▁respondents	-11.4906
▁tragic	-11.4909
▁irregular	-11.4914
▁Smith	-11.4916
▁inner	-11.4916
▁excuse	-11.4917
▁dumping	-11.4917
▁Against	-11.4917
▁secretary	-11.4918
▁restriction	-11.4919
▁disappearances	-11.4929
▁inalienable	-11.493
▁CEB	-11.493
▁discusses	-11.4932
▁bone	-11.4934
▁Senate	-11.4936
▁systemic	-11.4941
▁tonnes	-11.4943
▁cessation	-11.4943
▁mountains	-11.495
▁shadow	-11.4951
▁1.2	-11.4952
▁failing	-11.4957
▁govern	-11.4959
▁bills	-11.4962
▁chart	-11.4963
▁sensing	-11.4963
▁walls	-11.4968
▁tough	-11.4969
▁endeavours	-11.497
▁succeeded	-11.4974
▁wedding	-11.4974
▁Rural	-11.4974
▁translate	-11.498
▁dangers	-11.4983
▁moratorium	-11.4987
▁positively	-11.4989
▁turns	-11.4993
▁pour	-11.4993
Tuesday	-11.4994
▁roster	-11.4995
▁nineteenth	-11.5001
▁deliberate	-11.5007
▁satellites	-11.5008
▁121	-11.501
▁jump	-11.5015
▁listening	-11.5016
▁proceeded	-11.5016
▁urbanization	-11.5022
▁promising	-11.5025
▁wet	-11.5026
▁"70	-11.5027
▁analysing	-11.5029
▁versions	-11.5031
▁civilization	-11.5031
▁Aviation	-11.5031
▁boards	-11.5032
▁supervisory	-11.5032
▁talked	-11.5032
▁twelve	-11.5035
▁privileges	-11.5037
▁racist	-11.5044
▁repeat	-11.5044
▁1.15	-11.5045
▁Men	-11.5047
▁155	-11.5049
▁landmines	-11.5051
▁sounds	-11.5057
▁endorsement	-11.5057
▁argue	-11.5057
▁filing	-11.5058
▁secretariats	-11.5059
▁Statement	-11.506
▁Establishment	-11.5066
▁Gabon	-11.5067
▁"71	-11.5071
j	-11.5072
▁reparation	-11.5072
▁Jack	-11.5074
your	-11.5074
▁inconsistent	-11.5075
total	-11.5075
▁138	-11.5075
▁yeah	-11.5077
▁Liberation	-11.5078
▁communiqu	-11.508
▁philosophy	-11.5082
▁variance	-11.5085
▁impression	-11.5088
▁brothers	-11.5089
▁Engineering	-11.509
▁constructed	-11.5091
▁modification	-11.5095
▁deny	-11.5096
▁seed	-11.5096
▁anger	-11.51
▁cotton	-11.5101
▁notified	-11.5101
▁neck	-11.5104
▁influenced	-11.511
U	-11.5111
▁convenient	-11.5112
▁checks	-11.5112
▁accredited	-11.5114
▁routes	-11.5123
.21	-11.5124
,	-11.5126
▁taxation	-11.5127
Wednesday	-11.513
▁exceeded	-11.5131
▁Pre	-11.5131
▁prerequisite	-11.5133
▁exemption	-11.5137
▁stream	-11.5139
▁aiming	-11.5139
▁analysts	-11.5147
▁operates	-11.5147
▁CCW	-11.5148
▁dependence	-11.5153
should	-11.5158
▁rocket	-11.5162
▁defendant	-11.5164
da	-11.5164
▁temporarily	-11.5166
▁Liberian	-11.5168
▁incitement	-11.5169
▁projections	-11.5172
Friday	-11.5177
▁matrix	-11.5178
statements	-11.518
▁Wan	-11.5193
▁Investigation	-11.5195
▁pressures	-11.5195
▁kitchen	-11.5195
▁density	-11.5196
▁Radio	-11.5197
▁eliminated	-11.5198
▁Im	-11.5199
▁internet	-11.5202
▁specialist	-11.5212
▁socially	-11.5213
▁feeding	-11.5215
▁errors	-11.5223
▁fears	-11.5227
▁Multilateral	-11.5229
▁shareholders	-11.523
▁lease	-11.523
▁teeth	-11.5231
▁Outcome	-11.5233
go	-11.5234
▁stored	-11.5237
▁DC	-11.524
▁illiteracy	-11.5241
▁recosting	-11.5243
▁centred	-11.5243
▁surprised	-11.5247
▁patrols	-11.5249
▁Rotterdam	-11.5256
▁128	-11.5259
▁stake	-11.5264
▁camera	-11.5269
▁expendable	-11.5272
▁thick	-11.5276
▁inventories	-11.5279
▁deploy	-11.5279
▁knowing	-11.528
led	-11.5281
▁contributors	-11.5281
▁tight	-11.5281
▁passenger	-11.5284
▁row	-11.5284
▁neglect	-11.5285
▁Seminar	-11.5287
▁appendix	-11.5287
▁windows	-11.5299
▁hostile	-11.5299
▁risen	-11.5303
.20	-11.5304
▁audio	-11.5306
▁indicative	-11.5308
He	-11.5311
▁readily	-11.5312
▁tongue	-11.5312
▁chains	-11.5313
▁safeguarding	-11.5314
▁perpetrated	-11.532
▁surgery	-11.5322
▁surely	-11.5326
▁incomes	-11.5327
▁2.5	-11.5329
▁incentive	-11.5329
▁diversion	-11.5329
▁everyday	-11.5334
▁Mainland	-11.5335
▁hazards	-11.5337
▁Response	-11.534
▁Take	-11.534
▁Chemicals	-11.5347
▁quarterly	-11.535
▁disclosed	-11.5352
▁cheap	-11.5353
▁barrier	-11.5355
▁filling	-11.5355
▁segments	-11.5356
▁removing	-11.5356
▁Summary	-11.5359
▁contend	-11.5361
ur	-11.5361
▁recovered	-11.5362
▁height	-11.5362
▁clock	-11.5373
▁completing	-11.5374
▁persistence	-11.5376
▁individually	-11.538
▁invoked	-11.5381
ra	-11.5389
▁hazard	-11.5393
▁Amendment	-11.5397
▁meantime	-11.5398
▁aggregate	-11.5399
human	-11.5402
▁Presidency	-11.5403
ate	-11.5404
▁insert	-11.5407
▁1975	-11.5409
▁confiscation	-11.5413
members	-11.5413
▁conform	-11.5415
▁Islam	-11.5417
▁hall	-11.5417
▁platforms	-11.5421
can	-11.5426
▁gravity	-11.5428
▁1974	-11.5428
▁Papua	-11.5431
▁earmarked	-11.5433
9	-11.5438
▁giant	-11.5442
▁explosives	-11.545
.109	-11.545
▁devote	-11.545
▁tremendous	-11.5455
▁alignment	-11.5455
▁commence	-11.5466
▁foods	-11.5469
▁Good	-11.547
▁rejection	-11.5471
▁sing	-11.5471
▁publishing	-11.5472
▁Genocide	-11.5476
▁noticed	-11.5478
▁margin	-11.5479
▁adolescent	-11.5479
▁ignored	-11.5482
▁annexed	-11.5483
▁socialist	-11.5484
▁switch	-11.5484
▁Mar	-11.5491
▁Resident	-11.5491
▁abolish	-11.5491
▁summarize	-11.5493
▁fifteenth	-11.5495
▁COMMITTEE	-11.5495
▁vertical	-11.5496
▁disseminating	-11.55
▁CST	-11.5504
▁sake	-11.5505
▁UNFICYP	-11.5506
▁policymaking	-11.5508
▁graduate	-11.5508
▁cancellation	-11.5509
▁intra	-11.5517
▁Governance	-11.5524
▁inheritance	-11.5525
▁winning	-11.5529
▁demonstrates	-11.553
▁instalment	-11.5537
▁explanations	-11.5537
▁uranium	-11.5539
▁du	-11.554
▁Line	-11.5541
▁hidden	-11.5546
▁unusual	-11.5549
▁keeps	-11.555
▁Goods	-11.5551
.22	-11.5553
▁Construction	-11.5554
▁infections	-11.5556
▁powder	-11.5559
▁shock	-11.5559
▁Market	-11.556
▁Eradication	-11.5564
▁dogs	-11.5567
▁periodically	-11.5572
▁hill	-11.5572
▁compare	-11.5578
▁124	-11.5578
▁subprogrammes	-11.5578
▁Istanbul	-11.558
▁By	-11.558
▁favorite	-11.5581
▁harmonize	-11.5583
▁Letter	-11.5583
▁Peaceful	-11.5585
▁lying	-11.5591
▁punishable	-11.5594
▁illegally	-11.5596
▁wrongful	-11.56
▁stores	-11.5601
▁"72	-11.561
▁nose	-11.5611
▁shelters	-11.5621
▁Registration	-11.5624
▁nomination	-11.5624
▁consulting	-11.5625
▁somebody	-11.5634
▁inability	-11.5635
▁arrears	-11.5637
▁hygiene	-11.5637
▁waves	-11.5639
▁implies	-11.5644
il	-11.5654
▁honor	-11.5655
▁Danish	-11.5656
▁heaven	-11.5656
▁occurring	-11.566
▁contingents	-11.5663
▁suspects	-11.5665
▁operator	-11.5672
▁blame	-11.5674
▁dynamics	-11.5675
▁Racism	-11.5677
▁email	-11.5679
▁gases	-11.568
▁Swedish	-11.5683
▁sensitivity	-11.5696
▁134	-11.5699
age	-11.5701
▁induced	-11.5704
▁split	-11.5707
▁GS	-11.5721
▁precious	-11.5722
▁container	-11.5722
ad	-11.5724
▁sessional	-11.5726
▁Grand	-11.5727
▁generous	-11.5729
▁logic	-11.5729
▁Brazilian	-11.5736
▁industrialized	-11.5739
ou	-11.5746
▁lifting	-11.5749
▁respecting	-11.5755
▁debts	-11.5757
▁accomplishment	-11.5758
▁accelerat	-11.5758
▁workplan	-11.5764
▁153	-11.5765
▁Abu	-11.5767
▁investor	-11.5772
▁SC	-11.5775
▁devastating	-11.5777
ating	-11.5779
▁wire	-11.578
▁Liaison	-11.578
▁eligibility	-11.5785
▁accomplish	-11.5787
▁deem	-11.5788
▁Integration	-11.5797
▁introductory	-11.5798
▁alike	-11.5815
▁Ni	-11.5818
▁Situation	-11.582
▁hardship	-11.5829
▁likewise	-11.5829
▁differential	-11.583
▁stressing	-11.5831
▁consolidat	-11.5834
▁artificial	-11.5837
▁persist	-11.5838
▁IMO	-11.5839
▁starts	-11.5841
▁watched	-11.5842
▁Gibraltar	-11.5842
▁comprised	-11.5847
▁restrictive	-11.5853
▁reproduced	-11.5854
national	-11.5856
▁logical	-11.5866
▁similarly	-11.5867
▁coalition	-11.5867
▁vacant	-11.5871
▁discount	-11.5876
▁passport	-11.5886
▁attracted	-11.5889
▁Enterprise	-11.5889
▁protest	-11.5889
chapter	-11.5895
expressing	-11.5897
▁compete	-11.5901
▁journal	-11.5904
▁harmonious	-11.5904
▁assistant	-11.5908
▁Conferences	-11.5911
▁violating	-11.5915
▁Media	-11.5919
▁superior	-11.5922
▁mortgage	-11.5923
▁luck	-11.5928
▁anywhere	-11.5929
▁websites	-11.5929
▁picked	-11.5933
▁residual	-11.5934
▁bomb	-11.5934
▁exhibition	-11.5944
▁Committed	-11.5945
▁warming	-11.5947
▁"73	-11.5952
▁r	-11.5954
▁deficiencies	-11.5954
▁comfort	-11.5956
me	-11.5965
▁qualification	-11.5966
▁chairs	-11.5967
▁couples	-11.597
▁entrance	-11.5973
▁lend	-11.5973
▁breath	-11.5973
▁Bonn	-11.5979
▁hide	-11.598
▁postponed	-11.5981
▁Macao	-11.5982
▁Master	-11.5983
▁deeper	-11.5986
▁phenomena	-11.5994
▁ceiling	-11.5999
▁PRESIDENT	-11.6005
▁pulled	-11.6009
▁soldier	-11.6015
▁verified	-11.6016
▁accumulation	-11.603
▁demonstrations	-11.6034
▁Based	-11.6047
▁Miss	-11.6056
still	-11.6059
▁stem	-11.6059
▁methodological	-11.606
▁packages	-11.6061
▁councils	-11.6062
▁produces	-11.6064
▁Inspectors	-11.6065
▁occurrence	-11.6066
▁poses	-11.6068
▁protein	-11.6068
▁frozen	-11.6069
▁Christ	-11.6071
▁explains	-11.6072
▁nominations	-11.6076
▁pledge	-11.6076
▁purchased	-11.6087
▁Lee	-11.6087
▁committing	-11.6091
▁broadcasting	-11.6093
▁preserving	-11.6093
▁Limited	-11.6095
▁drove	-11.6095
▁"74	-11.6097
▁ruled	-11.6098
▁Brown	-11.6099
▁survive	-11.6101
▁symptoms	-11.6101
▁tall	-11.6102
▁UNITA	-11.6103
▁correctly	-11.6105
Special	-11.6106
▁successor	-11.6121
▁News	-11.6124
▁dominant	-11.6124
▁males	-11.6126
▁Competition	-11.6127
▁Pan	-11.6129
ul	-11.6131
▁Access	-11.6134
▁liquidity	-11.6136
▁Democracy	-11.6139
ting	-11.6143
▁varying	-11.6151
▁Participation	-11.6152
ov	-11.6152
▁nearby	-11.6153
▁precision	-11.6155
▁angle	-11.6157
▁manufacturers	-11.6157
▁Lesotho	-11.6162
▁servant	-11.6163
▁deserve	-11.6163
▁Mo	-11.6165
▁archives	-11.6166
▁Promoting	-11.6171
▁Mogadishu	-11.6173
▁Conventional	-11.6174
▁scourge	-11.6176
▁Gambia	-11.6177
▁1977	-11.6178
▁Coalition	-11.618
▁182	-11.618
▁"75	-11.6182
▁awaiting	-11.6185
▁apartment	-11.6187
▁deputy	-11.6206
▁decentralized	-11.6208
▁chapters	-11.6208
▁accurately	-11.621
▁admit	-11.621
▁ride	-11.6215
▁Contributions	-11.6216
▁Plenary	-11.6219
▁MINURSO	-11.6222
▁1971	-11.6229
▁harder	-11.6236
▁variable	-11.6237
▁2,000	-11.6239
▁unclear	-11.6239
▁tuberculosis	-11.624
▁Po	-11.6253
▁array	-11.6255
▁accepting	-11.6255
▁Ethics	-11.6265
▁suspend	-11.6268
▁forensic	-11.6273
▁detected	-11.6274
▁vacation	-11.6276
▁vendors	-11.6279
▁imply	-11.6279
▁pump	-11.628
▁preferential	-11.6281
▁Accounts	-11.6281
▁chose	-11.6282
▁marking	-11.6283
▁tackl	-11.6288
▁1961	-11.6289
▁abilities	-11.6299
▁experiencing	-11.63
▁laser	-11.6303
▁126	-11.6303
▁Dispute	-11.631
▁minimal	-11.6311
▁holder	-11.6317
▁combine	-11.6318
▁institute	-11.632
▁ear	-11.6324
▁auto	-11.6327
▁hell	-11.6334
▁impetus	-11.6337
▁recipients	-11.6339
▁129	-11.6341
▁analyze	-11.6341
▁Bahamas	-11.6343
▁log	-11.6344
▁Recommendations	-11.6346
▁legs	-11.6347
▁countermeasures	-11.6347
▁signals	-11.6355
▁Hospital	-11.6355
▁wars	-11.6359
▁venue	-11.636
▁Chambers	-11.6364
▁portal	-11.6364
▁designation	-11.6369
▁CARICOM	-11.6373
▁ministry	-11.6376
▁abolished	-11.6378
▁worried	-11.6382
ueen	-11.6384
▁clinics	-11.6384
▁cap	-11.6385
▁provider	-11.6387
▁Destruction	-11.6389
▁Portuguese	-11.6389
▁Opportunities	-11.6396
▁recycling	-11.6399
▁outlook	-11.6404
▁thinks	-11.6407
▁tragedy	-11.6408
▁imposing	-11.641
▁compiled	-11.6417
▁corporation	-11.6429
▁livestock	-11.643
▁quarters	-11.6432
▁tourist	-11.6432
▁continental	-11.6436
hi	-11.644
▁trainers	-11.6446
▁joining	-11.6448
▁overdue	-11.6449
hence	-11.6452
▁moderate	-11.6453
stressing	-11.6454
▁Provisional	-11.6455
uality	-11.6457
▁reception	-11.646
▁Hotel	-11.6463
▁Three	-11.6467
▁Me	-11.6467
▁blocks	-11.6467
▁Ivorian	-11.647
▁methyl	-11.6472
▁captured	-11.6473
considering	-11.6473
.27	-11.6474
▁Church	-11.6475
▁Ki	-11.648
▁chances	-11.648
▁horizontal	-11.6488
▁Near	-11.6492
▁optical	-11.6493
▁IMIS	-11.6495
▁cloud	-11.6495
▁UNDAF	-11.6496
▁rebel	-11.6498
▁visibility	-11.6499
▁personally	-11.6499
▁strain	-11.6499
▁nursing	-11.6501
▁Jewish	-11.6505
▁multinational	-11.6506
▁Freedom	-11.651
▁phased	-11.6511
▁undertakings	-11.6512
▁Families	-11.6512
▁Reconciliation	-11.6514
▁GA	-11.6517
▁enactment	-11.6521
▁"76	-11.6521
▁finalize	-11.6523
20	-11.6524
▁Approach	-11.6526
▁Any	-11.6528
▁vegetables	-11.6532
▁undermined	-11.6535
▁marital	-11.6537
▁demanded	-11.6538
▁multilateralism	-11.654
▁Transfer	-11.6541
▁Design	-11.6542
▁Treaties	-11.6546
▁UNCDF	-11.6546
▁basically	-11.6547
▁raises	-11.6551
.23	-11.6552
▁tickets	-11.6554
▁delete	-11.6561
information	-11.6564
ter	-11.6566
▁schooling	-11.6568
▁favor	-11.6569
▁mood	-11.657
▁inception	-11.6572
▁1976	-11.6579
▁Solomon	-11.658
▁depression	-11.6584
▁humankind	-11.6585
▁chairmanship	-11.6586
▁noon	-11.6587
▁merit	-11.659
▁Robert	-11.6591
▁y	-11.6592
▁socioeconomic	-11.6595
▁lifted	-11.6597
▁solved	-11.6601
▁cable	-11.6602
▁AWG	-11.6604
▁roughly	-11.6605
▁definitely	-11.6606
▁trans	-11.6607
▁maps	-11.6609
▁169	-11.6612
▁voluntarily	-11.6615
▁PRST	-11.6617
▁Americas	-11.662
▁challenged	-11.6625
▁mirror	-11.6628
likewise	-11.6632
▁tiny	-11.6632
▁erosion	-11.6633
▁CRIC	-11.6634
▁Increase	-11.6634
▁contaminated	-11.6635
VII	-11.664
▁OP	-11.6641
▁Egyptian	-11.6642
▁Tibetan	-11.6645
▁coupled	-11.6648
▁Uses	-11.6649
▁truck	-11.665
▁spatial	-11.6653
▁pipe	-11.6657
▁sixteenth	-11.6661
▁ranking	-11.6662
▁shaped	-11.6664
▁tissue	-11.6665
▁Electronic	-11.6666
▁preclude	-11.6668
▁doubts	-11.667
▁roof	-11.6671
▁rubber	-11.6671
▁thermal	-11.6671
▁USA	-11.6672
▁pride	-11.6674
▁Harry	-11.6679
▁gaining	-11.6682
▁eggs	-11.6682
▁guests	-11.6682
▁commented	-11.6683
▁habit	-11.6686
▁Jan	-11.6696
▁promises	-11.6701
et	-11.6702
▁tied	-11.6707
▁belongs	-11.671
▁backed	-11.671
▁costly	-11.6713
▁crude	-11.6718
▁135	-11.6719
▁golden	-11.6724
▁Conservation	-11.6727
▁owed	-11.6727
ish	-11.673
▁aggressive	-11.6735
▁celebrate	-11.6741
▁helicopters	-11.6742
▁mainland	-11.6743
▁seventeenth	-11.6744
▁arose	-11.6746
Monday	-11.6746
▁predecessor	-11.6746
▁volatile	-11.6748
▁peacekeepers	-11.675
▁underground	-11.6751
▁doctrine	-11.6752
▁artistic	-11.6754
▁expressions	-11.6754
▁reasonably	-11.6755
▁streamlining	-11.6756
▁Telecommunicati	-11.6757
▁decid	-11.6758
▁besides	-11.6758
▁Umoja	-11.676
▁Dutch	-11.6763
▁captain	-11.6764
▁overcoming	-11.6767
▁compounds	-11.6768
▁civic	-11.6773
▁tropical	-11.6775
son	-11.6781
▁Border	-11.6784
▁Oman	-11.6785
▁publicity	-11.6786
▁arrests	-11.6789
▁films	-11.679
▁attempting	-11.6794
▁borrowing	-11.68
ld	-11.6803
▁1.1	-11.6806
▁sharply	-11.681
▁lifetime	-11.6815
▁norm	-11.682
▁universally	-11.682
▁confined	-11.6822
▁mom	-11.6824
ised	-11.6824
three	-11.6824
hu	-11.6825
▁OIC	-11.6827
▁lake	-11.6832
▁Prevent	-11.6839
ca	-11.6839
▁encouragement	-11.6839
▁extraction	-11.6841
▁demining	-11.6842
▁edition	-11.6843
▁compensate	-11.6847
▁commensurate	-11.6847
▁Chen	-11.6852
▁dose	-11.6857
▁unfair	-11.686
▁bio	-11.6864
▁5,000	-11.6864
▁naturally	-11.6867
▁broaden	-11.687
▁Role	-11.6872
▁restored	-11.6875
▁Provide	-11.6877
▁supporters	-11.6877
▁cream	-11.6879
▁wheel	-11.688
▁diligence	-11.6882
▁legacy	-11.6892
▁Aspects	-11.6895
▁audited	-11.6897
▁132	-11.6904
General	-11.6906
▁stayed	-11.6907
▁Award	-11.6909
▁dominated	-11.691
▁Joseph	-11.6911
▁petroleum	-11.6913
▁magnetic	-11.6914
ant	-11.6914
▁invention	-11.6917
▁treating	-11.6925
▁seeds	-11.6926
▁intermediate	-11.6928
▁coat	-11.693
▁"77	-11.693
▁educated	-11.6934
yeah	-11.6935
▁totalling	-11.6937
▁corrected	-11.6939
▁Private	-11.6939
▁correspondence	-11.6941
▁Embassy	-11.6942
▁ranks	-11.6943
▁exam	-11.6947
▁unfortunately	-11.6948
emphasiz	-11.6949
▁Defense	-11.6952
▁Verde	-11.6952
▁advocated	-11.6959
▁MDG	-11.696
▁Periodic	-11.6961
▁breaches	-11.6961
▁Minorities	-11.6961
▁volunteer	-11.6968
▁entitlements	-11.6971
▁deposited	-11.6972
▁paint	-11.6975
▁beneficiary	-11.6978
▁Its	-11.6979
▁Ho	-11.698
▁affirm	-11.6981
▁helicopter	-11.6987
▁identifies	-11.6987
▁James	-11.6991
▁libraries	-11.6991
▁united	-11.6993
▁fairness	-11.6995
▁selective	-11.7001
.25	-11.7001
▁affirmative	-11.7003
ance	-11.7009
ize	-11.7013
▁res	-11.7015
ri	-11.7016
▁linear	-11.7018
▁emerge	-11.702
due	-11.7021
▁crew	-11.7021
▁CIS	-11.7025
▁respects	-11.7028
Member	-11.7029
▁approached	-11.7033
▁Migrant	-11.7034
▁aftermath	-11.7035
▁investigators	-11.7035
▁pandemic	-11.7036
ley	-11.7043
▁eighteenth	-11.7045
▁weakness	-11.7047
▁slight	-11.7047
▁discovery	-11.7047
▁Practices	-11.7049
▁heating	-11.7049
▁141	-11.7049
▁coercive	-11.7052
work	-11.7053
▁appreciates	-11.7053
▁shocks	-11.7055
ING	-11.706
▁1972	-11.7062
▁distinguish	-11.7064
▁wash	-11.7068
▁microfinance	-11.7072
▁mercenaries	-11.7073
▁inspectors	-11.7077
▁inevitable	-11.7086
▁credits	-11.7086
▁"78	-11.7089
▁happening	-11.7089
▁alongside	-11.7092
▁immunities	-11.7093
▁fuels	-11.7095
▁centers	-11.7096
▁exemptions	-11.7097
▁brown	-11.7107
▁deportation	-11.7109
▁corrupt	-11.711
▁chicken	-11.7111
▁civilizations	-11.7121
▁RC	-11.7123
▁ICC	-11.7125
▁cooperatives	-11.7125
▁apportionment	-11.7126
▁liver	-11.7127
▁sophisticated	-11.713
▁hat	-11.7131
▁autumn	-11.7132
▁marginalization	-11.7134
▁graduates	-11.7135
▁abandon	-11.7135
▁expectancy	-11.7137
▁generic	-11.7139
▁Monaco	-11.714
▁Paper	-11.7142
▁negatively	-11.7146
w	-11.7146
▁dramatically	-11.7147
▁Manager	-11.715
▁iii	-11.715
▁131	-11.7156
▁offensive	-11.7156
▁specially	-11.7156
ha	-11.7158
▁loose	-11.7159
.24	-11.716
▁formerly	-11.716
▁Muslims	-11.7161
▁Chairmen	-11.7162
▁empowered	-11.7165
▁clusters	-11.7166
▁globe	-11.7169
▁benchmark	-11.7169
mining	-11.7174
▁converted	-11.7178
▁Informal	-11.7178
We	-11.718
▁133	-11.7183
▁162	-11.7188
▁Rico	-11.719
▁Jos	-11.7192
▁encompass	-11.7193
▁applicability	-11.7198
▁remittances	-11.72
▁Han	-11.7203
▁Festival	-11.7205
▁ignore	-11.7206
ier	-11.7207
▁COUNCIL	-11.7209
▁pharmaceutical	-11.7211
▁privatization	-11.7211
▁prosecutions	-11.7212
▁ITC	-11.7213
▁successes	-11.7214
▁regretted	-11.7215
▁Civilian	-11.7218
▁Reports	-11.7223
▁administer	-11.7223
▁defeat	-11.7224
▁restraint	-11.7226
▁rolling	-11.7229
▁signatories	-11.7239
▁contracted	-11.7244
▁conscious	-11.7247
▁Intelligence	-11.7251
▁interpretative	-11.7255
▁tells	-11.7268
▁fathers	-11.727
▁supervise	-11.7271
▁Progress	-11.7273
▁pricing	-11.7273
draft	-11.7274
▁Enforced	-11.7274
▁136	-11.7275
se	-11.7283
▁consecutive	-11.7283
▁streamline	-11.7284
▁judgements	-11.7284
▁acknowledging	-11.7285
▁tube	-11.7287
▁notable	-11.7293
▁Enhanced	-11.7295
▁score	-11.7297
▁sequence	-11.7298
ir	-11.7302
▁blockade	-11.7303
▁pushed	-11.7305
▁dad	-11.7305
▁AU	-11.7305
▁breakfast	-11.7312
▁Le	-11.7314
▁fix	-11.7314
▁fiber	-11.7314
▁graduation	-11.7317
ta	-11.7318
▁tone	-11.7328
▁copyright	-11.7329
▁reunification	-11.7329
▁cumulative	-11.733
▁chamber	-11.7334
▁Centres	-11.7335
▁educate	-11.7335
▁composite	-11.7335
▁settlers	-11.7337
▁dioxide	-11.7343
▁successive	-11.7343
▁suppress	-11.7344
▁evacuation	-11.7344
▁cooking	-11.7344
mi	-11.7348
▁Him	-11.7351
.29	-11.7354
▁economists	-11.7355
▁demanding	-11.7361
▁incomplete	-11.7362
▁evolved	-11.7363
▁interrelated	-11.7363
▁ACC	-11.7363
▁explosion	-11.7364
▁Multi	-11.7367
▁retired	-11.7368
▁fourteenth	-11.7369
▁missed	-11.737
▁"79	-11.737
▁copper	-11.7371
▁127	-11.7375
▁fluid	-11.7376
▁radical	-11.7377
▁holidays	-11.7378
▁travelling	-11.7378
▁pounds	-11.7379
▁charter	-11.738
ted	-11.7381
▁stolen	-11.7382
▁tsunami	-11.7389
▁contexts	-11.7392
▁forgotten	-11.7394
▁adviser	-11.7395
objective	-11.7398
▁badly	-11.7399
▁volatility	-11.7399
▁Abyei	-11.7401
▁235	-11.741
▁wheat	-11.741
▁activists	-11.7411
▁plenty	-11.7414
▁referral	-11.7415
▁competing	-11.7415
▁clauses	-11.7418
▁Certain	-11.7418
▁scenarios	-11.7419
▁determines	-11.7421
▁800	-11.7424
▁Virgin	-11.7427
▁accumulated	-11.743
▁SADC	-11.7431
▁Mohamed	-11.7432
▁protests	-11.7433
▁Charles	-11.7433
▁escalation	-11.7435
▁Georgian	-11.744
▁attained	-11.7441
▁classroom	-11.7441
▁Mexican	-11.7441
rather	-11.7446
▁impede	-11.745
▁ascertain	-11.7451
net	-11.7451
▁Caledonia	-11.7454
▁acquiring	-11.7455
▁infectious	-11.7455
▁UNV	-11.7458
▁communicable	-11.7459
ko	-11.7463
▁vendor	-11.7466
▁unchanged	-11.7468
▁auditors	-11.7473
▁licences	-11.7475
▁plain	-11.7481
are	-11.7483
▁interregional	-11.7489
▁static	-11.7492
▁freezing	-11.7494
▁predict	-11.7495
▁Tai	-11.7497
▁prevail	-11.7502
▁prisoner	-11.7506
▁Can	-11.7506
▁Contract	-11.7509
▁CTBT	-11.751
▁persecution	-11.7512
▁caution	-11.7515
▁suspicious	-11.7515
▁pocket	-11.7518
▁usefulness	-11.7519
ana	-11.7524
▁founding	-11.7528
▁benefiting	-11.7529
▁restitution	-11.7532
▁innovations	-11.7533
▁sc	-11.7533
▁hired	-11.7534
▁remainder	-11.7537
▁amongst	-11.7541
▁Serb	-11.7543
▁shell	-11.7546
▁"80	-11.755
▁k	-11.755
ED	-11.7553
▁UNDOF	-11.7555
▁1.3	-11.7558
▁choosing	-11.7559
▁proposing	-11.756
▁Establish	-11.7561
▁ID	-11.7561
▁Form	-11.7562
▁campus	-11.7563
▁vol	-11.7566
▁desert	-11.7568
▁steering	-11.757
▁Airport	-11.7579
▁contamination	-11.7579
▁metals	-11.7583
▁gifts	-11.7586
▁keen	-11.7593
▁assignments	-11.7601
▁beaten	-11.7602
▁consciousness	-11.7602
▁Bali	-11.7603
▁distribute	-11.7603
▁tech	-11.7607
▁inappropriate	-11.7608
▁sleeping	-11.7613
▁RES	-11.762
▁deepen	-11.762
▁Un	-11.7621
▁leverage	-11.7622
use	-11.7623
▁worship	-11.7624
▁pen	-11.7625
▁openness	-11.7627
▁Equatorial	-11.7633
▁OK	-11.7637
▁Presidential	-11.7642
▁economics	-11.7643
▁ray	-11.7645
▁paramount	-11.7646
▁Fed	-11.7648
▁County	-11.7649
▁Norwegian	-11.7655
▁stepped	-11.7661
▁Prison	-11.7664
▁tanks	-11.7667
▁cycles	-11.7669
▁admissible	-11.767
▁guards	-11.767
▁recruit	-11.7671
▁physically	-11.768
▁react	-11.7683
▁fleet	-11.7684
▁confrontation	-11.7689
▁factual	-11.7692
▁Who	-11.7692
▁Serbian	-11.7696
▁lights	-11.7697
▁lacked	-11.7699
▁landing	-11.7706
▁Stabilization	-11.7711
▁correlation	-11.7712
▁seize	-11.7714
iao	-11.7719
▁entitlement	-11.7721
11	-11.7722
▁uncertain	-11.7724
▁displayed	-11.7724
▁inviting	-11.7724
▁pretrial	-11.7725
mending	-11.7727
▁Risk	-11.7729
per	-11.7734
▁shells	-11.7735
▁parity	-11.7736
▁discriminate	-11.7739
▁lucky	-11.7743
using	-11.7745
▁Yu	-11.7745
▁advocates	-11.7746
▁disclose	-11.7749
wa	-11.7751
▁colleges	-11.7755
▁undoubtedly	-11.7756
▁Clinton	-11.7758
▁convergence	-11.7758
▁rations	-11.7759
▁affirms	-11.7759
▁checking	-11.7759
▁hoping	-11.776
▁contest	-11.7765
▁random	-11.7768
▁compile	-11.7769
▁parliaments	-11.7769
residing	-11.777
▁terminal	-11.7774
▁allegation	-11.7774
▁tape	-11.7774
▁irrigation	-11.7774
▁interviewed	-11.7778
▁BY	-11.7779
▁pollutants	-11.7782
▁theories	-11.7782
▁accrued	-11.7783
▁floods	-11.7784
▁specifications	-11.7785
▁motivation	-11.7787
▁veto	-11.779
eth	-11.7791
▁utilizing	-11.7792
ists	-11.7792
▁instrumental	-11.7793
▁sheets	-11.7793
▁Catholic	-11.7795
owing	-11.7796
▁eradicating	-11.7797
▁Charg	-11.7799
▁Roman	-11.78
▁requisite	-11.7801
▁delegate	-11.7803
▁scarce	-11.7809
▁They	-11.781
▁unencumbered	-11.7813
▁expectation	-11.7814
▁Programmes	-11.7816
▁absent	-11.7818
▁Club	-11.7824
▁AI	-11.7826
▁Economy	-11.7829
disproportionate	-11.7834
▁illustrated	-11.784
▁renovation	-11.7842
▁Sciences	-11.7846
▁bureau	-11.785
▁outbreak	-11.7853
▁impressive	-11.7855
▁manufactured	-11.7856
▁alarming	-11.7859
▁accessing	-11.7859
▁unlike	-11.7861
▁Go	-11.7862
▁cleaner	-11.7867
▁alarm	-11.7871
▁centuries	-11.7872
affaires	-11.7872
▁shirt	-11.7873
▁democratization	-11.7873
▁fabric	-11.7879
▁noble	-11.788
▁actor	-11.7881
▁seventy	-11.7881
▁ceased	-11.7882
▁hire	-11.7882
▁2.1	-11.7884
▁legality	-11.7884
▁HR	-11.7886
▁string	-11.7887
▁executing	-11.7888
▁linkage	-11.789
▁tortured	-11.7892
▁foreseen	-11.7894
▁injection	-11.7894
▁quotas	-11.7897
▁smell	-11.79
▁Friends	-11.7901
▁Lu	-11.7904
▁Wu	-11.7906
▁Bo	-11.7908
▁inquiries	-11.7908
▁tends	-11.7908
▁facilitates	-11.791
▁rooted	-11.791
.50	-11.7914
▁prioritize	-11.7916
▁intervene	-11.7916
ner	-11.7917
▁umbrella	-11.7918
nonetheless	-11.7919
▁Export	-11.7919
▁minds	-11.7922
▁Guid	-11.7923
▁voices	-11.7924
▁143	-11.7925
▁uneven	-11.7926
▁connections	-11.7926
▁CISG	-11.7928
▁Argentine	-11.7929
▁Richard	-11.7929
▁Views	-11.7939
▁beach	-11.7943
▁crossed	-11.7944
▁macro	-11.7944
▁hiring	-11.7947
▁laugh	-11.7955
▁expeditiously	-11.7955
reclassification	-11.7957
▁Operational	-11.7971
▁liked	-11.7974
▁confusion	-11.7984
▁connect	-11.7988
▁exporting	-11.799
▁enact	-11.7999
▁surge	-11.8001
▁rationale	-11.8004
▁directives	-11.8006
▁habits	-11.8006
▁Point	-11.8011
VIII	-11.8012
▁auditing	-11.8013
▁6.	-11.8014
▁guns	-11.8018
▁shooting	-11.8022
▁imbalances	-11.8022
▁Kim	-11.8022
▁fans	-11.8023
▁spreading	-11.8023
▁oxygen	-11.8024
▁sees	-11.8025
▁Compensation	-11.8026
▁combining	-11.803
▁Rehabilitation	-11.8034
▁gene	-11.8035
▁hearts	-11.8041
▁UNAMA	-11.8041
▁offshore	-11.8043
▁button	-11.805
▁ethnicity	-11.8053
▁remnants	-11.8053
▁Young	-11.8054
▁tailored	-11.8056
.51	-11.8064
letter	-11.8067
▁Microsoft	-11.8072
▁timber	-11.8072
▁bold	-11.8074
▁fled	-11.8075
▁trace	-11.8078
ities	-11.8078
▁doors	-11.8079
▁cleared	-11.8081
▁parameter	-11.8081
ol	-11.8082
▁pays	-11.8084
▁photos	-11.8085
▁Liu	-11.8087
▁restor	-11.8088
▁burn	-11.8089
▁terminated	-11.8093
▁producer	-11.8095
▁suppose	-11.8096
▁tribal	-11.8099
▁Henry	-11.81
▁banned	-11.81
▁seizure	-11.8104
▁AP	-11.8104
▁financially	-11.8105
▁scholars	-11.8108
▁voltage	-11.8108
▁harvest	-11.8108
▁Belize	-11.8114
▁Promote	-11.8114
▁Subsidiary	-11.8117
▁Major	-11.8117
▁swimming	-11.8117
▁forwarded	-11.8118
▁resist	-11.8118
▁criminals	-11.8119
▁Compact	-11.8121
▁Indonesian	-11.8121
▁outlines	-11.8121
▁Five	-11.8123
▁vulnerabilities	-11.8125
▁Reporting	-11.8125
▁highway	-11.8126
▁phones	-11.8132
▁profiles	-11.8134
▁251	-11.8135
▁god	-11.8136
▁Ageing	-11.8137
▁cohesion	-11.8138
▁approves	-11.8138
▁tourists	-11.8138
▁sustaining	-11.814
▁inspired	-11.8141
▁shelf	-11.8141
23	-11.8142
▁adjacent	-11.8143
▁hang	-11.8147
▁700	-11.8154
▁142	-11.8154
▁3,000	-11.8154
▁convictions	-11.8156
▁mixture	-11.8157
▁complied	-11.8161
▁alert	-11.8163
ite	-11.8165
▁Lucia	-11.8169
▁numerical	-11.817
▁selecting	-11.817
▁fortune	-11.8171
▁tie	-11.8172
▁failures	-11.8172
▁stimulus	-11.8176
▁buyers	-11.8179
▁1969	-11.8185
▁reporters	-11.8185
▁foremost	-11.8186
▁stockpiles	-11.8192
▁Credentials	-11.8193
ful	-11.8193
▁boom	-11.8195
▁confront	-11.82
▁concentrations	-11.82
▁fruitful	-11.8203
▁attracting	-11.8204
▁circular	-11.8208
▁simplified	-11.8208
▁rail	-11.8212
▁"81	-11.8216
▁interpret	-11.8219
section	-11.8221
▁MONUSCO	-11.8221
▁cement	-11.823
▁bears	-11.8232
▁ha	-11.8233
▁1951	-11.8233
▁guest	-11.8235
▁Agreements	-11.8237
▁beside	-11.8239
good	-11.8242
▁procuring	-11.8244
▁safer	-11.8247
▁Beirut	-11.8249
▁construct	-11.8252
▁optimization	-11.8253
▁parking	-11.8253
▁filter	-11.8254
▁Lake	-11.8255
▁lock	-11.8258
▁modifications	-11.8259
▁stamp	-11.826
▁interior	-11.8261
▁instituted	-11.8264
▁progressively	-11.8267
▁Auditor	-11.8268
▁Sam	-11.827
▁IDPs	-11.828
▁exert	-11.828
▁concert	-11.8283
▁meanwhile	-11.8285
▁fossil	-11.8288
▁singing	-11.8289
dustrialization	-11.829
▁execute	-11.8292
▁modes	-11.8292
▁accompanying	-11.8296
ina	-11.8298
▁packaging	-11.83
▁hungry	-11.83
▁trafficked	-11.8304
▁somewhere	-11.8314
▁Google	-11.8315
▁UNDG	-11.8316
▁Sa	-11.8317
▁Refugee	-11.8318
clock	-11.8318
▁flagrant	-11.8319
▁Don	-11.8322
▁containers	-11.8324
▁organisation	-11.8326
▁segregation	-11.8327
▁Ethiopian	-11.833
▁Solidarity	-11.833
▁Counsel	-11.8333
▁inserted	-11.8337
▁ordnance	-11.8343
▁connectivity	-11.8349
▁destructive	-11.8352
▁cure	-11.8358
▁perfectly	-11.8359
▁Higher	-11.8359
▁competencies	-11.8362
▁terminology	-11.8365
▁misuse	-11.8365
▁fluctuations	-11.8367
▁Kivu	-11.837
▁Mother	-11.837
▁likes	-11.8372
▁unequal	-11.8373
▁assuming	-11.8373
▁painful	-11.8373
▁enrolled	-11.8377
▁ears	-11.8377
▁auction	-11.839
line	-11.8395
▁interfere	-11.8399
▁designs	-11.84
▁transformed	-11.84
UNDP	-11.8405
▁reward	-11.8407
▁dying	-11.8408
▁embodied	-11.841
▁Thomas	-11.8411
▁FARDC	-11.8412
▁sheep	-11.8417
▁euros	-11.8419
▁Na	-11.8426
▁millennium	-11.8426
▁2.2	-11.8427
▁Detention	-11.8428
▁praise	-11.8434
▁loving	-11.8435
▁Index	-11.8436
▁qualities	-11.8436
▁Kowloon	-11.8437
▁Of	-11.8439
▁Sales	-11.8444
▁egg	-11.8445
▁Disability	-11.8445
▁hampered	-11.8447
▁depleting	-11.8452
▁distant	-11.8454
▁arises	-11.8456
▁informing	-11.8458
▁mature	-11.8463
▁locked	-11.8468
▁supplemented	-11.8469
▁deforestation	-11.8472
▁fruits	-11.8472
▁strikes	-11.8476
▁Language	-11.8478
▁announce	-11.8481
ee	-11.8486
▁imbalance	-11.8486
▁"82	-11.8488
▁overarching	-11.8489
▁searching	-11.849
▁rating	-11.849
look	-11.8496
▁claiming	-11.8496
▁disposition	-11.8498
▁chest	-11.85
▁defer	-11.8504
▁intercultural	-11.8514
▁enjoying	-11.8515
▁laboratories	-11.8522
▁Albanian	-11.8526
▁Accord	-11.853
▁Suriname	-11.8532
▁extends	-11.8532
ya	-11.8534
ng	-11.8536
▁congratulations	-11.8538
▁prosperous	-11.8542
▁confiscated	-11.8542
▁se	-11.8544
▁cancelled	-11.8544
▁entertainment	-11.8546
▁urging	-11.8549
▁policing	-11.855
▁Sports	-11.8553
▁stateless	-11.8555
▁Yang	-11.8558
ak	-11.8559
▁variation	-11.8561
▁checked	-11.8561
▁146	-11.8563
▁pragmatic	-11.8564
▁complementarity	-11.8564
▁elementary	-11.8565
▁employing	-11.8567
▁threw	-11.8569
▁strengths	-11.857
▁hamper	-11.8572
▁notifications	-11.8572
▁Campaign	-11.8572
source	-11.8574
▁entails	-11.8577
come	-11.8578
▁discover	-11.8578
▁shorter	-11.8581
.35	-11.8586
▁consultancy	-11.8586
▁CPC	-11.8592
▁plight	-11.8593
▁counties	-11.8597
▁finalization	-11.86
▁exchanged	-11.8602
▁"83	-11.8604
ni	-11.8605
▁immune	-11.8606
▁importantly	-11.8607
▁144	-11.8608
mproved	-11.8609
▁Acts	-11.8613
▁thrust	-11.8614
▁Comoros	-11.8615
▁farms	-11.8619
▁Forest	-11.8623
▁artillery	-11.8623
▁purchases	-11.8624
12	-11.8625
▁touched	-11.8628
▁dressed	-11.8635
▁UNOMIG	-11.8636
▁sustainment	-11.8637
▁shortages	-11.8649
▁unequivocal	-11.865
em	-11.865
ten	-11.865
▁circulate	-11.8653
▁fulfill	-11.8657
.30	-11.8662
▁theft	-11.8664
▁coach	-11.8665
▁catalyst	-11.8665
▁During	-11.8666
▁computing	-11.8666
▁apple	-11.8669
▁purely	-11.8673
▁170	-11.8675
▁belt	-11.8675
▁extensively	-11.8682
▁naval	-11.8684
▁UNMEE	-11.8685
▁leisure	-11.8685
▁interpreters	-11.8688
accompanied	-11.8688
overall	-11.8691
▁fed	-11.8694
▁establishments	-11.8696
)	-11.8699
▁indiscriminate	-11.8701
.40	-11.8703
▁suppression	-11.8704
▁166	-11.8707
▁Organic	-11.8709
▁speedy	-11.8711
▁interactions	-11.8714
▁favoured	-11.8718
▁decreasing	-11.8724
▁harsh	-11.8724
▁Kabul	-11.8726
▁stockpile	-11.8727
▁Traffic	-11.8728
▁proclaimed	-11.8731
▁absorb	-11.8731
▁rid	-11.8732
▁synergy	-11.8733
▁Whole	-11.8736
▁buried	-11.8737
▁"84	-11.874
▁receivables	-11.8742
▁145	-11.8742
▁cook	-11.8746
▁deadlines	-11.8749
▁leaf	-11.8751
▁observes	-11.8754
▁grand	-11.8756
▁delicate	-11.8757
▁alter	-11.8757
▁intelligent	-11.8758
▁147	-11.8759
▁celebration	-11.8759
▁Republican	-11.876
▁afforded	-11.876
▁mobilized	-11.8761
.28	-11.8762
▁volumes	-11.8763
▁preside	-11.8766
UN	-11.8766
▁eventual	-11.8768
▁deteriorating	-11.8769
▁mouse	-11.8771
▁Station	-11.8771
▁exporters	-11.8776
▁indications	-11.878
▁holy	-11.8782
▁di	-11.8783
▁farmer	-11.8785
▁137	-11.8785
▁0.7	-11.8787
▁darkness	-11.8789
▁commissioned	-11.8791
▁grades	-11.8791
▁frank	-11.8795
▁Front	-11.8797
▁th	-11.8799
support	-11.8801
▁militias	-11.8801
▁liberation	-11.8803
▁GHG	-11.8807
▁inevitably	-11.8808
▁abstract	-11.8808
im	-11.8809
▁parliamentarian	-11.8812
▁factories	-11.8813
▁narrative	-11.8816
▁Case	-11.8822
▁consular	-11.8825
▁Cap	-11.8826
▁engineers	-11.8827
▁valve	-11.883
▁dozen	-11.8831
▁156	-11.8833
▁Provisions	-11.8839
▁Her	-11.884
▁dedication	-11.8841
▁unsustainable	-11.8842
▁Southeast	-11.8842
▁Money	-11.8843
ong	-11.8843
▁Fisheries	-11.8844
▁voter	-11.8845
▁buffer	-11.8848
▁1950	-11.8848
▁exported	-11.8848
▁Twenty	-11.8853
▁opium	-11.8857
▁distress	-11.8857
▁DNA	-11.8857
▁clouds	-11.886
▁signatory	-11.886
▁3.1	-11.8861
▁executives	-11.8867
▁deserves	-11.8869
▁junior	-11.887
▁visas	-11.887
▁shouldn	-11.8875
▁immunization	-11.8881
▁adopts	-11.8887
lin	-11.8893
▁babies	-11.8895
▁simplify	-11.8895
▁rounds	-11.89
If	-11.8902
▁148	-11.8914
▁Recovery	-11.8919
▁dimensional	-11.8922
▁rivers	-11.8923
▁varies	-11.8924
▁Communist	-11.8924
▁passive	-11.8926
▁ICSC	-11.893
▁excellence	-11.8935
▁replacing	-11.8935
who	-11.8936
ik	-11.8937
▁adjournment	-11.8937
▁slave	-11.8938
▁139	-11.894
▁50,000	-11.8943
▁backlog	-11.8948
hey	-11.8957
▁stomach	-11.8958
▁cornerstone	-11.8958
Israel	-11.8961
▁Supply	-11.8961
▁worthy	-11.8962
▁leather	-11.8962
▁Inspector	-11.8964
▁vacuum	-11.8968
back	-11.8968
▁textbooks	-11.8968
▁remembered	-11.897
▁reforming	-11.8977
▁departmental	-11.8986
▁songs	-11.8986
▁athletes	-11.8989
▁trillion	-11.899
UNCTAD	-11.8992
▁Performance	-11.8993
▁readers	-11.8997
▁staying	-11.9002
▁reads	-11.9012
▁suspicion	-11.9014
▁upheld	-11.9017
▁nervous	-11.9019
medial	-11.9019
▁da	-11.9019
io	-11.9022
▁syndrome	-11.9025
▁deficits	-11.9026
▁151	-11.9028
▁Principal	-11.9029
▁documentary	-11.9029
▁Total	-11.903
▁donations	-11.903
▁Effective	-11.903
▁repairs	-11.9032
▁recruiting	-11.9033
▁academia	-11.9036
▁undue	-11.9042
▁HKSAR	-11.9043
▁corn	-11.9044
▁demonstrating	-11.9048
▁enjoys	-11.9049
▁efficacy	-11.9051
▁childcare	-11.9053
time	-11.9056
until	-11.9058
▁prize	-11.9061
▁variations	-11.9061
▁cried	-11.9062
▁unauthorized	-11.9062
You	-11.9064
▁tertiary	-11.9066
▁cleansing	-11.9067
▁describing	-11.9067
▁interact	-11.907
▁protracted	-11.9072
id	-11.9072
fourth	-11.9073
▁confronted	-11.9074
▁tail	-11.9074
▁magic	-11.9076
▁importing	-11.9078
▁Swaziland	-11.9079
▁Aboriginal	-11.9083
▁Enforcement	-11.9085
▁Pro	-11.9086
▁instant	-11.9089
▁centralized	-11.909
▁absorbed	-11.909
▁Impact	-11.9091
▁sewage	-11.9097
▁organised	-11.9099
▁lodged	-11.9099
▁enemies	-11.9101
▁Berlin	-11.9103
▁Kimberley	-11.9104
▁Vincent	-11.9105
▁vaccine	-11.9105
▁seal	-11.9105
▁abduction	-11.9107
▁initiation	-11.9111
▁sciences	-11.9113
▁Applications	-11.9114
▁diagnostic	-11.9117
▁seriousness	-11.9118
▁uh	-11.9125
▁creativity	-11.9125
▁sin	-11.9129
▁variables	-11.9129
▁attaining	-11.913
▁panellists	-11.913
▁tariffs	-11.9135
▁Series	-11.9135
▁packing	-11.9135
▁Serbs	-11.9136
▁validation	-11.9139
▁affiliated	-11.914
▁actuarial	-11.9146
▁exciting	-11.9146
▁dismissal	-11.9147
▁universe	-11.9148
▁stones	-11.9148
▁enthusiasm	-11.9151
▁resistant	-11.9153
▁UNAMSIL	-11.9154
provision	-11.9156
▁reaches	-11.9157
▁slowdown	-11.9164
▁220	-11.9165
▁hostage	-11.9167
▁fighters	-11.9177
▁offender	-11.9178
▁IPCC	-11.9182
▁Verification	-11.9183
▁deepening	-11.9185
▁doubled	-11.9186
▁undergo	-11.9192
▁William	-11.9192
▁beer	-11.9193
▁20,000	-11.9194
▁inmates	-11.9195
▁complainants	-11.9196
▁cloth	-11.9197
▁luxury	-11.9202
why	-11.9202
▁Town	-11.9204
▁cooperated	-11.9204
▁IOM	-11.9206
unless	-11.9207
▁optimize	-11.9208
15	-11.921
▁measurable	-11.921
▁158	-11.921
▁artists	-11.9211
▁fingers	-11.9212
▁nutritional	-11.9214
den	-11.9215
▁mitigat	-11.9216
▁carriage	-11.9218
▁deliberately	-11.9218
▁borrow	-11.9219
▁striking	-11.922
▁finger	-11.9224
▁undergoing	-11.9226
▁enrichment	-11.9228
▁narcotic	-11.9235
▁acced	-11.9236
▁Combating	-11.9237
▁calculate	-11.924
▁traders	-11.9246
▁participates	-11.9247
▁Love	-11.9249
▁minerals	-11.9251
▁bombs	-11.9254
▁"85	-11.9254
▁compact	-11.9255
▁shipments	-11.9256
▁Eritrean	-11.9256
▁Cup	-11.9256
▁presently	-11.9262
▁matching	-11.9264
▁lengthy	-11.928
▁extremism	-11.928
ut	-11.9282
▁disorder	-11.9286
▁orderly	-11.9288
▁controversial	-11.9289
▁scales	-11.9292
▁sacrifice	-11.9293
▁likelihood	-11.9297
isation	-11.9298
▁shops	-11.9299
▁1.4	-11.9301
▁therapeutic	-11.9304
may	-11.9305
▁pleasant	-11.9306
▁caring	-11.9311
q	-11.9313
13	-11.9313
▁Arusha	-11.9316
▁Nature	-11.9316
▁equation	-11.9318
▁standardization	-11.9322
▁nonetheless	-11.9322
note	-11.9323
▁Contracts	-11.9325
▁Effects	-11.9326
▁Compliance	-11.9328
▁Vol	-11.933
▁1963	-11.9331
▁insisted	-11.9335
▁IFAD	-11.9336
▁healthcare	-11.9336
▁Controller	-11.9338
▁rigorous	-11.9339
▁KP	-11.9343
▁fever	-11.9349
▁UNAMI	-11.9354
▁radar	-11.9361
▁Vanuatu	-11.9364
▁petition	-11.9366
▁enacting	-11.9367
▁fought	-11.9368
▁municipality	-11.9372
▁Arctic	-11.9375
▁detrimental	-11.9377
▁conditional	-11.9379
▁announcements	-11.9381
▁absorption	-11.9381
▁Observatory	-11.9387
▁commander	-11.939
▁curve	-11.9395
▁crash	-11.9397
▁perpetrator	-11.9403
▁reorganization	-11.9403
▁scholarships	-11.9404
▁208	-11.9406
▁coexistence	-11.9407
▁verbatim	-11.9409
▁reveals	-11.9409
▁viability	-11.9411
▁1325	-11.9412
▁relied	-11.9414
▁compatibility	-11.9417
▁quest	-11.9419
▁242	-11.9419
▁Chicago	-11.9432
▁warehouse	-11.9432
▁liberal	-11.9435
▁Belgrade	-11.9435
▁seizures	-11.9438
▁install	-11.9442
▁alliance	-11.9445
▁stuck	-11.9452
▁anybody	-11.9458
.36	-11.946
▁suggesting	-11.9463
▁colors	-11.9464
▁stupid	-11.9465
▁assign	-11.9465
▁crazy	-11.9469
▁Marshall	-11.947
▁cake	-11.9475
▁depended	-11.9476
▁laying	-11.948
▁administrations	-11.9487
▁Crimes	-11.9488
▁asserted	-11.9488
▁overlap	-11.949
50	-11.9492
▁Income	-11.9497
▁bidding	-11.9498
▁Ministries	-11.9501
.37	-11.9505
▁ideological	-11.9507
▁crack	-11.9508
▁Khartoum	-11.951
▁Falkland	-11.951
▁grid	-11.9512
▁enforcing	-11.9513
▁cancel	-11.9516
▁213	-11.9517
▁terminate	-11.9522
▁invalid	-11.9524
▁kid	-11.9525
▁precarious	-11.9527
▁agro	-11.9533
▁insist	-11.954
▁reactions	-11.954
▁reduces	-11.9541
▁Minimum	-11.9542
▁aerial	-11.9545
▁Museum	-11.9546
▁incremental	-11.955
▁Mines	-11.9551
▁develops	-11.9552
take	-11.9555
▁artist	-11.9556
▁diabetes	-11.956
▁preserved	-11.9562
▁bromide	-11.9564
▁"86	-11.9564
▁rests	-11.9567
▁encounter	-11.9571
▁kiss	-11.9573
▁Ahmed	-11.9575
▁spaces	-11.9576
▁sensor	-11.9577
▁Father	-11.9579
▁tended	-11.9583
▁accepts	-11.9585
▁robbery	-11.9586
▁226	-11.9588
convinced	-11.9588
bo	-11.9588
▁shortfall	-11.959
▁confirms	-11.9593
▁sincerely	-11.9594
▁intentions	-11.9595
▁upward	-11.9597
▁differently	-11.9604
▁empowering	-11.9605
▁comprehensively	-11.9608
▁Stockpiling	-11.9608
▁dialogues	-11.9612
ge	-11.9614
non	-11.9616
▁ratios	-11.9617
▁foregoing	-11.9619
▁157	-11.9619
participants	-11.9619
▁schedules	-11.9621
▁conciliation	-11.9621
▁tries	-11.9622
▁scrutiny	-11.9625
▁Chi	-11.9626
▁exploited	-11.9629
▁mad	-11.963
▁flame	-11.963
▁Brindisi	-11.9635
.39	-11.9638
▁vibration	-11.9643
▁tracing	-11.9645
▁embedded	-11.9645
▁yearly	-11.9645
ese	-11.9646
▁loud	-11.9647
▁substantiated	-11.9648
▁Mark	-11.9649
▁suited	-11.965
▁disregard	-11.965
▁continually	-11.9656
▁Procedures	-11.9656
▁precaution	-11.9657
▁minded	-11.9662
▁preamble	-11.9662
▁protects	-11.9666
▁IDF	-11.9666
▁differentiated	-11.9667
▁daughters	-11.9669
▁knife	-11.9671
▁steam	-11.9672
▁presumption	-11.9674
▁oneself	-11.9676
▁manufacturer	-11.968
▁oppos	-11.9681
▁cannabis	-11.9681
hou	-11.9682
▁Hamas	-11.9682
▁humans	-11.9687
▁litigation	-11.9689
▁embrace	-11.9695
▁unexpected	-11.9696
▁funny	-11.9697
▁Have	-11.9702
▁atmospheric	-11.9705
▁particles	-11.9706
▁Age	-11.9708
▁Investigations	-11.9708
▁extremist	-11.971
▁loading	-11.9711
▁complain	-11.9713
▁Shi	-11.9717
▁clashes	-11.9718
▁allege	-11.9721
▁premium	-11.9724
▁conservative	-11.9725
▁transferr	-11.9725
▁dependency	-11.9727
▁sword	-11.9727
▁surrender	-11.9727
▁161	-11.9728
▁Develop	-11.9735
▁propaganda	-11.9736
▁Seychelles	-11.9737
▁Offr	-11.9737
▁concessions	-11.974
▁photographs	-11.9741
▁Trustees	-11.9742
▁taxi	-11.9745
▁3.5	-11.9746
▁152	-11.9752
▁basin	-11.9758
▁prompted	-11.9769
▁GENERAL	-11.9769
▁relax	-11.9772
uestion	-11.9772
▁hath	-11.9772
▁"88	-11.9773
▁pushing	-11.9775
▁footing	-11.9783
▁Contact	-11.9789
▁154	-11.9789
▁Per	-11.9791
sen	-11.9791
▁tip	-11.9792
▁227	-11.9792
▁del	-11.9792
▁countryside	-11.98
extraterritorial	-11.9801
▁MISC	-11.9801
▁Landlocked	-11.9801
▁imagination	-11.9804
▁widening	-11.9806
▁condemnation	-11.9807
▁permanently	-11.9808
▁firing	-11.9813
▁Croatian	-11.9814
▁meals	-11.9814
▁Valley	-11.9814
▁hereinafter	-11.9814
.38	-11.982
▁Future	-11.9822
▁situated	-11.9823
▁dirty	-11.9825
▁safely	-11.9826
▁shed	-11.9831
▁Subcommission	-11.9831
▁Empowerment	-11.9834
▁Judges	-11.9836
▁lips	-11.9837
▁tower	-11.9844
▁Communities	-11.9846
▁overtime	-11.9847
▁burned	-11.9847
▁flash	-11.985
▁wound	-11.9851
together	-11.9853
▁muscle	-11.9855
▁tear	-11.9859
▁nationalities	-11.986
▁Annan	-11.9861
.31	-11.9865
▁201	-11.9866
▁abducted	-11.9867
▁subtotal	-11.9867
▁jumped	-11.987
▁sexes	-11.9872
▁arsenals	-11.9874
▁ERP	-11.9874
▁illustrate	-11.9874
▁Watch	-11.9875
▁mg	-11.9875
▁movies	-11.9875
▁shoot	-11.9883
▁approaching	-11.9886
▁bags	-11.9886
▁le	-11.9887
▁convenience	-11.989
about	-11.9891
ology	-11.9892
▁seconds	-11.9893
▁Let	-11.9894
▁preferences	-11.9895
lan	-11.9895
▁summaries	-11.9895
▁van	-11.9897
ke	-11.99
▁meters	-11.9901
▁basketball	-11.9902
▁FMCT	-11.9902
▁geological	-11.9904
▁multisectoral	-11.9904
▁theatre	-11.9905
▁prospective	-11.9907
▁consuming	-11.9908
▁expiration	-11.9917
▁disadvantage	-11.9919
▁Jim	-11.9919
▁defects	-11.9919
▁ITU	-11.992
▁beam	-11.992
▁unconditional	-11.9924
▁passion	-11.9924
▁pipeline	-11.9926
▁armaments	-11.9926
▁exceeds	-11.9926
▁UNMIT	-11.9929
.34	-11.993
▁lovely	-11.9932
▁unliquidated	-11.9933
▁refuge	-11.9934
▁wireless	-11.9934
▁extract	-11.9939
▁bitter	-11.9942
▁orphans	-11.9942
▁passes	-11.9943
▁Antigua	-11.9944
▁rebuilding	-11.9944
▁redeployed	-11.9947
▁banning	-11.9948
▁flu	-11.9948
▁rebuild	-11.9949
▁lastly	-11.995
▁270	-11.9952
der	-11.9952
▁regrettable	-11.9956
▁sensitization	-11.9957
▁Times	-11.9959
▁rats	-11.9961
▁observing	-11.9965
▁strongest	-11.9967
▁Executives	-11.9967
▁washing	-11.9972
▁diffusion	-11.9973
▁tentative	-11.9976
▁legislature	-11.9977
▁silk	-11.9977
▁Moroccan	-11.9981
▁"89	-11.9981
▁Oil	-11.9981
▁engineer	-11.9986
▁w	-11.9988
▁Di	-11.9988
▁disappointed	-11.9989
UNICEF	-11.9989
▁Mi	-11.999
▁prone	-11.9994
▁triangular	-11.9995
▁refined	-11.9998
▁kick	-12.0001
▁UNPROFOR	-12.0001
.33	-12.0001
concerning	-12.0002
▁anyway	-12.0004
▁210	-12.0004
.32	-12.0005
&	-12.0005
▁commanders	-12.0007
▁Jones	-12.0008
▁crystal	-12.0013
▁asks	-12.0013
▁instructed	-12.0015
▁Ozone	-12.0016
▁anxiety	-12.0017
▁disturbing	-12.0018
▁Intellectual	-12.0018
▁ensuing	-12.0018
▁"87	-12.0021
▁UPR	-12.0022
▁boxes	-12.0022
▁editor	-12.0023
▁Fundamental	-12.0024
ex	-12.0025
▁248	-12.0025
▁dare	-12.0026
▁Not	-12.003
▁secrets	-12.0031
aire	-12.0035
▁149	-12.0043
▁reproduction	-12.0044
▁compliant	-12.0047
▁calculating	-12.0049
htm	-12.0054
▁deputies	-12.0058
▁circumstance	-12.0059
▁traffickers	-12.0059
long	-12.0062
▁endanger	-12.0066
▁Plurinational	-12.0072
▁arriving	-12.0074
▁hub	-12.0085
▁airports	-12.0086
▁predicted	-12.0087
▁el	-12.0089
▁cattle	-12.009
▁nurses	-12.0094
▁reluctant	-12.01
▁merger	-12.0102
▁Understanding	-12.0106
▁payroll	-12.0106
▁struggling	-12.0111
multidimensional	-12.0116
▁emanating	-12.0126
▁confronting	-12.0127
▁fan	-12.0128
▁flesh	-12.0129
▁imminent	-12.0129
▁Oceans	-12.013
▁expelled	-12.0131
▁maturity	-12.0137
▁vested	-12.0138
▁influences	-12.014
▁disadvantages	-12.014
▁shore	-12.0141
▁clearer	-12.0143
▁Vietnam	-12.0144
▁hedge	-12.0147
▁complications	-12.0147
▁rocks	-12.0149
▁Barbuda	-12.015
▁deficiency	-12.0152
▁analyzing	-12.0154
▁Include	-12.0155
▁contributor	-12.0157
▁Equipment	-12.016
▁sympathy	-12.016
▁After	-12.016
have	-12.0163
▁travelled	-12.0164
▁Recommendation	-12.0171
▁Courts	-12.0173
▁accessed	-12.0174
▁bin	-12.0176
▁regulators	-12.0176
▁unfortunate	-12.0178
▁3.2	-12.018
▁restaurants	-12.0183
▁generators	-12.0185
▁constrained	-12.0186
▁dawn	-12.0194
▁Abuse	-12.0194
ba	-12.0195
▁wildlife	-12.0196
▁eager	-12.0197
▁loves	-12.0198
▁rebels	-12.0199
▁dancing	-12.02
▁burdens	-12.0201
▁assert	-12.0204
▁titles	-12.0205
▁atomic	-12.0208
▁pop	-12.0208
▁opens	-12.0209
way	-12.021
▁predictability	-12.0211
▁measurements	-12.0212
▁211	-12.0213
▁devise	-12.0213
▁Substances	-12.0213
▁hasn	-12.0217
▁Spring	-12.0217
▁Almaty	-12.0217
▁battery	-12.0218
▁organisms	-12.0219
▁temperatures	-12.022
▁lamp	-12.0221
▁aggravated	-12.0222
▁fence	-12.0224
▁literary	-12.0233
▁deadly	-12.0233
▁breaks	-12.0236
sometimes	-12.0243
▁Best	-12.0244
▁excited	-12.0245
▁irreversible	-12.0249
Japan	-12.0251
▁eighty	-12.0251
▁lacks	-12.0253
▁surprising	-12.0253
▁Organizational	-12.0254
▁neglected	-12.0257
▁interdependent	-12.0259
▁Austrian	-12.026
▁Overseas	-12.0261
▁Delhi	-12.0261
▁Tuvalu	-12.0263
▁privately	-12.0264
▁insured	-12.0266
16	-12.0266
▁lectures	-12.0266
▁sampling	-12.0268
▁rush	-12.0269
▁underline	-12.0272
▁Maintenance	-12.0275
▁guides	-12.0281
▁vigorous	-12.0283
▁2.4	-12.0285
▁Dag	-12.0286
▁ink	-12.0286
▁litem	-12.0288
▁listened	-12.029
efforts	-12.0291
▁159	-12.0294
▁Crisis	-12.0296
▁memories	-12.0296
▁Citizens	-12.0301
▁reconsider	-12.0301
▁Kinshasa	-12.0301
▁deter	-12.0303
▁precedent	-12.0305
▁span	-12.0307
.2.	-12.0309
.105	-12.031
▁Su	-12.0311
▁disorders	-12.0311
apart	-12.0319
▁incoming	-12.032
▁subsidy	-12.0322
statement	-12.0326
▁exhaust	-12.0327
▁poorly	-12.0329
▁waited	-12.033
▁clubs	-12.033
▁SAR	-12.0331
▁upset	-12.0332
▁brave	-12.0333
▁synthetic	-12.0334
▁Or	-12.0335
▁LRA	-12.0341
▁Offices	-12.0342
▁disk	-12.0346
▁confinement	-12.0348
▁void	-12.0352
▁shifting	-12.0353
▁sooner	-12.0356
part	-12.0357
▁bridges	-12.0362
▁hurry	-12.0367
▁francs	-12.0368
▁bulletin	-12.0369
▁automation	-12.037
▁bacteria	-12.0374
▁UNLB	-12.0376
▁barrel	-12.0377
ek	-12.0385
▁Car	-12.0389
▁Appointment	-12.0389
▁quo	-12.0393
▁Phase	-12.0393
▁enriched	-12.0402
▁"90	-12.0402
▁rolled	-12.0402
▁nets	-12.0403
▁Narcotics	-12.0408
▁complained	-12.0412
▁Jo	-12.0413
▁honey	-12.0414
▁praised	-12.0414
▁simultaneous	-12.0415
▁ideals	-12.0415
▁manifest	-12.0418
ez	-12.0418
▁burst	-12.0421
▁coup	-12.0421
▁clinic	-12.0423
▁165	-12.0423
▁wanna	-12.0425
additional	-12.0426
▁speaks	-12.0428
▁UNMISS	-12.0431
▁scaling	-12.0432
▁criticized	-12.0432
▁eco	-12.0433
▁midterm	-12.0433
▁abused	-12.0435
▁INSTRAW	-12.0437
▁nominal	-12.0437
▁glance	-12.0438
▁Yi	-12.0438
▁avail	-12.0439
▁romantic	-12.044
▁milestone	-12.0443
▁ineffective	-12.0445
▁hybrid	-12.0454
▁hydraulic	-12.0456
▁Armenian	-12.0458
▁estimation	-12.0459
▁OL	-12.0461
▁manuals	-12.0462
▁agendas	-12.0462
▁drag	-12.0463
▁guilt	-12.0463
▁lecture	-12.0466
acknowledging	-12.0466
▁grows	-12.0467
▁bias	-12.0468
▁Are	-12.0468
▁turnover	-12.0468
Governments	-12.047
▁Labor	-12.0471
▁asleep	-12.0471
▁2.30	-12.0475
▁journalist	-12.0476
▁defendants	-12.0483
▁qualify	-12.0483
▁checkpoints	-12.0488
▁utilities	-12.0489
▁mice	-12.0493
▁lung	-12.0495
▁boats	-12.0495
▁UNA	-12.0497
▁explaining	-12.0497
▁exhaustive	-12.0497
▁finances	-12.0503
▁certainty	-12.0506
▁understands	-12.0506
▁poll	-12.0506
▁Da	-12.0507
▁vigorously	-12.0508
▁quit	-12.051
▁LDC	-12.0512
▁forecasts	-12.0514
▁Ming	-12.0514
▁inflows	-12.0514
▁Yes	-12.0515
▁1948	-12.0521
▁Inquiry	-12.0521
▁altogether	-12.0522
▁Meetings	-12.0522
▁diplomats	-12.0524
▁ICCD	-12.0525
▁Well	-12.0525
▁constituent	-12.0526
citing	-12.0527
▁carriers	-12.053
▁optimistic	-12.053
▁infrastructures	-12.0531
▁perceptions	-12.0532
▁Polish	-12.0534
▁1.	-12.0535
▁disciplines	-12.0536
▁OAS	-12.0544
▁exempt	-12.0546
▁wholly	-12.0547
▁spots	-12.0548
▁deserved	-12.0549
▁Brunei	-12.0553
▁immense	-12.0559
▁ICEF	-12.0559
▁167	-12.0559
▁embarked	-12.0561
▁audiences	-12.0563
▁criminalization	-12.0564
▁Arts	-12.0568
▁convert	-12.0568
▁quoted	-12.0569
▁Ch	-12.057
▁disrupt	-12.057
▁holdings	-12.057
▁stroke	-12.0571
▁trauma	-12.0575
▁transported	-12.0577
▁versus	-12.0583
▁probability	-12.0586
▁approving	-12.0589
▁Kofi	-12.0589
▁Dynasty	-12.0591
regional	-12.0594
▁bankruptcy	-12.0594
▁175	-12.0595
▁withdrew	-12.0595
▁jet	-12.0596
▁amnesty	-12.0598
▁drinks	-12.06
▁repeal	-12.06
▁uncle	-12.06
aware	-12.0603
▁wings	-12.0605
▁163	-12.0605
▁amid	-12.0606
▁craft	-12.0609
▁Bosnian	-12.0609
▁Mac	-12.0611
19	-12.0611
▁tap	-12.0615
▁trips	-12.0616
▁optimum	-12.0616
▁oppose	-12.0617
▁threatens	-12.0619
▁Morgan	-12.062
▁triennial	-12.0624
▁cabinet	-12.0624
ero	-12.0626
▁forecasting	-12.0626
▁premature	-12.0626
ES	-12.0631
▁Wen	-12.0637
▁homework	-12.0638
za	-12.0639
▁Areas	-12.064
▁Ukrainian	-12.0641
▁initiat	-12.0643
▁moments	-12.065
▁Consideration	-12.0651
▁verifiable	-12.0654
▁Trusteeship	-12.0657
▁occupy	-12.0659
▁peacefully	-12.0659
▁wastewater	-12.066
▁Disabled	-12.0665
▁Accra	-12.0665
▁immigrant	-12.0667
▁Learning	-12.0671
▁DPRK	-12.0673
▁basket	-12.0673
▁slum	-12.0674
▁implied	-12.0676
▁Thai	-12.0676
▁monopoly	-12.0678
▁destiny	-12.0687
▁festival	-12.0687
▁congresses	-12.069
▁hotels	-12.0696
▁flew	-12.0699
▁conferr	-12.0699
▁statutes	-12.07
▁Judiciary	-12.0703
▁Mohammed	-12.0704
▁delegated	-12.0712
▁Johnson	-12.0717
▁Partnerships	-12.0718
▁technically	-12.0722
▁hunting	-12.0722
▁Abkhazia	-12.0722
▁Jane	-12.0727
▁Missions	-12.0728
▁Lands	-12.0729
▁Daniel	-12.073
▁impediments	-12.0731
▁worrying	-12.0732
▁constitut	-12.0733
▁invoke	-12.0733
▁While	-12.0734
▁grace	-12.0734
▁whatsoever	-12.0739
▁mathematical	-12.074
▁diversified	-12.0744
▁outsourcing	-12.0747
▁Socialist	-12.0749
▁recommending	-12.0753
▁credited	-12.0754
▁brush	-12.0758
istic	-12.0763
▁GIS	-12.0766
▁streamlined	-12.0766
▁chocolate	-12.0769
▁Item	-12.0769
▁tens	-12.0773
▁4.5	-12.0778
▁damaging	-12.078
▁adequacy	-12.0781
▁permitting	-12.0781
▁fullest	-12.0782
▁impeding	-12.0783
▁Fair	-12.0784
▁350	-12.0785
▁Ra	-12.0786
▁reminder	-12.0786
▁Daily	-12.0786
▁Growth	-12.0788
▁discourage	-12.0789
▁classic	-12.079
agenda	-12.0791
head	-12.0791
▁reservoir	-12.0792
▁apartheid	-12.0794
▁prevalent	-12.0796
▁barely	-12.0797
▁nurse	-12.0801
▁factions	-12.0802
▁albeit	-12.0805
▁striving	-12.0807
▁conveyed	-12.0813
▁talents	-12.0814
▁layout	-12.0816
▁timeliness	-12.0818
▁amazing	-12.0818
▁downward	-12.0818
▁jeopardize	-12.0819
▁Documentation	-12.0822
▁Crescent	-12.0824
▁Cluster	-12.0824
▁ICCPR	-12.0826
▁valley	-12.0828
▁2.3	-12.083
▁problematic	-12.0833
ti	-12.0834
▁192	-12.0835
▁attributes	-12.0837
training	-12.0837
▁allies	-12.084
▁hanging	-12.0842
▁164	-12.0842
▁swim	-12.0843
▁kidnapping	-12.0846
had	-12.0846
▁Certificate	-12.0848
▁wealthy	-12.0849
▁commits	-12.0849
▁shaping	-12.0852
▁induction	-12.0854
▁chip	-12.0855
▁communal	-12.0859
▁Continue	-12.0859
▁museum	-12.0859
▁disruption	-12.0868
▁WMO	-12.0869
action	-12.0869
▁ICAO	-12.087
▁Se	-12.087
thanks	-12.087
▁Autonomous	-12.0871
▁concession	-12.0871
▁tennis	-12.0872
▁cocaine	-12.0878
ise	-12.0878
talled	-12.0878
whether	-12.088
▁practically	-12.0881
▁Malvinas	-12.0885
▁precede	-12.0886
▁affair	-12.089
▁commemoration	-12.0891
▁lighting	-12.0892
▁childbirth	-12.0897
.41	-12.0904
▁exhaustion	-12.091
▁questionnaires	-12.0911
▁indictment	-12.0912
▁heroin	-12.0913
▁Los	-12.0916
▁collaborating	-12.0916
▁218	-12.0917
▁tunnel	-12.0921
▁brutal	-12.0924
▁Sichuan	-12.0926
▁hospitality	-12.0926
▁Satellite	-12.0926
▁temple	-12.0928
▁Ottawa	-12.093
▁abundant	-12.0931
economic	-12.0932
▁inflicted	-12.0932
▁relies	-12.0936
▁eurozone	-12.0938
int	-12.0942
▁pale	-12.0943
▁alliances	-12.0946
▁apparatus	-12.0946
▁Command	-12.0949
▁beneath	-12.0949
▁colleague	-12.0951
▁pot	-12.0951
development	-12.0956
▁despair	-12.0958
▁Maria	-12.0959
▁Atlas	-12.0961
▁pesticides	-12.0962
▁defending	-12.0964
▁overcrowding	-12.0964
▁CEO	-12.0966
▁compelled	-12.0969
▁260	-12.0972
▁imprisoned	-12.0973
▁From	-12.0978
pe	-12.098
▁marginal	-12.0984
▁pointing	-12.0985
▁patience	-12.0988
▁"92	-12.0988
▁groupings	-12.099
▁stamps	-12.0994
▁240	-12.0994
▁dish	-12.0996
▁coercion	-12.0997
▁premise	-12.0997
▁insofar	-12.0999
▁fifteen	-12.0999
▁Colombian	-12.1001
mindful	-12.1005
▁0.5	-12.1006
▁214	-12.1006
▁1966	-12.101
▁classical	-12.1012
▁altered	-12.1015
▁seldom	-12.102
▁constraint	-12.1021
▁anymore	-12.1021
▁narcotics	-12.1023
▁arena	-12.1024
▁casting	-12.1024
working	-12.1027
▁Supplementary	-12.1029
▁stabilize	-12.1029
▁destroying	-12.1033
▁reversed	-12.1033
▁download	-12.1034
▁Ha	-12.1034
▁harmonizing	-12.1034
building	-12.1037
▁biotechnology	-12.104
▁warfare	-12.104
▁compelling	-12.104
▁cooling	-12.104
▁groundwater	-12.104
▁2.45	-12.1041
▁compounded	-12.1042
▁rises	-12.1042
▁Dar	-12.1045
▁fuck	-12.1049
▁209	-12.105
▁ESA	-12.1053
▁Opening	-12.1053
▁circles	-12.1055
▁postal	-12.1057
han	-12.1057
▁surveyed	-12.1058
▁gray	-12.1062
▁Tang	-12.1063
▁afterwards	-12.1064
▁cheaper	-12.1067
▁gentle	-12.1069
▁lonely	-12.107
▁Entity	-12.1074
▁bore	-12.1074
▁glory	-12.1082
▁3.3	-12.1085
▁bolster	-12.1085
uk	-12.1087
▁lifestyle	-12.1088
▁codification	-12.1091
▁lump	-12.1091
▁Memorandum	-12.1093
▁aquifer	-12.1094
▁Travel	-12.1095
▁embark	-12.1097
▁expeditious	-12.1099
▁900	-12.1104
▁infants	-12.1105
▁hectares	-12.1106
▁nowadays	-12.1106
▁"93	-12.1106
▁bribery	-12.1109
▁treasure	-12.1111
▁bike	-12.1111
▁UNITED	-12.1113
▁demarcation	-12.1116
▁whereabouts	-12.1116
▁Directors	-12.1117
▁dissolution	-12.1119
▁Timorese	-12.1119
paragraph	-12.112
▁tips	-12.1122
▁march	-12.1125
▁trusted	-12.1126
▁handbook	-12.1129
▁soup	-12.1129
▁analyzes	-12.1129
▁"91	-12.1134
▁Sahel	-12.1135
▁Hammarskj	-12.1136
▁queries	-12.1136
▁mathematics	-12.1139
▁fortieth	-12.1142
▁coral	-12.1144
si	-12.1145
▁believing	-12.1145
▁hereby	-12.1146
▁233	-12.1146
▁specifies	-12.1148
▁Grenada	-12.1149
▁Si	-12.115
▁Grenadines	-12.1153
▁fool	-12.1155
▁lesser	-12.1155
▁chairpersons	-12.1156
▁Providing	-12.1156
▁invaluable	-12.1156
▁pretext	-12.1157
▁precursors	-12.1169
▁swift	-12.1171
▁expose	-12.1172
▁Pact	-12.1176
▁unresolved	-12.1179
▁annotations	-12.118
▁4.2	-12.1181
▁formats	-12.1183
▁hung	-12.1184
▁swing	-12.1187
▁Malaria	-12.1188
▁trucks	-12.1188
▁emotions	-12.119
▁slip	-12.1192
▁intervals	-12.1195
▁hydrogen	-12.1199
▁Camp	-12.1199
con	-12.12
▁seismic	-12.1201
▁Ba	-12.1202
▁angel	-12.1202
▁frames	-12.1203
▁168	-12.1204
▁juice	-12.1206
IS	-12.1208
▁Sao	-12.1215
▁surgical	-12.1216
▁conducts	-12.1216
ler	-12.1216
▁tracks	-12.122
▁charity	-12.1222
▁adapting	-12.1231
▁drilling	-12.1233
▁uncertainties	-12.1234
▁Corp	-12.1237
▁worn	-12.1237
▁"94	-12.124
▁restricting	-12.1242
▁sediment	-12.1242
▁calculations	-12.1246
▁motions	-12.1252
▁Adaptation	-12.1257
▁menu	-12.1257
▁advocating	-12.1258
▁wives	-12.1262
four	-12.1269
▁Tehran	-12.1272
▁Abidjan	-12.1272
▁expiry	-12.1272
▁meteorological	-12.1275
▁strip	-12.1276
▁Palau	-12.1277
ard	-12.1279
▁billions	-12.128
implementation	-12.1283
▁sisters	-12.1284
President	-12.1286
▁vicinity	-12.1286
▁Transit	-12.1287
▁Course	-12.1287
▁builds	-12.129
▁abortions	-12.1291
▁rigid	-12.1292
exploded	-12.1297
▁contravention	-12.1298
▁mini	-12.1299
▁prevents	-12.1301
▁psychosocial	-12.1303
▁Khan	-12.1306
▁Mart	-12.1308
▁Naqurah	-12.1312
▁portable	-12.1317
▁climb	-12.1318
▁blocked	-12.132
▁fragmentation	-12.1321
▁bail	-12.1322
▁shake	-12.1324
▁privilege	-12.1324
ac	-12.1327
▁ISO	-12.1336
▁elaborating	-12.1336
▁Regular	-12.1338
▁freshwater	-12.1338
▁4.1	-12.134
▁nerve	-12.1341
▁grasp	-12.1342
▁Chernobyl	-12.1344
▁glasses	-12.1344
▁template	-12.1346
▁rightly	-12.1348
▁pp	-12.1349
▁dozens	-12.1353
▁resignation	-12.1355
▁academics	-12.1356
▁Bermuda	-12.1357
▁bars	-12.136
▁congress	-12.136
perhaps	-12.1361
▁economist	-12.137
▁reconsideration	-12.1371
▁1968	-12.1372
▁thirtieth	-12.1373
▁Truth	-12.1374
▁WIPO	-12.1375
▁kits	-12.1376
▁tactics	-12.138
▁odd	-12.1384
▁wore	-12.1384
▁adjusting	-12.1384
▁speculation	-12.1385
▁Ko	-12.1386
red	-12.1387
unlike	-12.139
▁vector	-12.139
▁forcing	-12.1391
▁accompany	-12.1391
▁spell	-12.1391
▁scheduling	-12.1392
▁reinforcement	-12.1393
▁mess	-12.1394
▁neutrality	-12.1394
▁Old	-12.1396
cy	-12.1397
▁occasionally	-12.14
▁Exercise	-12.1406
ab	-12.1409
▁declares	-12.1409
▁dental	-12.1411
▁Classification	-12.1411
▁velocity	-12.1411
▁atrocities	-12.1411
▁morbidity	-12.1412
▁undertakes	-12.1414
▁homeless	-12.1414
▁Tin	-12.1416
▁thrown	-12.1418
▁174	-12.1422
▁peninsula	-12.1423
▁200,000	-12.1424
▁Intolerance	-12.1432
▁developers	-12.1433
▁Physical	-12.1438
▁266	-12.1439
▁rival	-12.1442
▁margins	-12.1443
▁Shan	-12.1449
▁183	-12.1454
▁189	-12.1456
▁Seabed	-12.1459
▁influenza	-12.1461
▁Carrie	-12.1462
▁quarantine	-12.1463
▁ES	-12.1464
▁routinely	-12.1465
▁Heritage	-12.1467
▁Cities	-12.147
▁Apple	-12.1471
▁physics	-12.1472
▁finalizing	-12.1473
▁stigma	-12.1474
▁constituencies	-12.1476
▁prediction	-12.1476
▁writers	-12.1478
▁Lusaka	-12.1479
▁shifts	-12.1481
▁openly	-12.1483
▁disposed	-12.1484
▁Directive	-12.1485
▁vegetable	-12.1486
▁Elizabeth	-12.1489
yl	-12.1489
▁positioning	-12.1491
▁shame	-12.1492
▁critics	-12.1492
▁CB	-12.1494
ki	-12.1495
▁escaped	-12.1496
▁disappointment	-12.1497
▁reminds	-12.1497
▁ideology	-12.1503
▁Fu	-12.1503
▁Strengthen	-12.1507
▁tide	-12.1511
▁pray	-12.1512
▁attainable	-12.1513
▁graduated	-12.1513
▁reconcile	-12.1514
▁Computer	-12.1515
▁Groups	-12.1516
▁Hill	-12.1516
▁solemn	-12.1517
▁pregnancies	-12.1518
▁toxicity	-12.1529
▁Jews	-12.1532
▁effected	-12.1533
▁winner	-12.1535
▁Darussalam	-12.1535
▁sanction	-12.1537
bar	-12.1543
▁illustrates	-12.1543
▁planted	-12.1548
▁neighbor	-12.155
▁ballistic	-12.1551
▁depositary	-12.1551
▁catalytic	-12.1555
▁optimism	-12.1558
▁wooden	-12.156
water	-12.1568
▁Medicine	-12.1568
▁Dakar	-12.157
▁enters	-12.157
▁unrest	-12.1571
▁Fifty	-12.1571
▁Exploitation	-12.1571
▁Set	-12.1572
▁label	-12.1572
ane	-12.1576
▁Products	-12.1576
▁173	-12.1579
▁psychology	-12.1584
▁hey	-12.1585
▁PBC	-12.1587
ham	-12.1587
▁230	-12.1588
▁1.6	-12.1588
▁Credit	-12.1591
▁trap	-12.1591
▁Ibid	-12.1592
▁favorable	-12.1593
▁enquiries	-12.1594
▁lion	-12.1596
along	-12.1597
▁forgot	-12.1598
▁advertisement	-12.16
uartet	-12.1601
▁interrogation	-12.1602
▁Fish	-12.1607
▁243	-12.1607
▁SIDS	-12.1607
▁brilliant	-12.1613
▁225	-12.1613
▁190	-12.1618
▁discourse	-12.1619
▁rockets	-12.1623
▁Cypriots	-12.1625
▁30,000	-12.1629
▁feared	-12.163
▁governor	-12.1631
▁horses	-12.1631
▁magazines	-12.1634
▁connecting	-12.1635
▁Lo	-12.1635
▁influential	-12.164
▁gay	-12.1642
▁CTC	-12.1642
▁bath	-12.1646
ATION	-12.1648
later	-12.1652
▁stance	-12.1652
▁HIPC	-12.1659
recently	-12.1662
17	-12.1662
▁thread	-12.1664
▁peasants	-12.1665
▁Columbia	-12.1665
▁opt	-12.1665
▁engines	-12.1666
▁jury	-12.1667
▁CCPR	-12.1669
▁midst	-12.1671
▁channell	-12.1672
▁proximity	-12.1676
▁Marino	-12.1677
▁definitive	-12.168
▁psychiatric	-12.168
▁repercussions	-12.1681
▁bureaux	-12.1682
▁downturn	-12.1684
▁somehow	-12.1684
▁guardian	-12.1687
▁Joe	-12.1687
▁breeding	-12.1689
▁denying	-12.1689
▁counts	-12.1691
▁hero	-12.1691
field	-12.1696
▁evolve	-12.1699
▁plot	-12.17
▁mud	-12.1701
▁bubble	-12.1702
▁counted	-12.1705
▁stemm	-12.1705
▁relieve	-12.1705
▁Tonga	-12.171
▁Laundering	-12.1712
▁petrol	-12.1714
▁mortar	-12.1723
▁administrators	-12.1726
▁automated	-12.1728
▁Guangdong	-12.1729
▁500,000	-12.173
▁reparations	-12.1731
▁pan	-12.1734
▁signatures	-12.1736
▁appropriated	-12.1738
▁originat	-12.1741
▁inspect	-12.1744
▁au	-12.1746
▁186	-12.1746
▁Ka	-12.1747
tic	-12.1748
see	-12.1748
.00	-12.175
▁flooding	-12.1753
▁Francisco	-12.1755
▁molecular	-12.1756
▁scores	-12.1758
▁Karabakh	-12.1758
▁corrective	-12.1759
▁dense	-12.176
What	-12.176
▁fracture	-12.1762
▁sacred	-12.1764
▁symbols	-12.1767
▁locate	-12.1772
▁forgive	-12.1772
▁royal	-12.1776
▁obsolete	-12.1776
▁sickness	-12.1777
▁severity	-12.1782
▁villagers	-12.1783
▁quadrennial	-12.1785
▁ODS	-12.179
▁dire	-12.179
▁bombing	-12.1792
▁poorer	-12.1794
▁181	-12.1796
▁constructively	-12.1798
▁chemistry	-12.18
▁grey	-12.1801
▁Guard	-12.1802
▁Aires	-12.1803
▁spark	-12.1806
▁Infrastructure	-12.1807
▁reasoning	-12.1809
▁Will	-12.1812
▁inspiration	-12.1817
▁hiding	-12.1818
▁stimulating	-12.1819
▁extradite	-12.1821
po	-12.1826
▁influencing	-12.1828
▁rear	-12.183
▁Oslo	-12.1831
▁microcredit	-12.1833
▁Prize	-12.1834
▁pack	-12.1835
▁troubled	-12.1835
▁con	-12.1836
specifically	-12.1837
▁185	-12.1837
▁Gazette	-12.1837
▁intake	-12.1839
▁Dan	-12.1842
▁Tenth	-12.1842
▁Cambodian	-12.1843
▁exhibit	-12.1844
▁mounted	-12.185
▁genes	-12.1851
▁206	-12.1855
▁societal	-12.1856
▁infringement	-12.1858
▁Commitment	-12.1861
▁ICTR	-12.1861
▁injustice	-12.1862
▁twin	-12.1862
▁deceased	-12.1862
▁counting	-12.1862
▁recurrence	-12.1865
high	-12.1867
▁vague	-12.1874
▁practicable	-12.1877
▁forge	-12.1878
▁Star	-12.1879
▁tooth	-12.1883
▁combustion	-12.1883
▁Mass	-12.1889
▁Knowledge	-12.189
ey	-12.1891
▁arisen	-12.1893
ger	-12.1898
▁Policies	-12.1908
▁187	-12.1917
▁ISU	-12.1923
▁economical	-12.1924
gov	-12.1926
▁Documents	-12.1926
▁....	-12.1927
▁lasted	-12.1928
▁entries	-12.193
▁settling	-12.1933
▁relay	-12.1936
▁disparity	-12.1936
▁1000	-12.1937
▁1,500	-12.1938
▁sponsorship	-12.1943
▁Medium	-12.1948
14	-12.1952
▁Municipal	-12.196
▁Srpska	-12.1961
ent	-12.1961
public	-12.1963
▁Pakistani	-12.1963
.44	-12.1964
▁undergone	-12.1965
▁Moses	-12.1967
▁Circular	-12.197
▁adaptive	-12.197
▁PDF	-12.1971
html	-12.1972
▁spacecraft	-12.1973
▁Card	-12.1974
▁pivotal	-12.1977
▁Irish	-12.1978
▁Delegation	-12.1979
▁reader	-12.1981
▁teenage	-12.1982
▁pronounced	-12.1984
▁wipe	-12.1984
▁sorrow	-12.1984
▁Ar	-12.1984
▁Barack	-12.1985
▁persuade	-12.1988
▁Trans	-12.1988
▁recreational	-12.199
▁girlfriend	-12.1991
▁surrounded	-12.1993
▁conceived	-12.1994
▁clever	-12.1995
.49	-12.1995
▁"96	-12.1996
▁yields	-12.1999
▁invitations	-12.2002
▁predominantly	-12.2006
▁amp	-12.2007
.43	-12.2007
▁1267	-12.2008
▁corrigendum	-12.2012
▁fatigue	-12.2014
▁contraceptive	-12.2014
▁Provision	-12.2015
▁consumed	-12.2017
▁207	-12.2021
▁conception	-12.2021
▁supreme	-12.2026
▁Prof	-12.2029
▁Net	-12.203
▁declar	-12.2032
▁celebrated	-12.2033
▁packed	-12.2034
▁champion	-12.2035
▁distinctive	-12.2035
▁Technological	-12.2038
▁symposium	-12.204
▁yard	-12.2041
▁cant	-12.2041
▁"95	-12.2042
▁occupations	-12.2043
▁stringent	-12.2045
▁throat	-12.2045
▁objectivity	-12.2045
▁backgrounds	-12.2047
▁specification	-12.2047
▁altitude	-12.2048
▁broadening	-12.2048
▁Sport	-12.2053
▁prince	-12.2056
▁ie	-12.206
▁Putin	-12.2064
▁bow	-12.2065
▁augment	-12.2069
▁pig	-12.207
▁finite	-12.2072
much	-12.2073
▁collateral	-12.2073
▁shoe	-12.2076
▁Mun	-12.2077
▁Shenzhen	-12.2078
▁editorial	-12.2079
▁precondition	-12.2084
▁kit	-12.2084
▁Ombudsperson	-12.2089
▁microwave	-12.2092
mm	-12.2093
▁IP	-12.2096
▁trademark	-12.2097
tion	-12.2101
▁emotion	-12.2102
▁revising	-12.2104
▁Janeiro	-12.2104
ber	-12.2105
▁ratione	-12.2105
▁Nordic	-12.2108
▁presiding	-12.211
▁191	-12.2113
▁articulated	-12.2113
▁unreasonable	-12.2114
▁kingdom	-12.2114
▁fires	-12.2115
▁priest	-12.2117
▁directive	-12.212
▁abundance	-12.2121
▁sth	-12.2125
▁meter	-12.2126
▁welding	-12.2127
▁172	-12.2131
▁Mu	-12.2131
▁accusations	-12.2132
▁abstain	-12.2136
▁comparing	-12.2136
▁pile	-12.2136
▁Poor	-12.214
▁Israelis	-12.2141
▁Continental	-12.2142
▁culturally	-12.2147
▁weakened	-12.2149
.42	-12.2152
▁supplements	-12.2154
▁revolutionary	-12.2158
▁floating	-12.2161
▁CCA	-12.2161
▁diesel	-12.2161
again	-12.2163
hen	-12.2166
▁bones	-12.2166
▁MINURCAT	-12.2168
▁Mandate	-12.2168
▁ingredients	-12.2172
▁NAP	-12.2172
▁Book	-12.2174
▁Early	-12.2174
▁Sheikh	-12.2174
▁fines	-12.2175
▁juveniles	-12.218
▁prosecut	-12.218
▁Mike	-12.218
▁aging	-12.2183
▁stretch	-12.2187
▁Mount	-12.2188
▁repetition	-12.219
az	-12.219
▁COM	-12.219
▁associates	-12.2191
▁underscore	-12.2194
▁ambition	-12.2194
▁mayor	-12.2195
▁warmly	-12.2197
▁knee	-12.2199
▁Van	-12.2199
▁rendering	-12.2204
▁Bueno	-12.2205
▁encompasses	-12.2207
▁178	-12.2207
▁negotiable	-12.2209
ung	-12.221
address	-12.221
next	-12.221
▁enclosed	-12.221
▁metric	-12.2211
▁honoured	-12.2211
▁SubCommission	-12.2212
▁fellowship	-12.2213
▁judged	-12.2214
▁testify	-12.2214
▁scientist	-12.2216
throughout	-12.2217
▁competitors	-12.2219
▁walks	-12.222
.47	-12.222
▁prescribe	-12.2221
▁attorney	-12.2221
▁exchanging	-12.2221
▁pet	-12.2223
▁Bi	-12.2224
▁outgoing	-12.2225
▁ninety	-12.2226
▁frustration	-12.2226
▁mentally	-12.2227
▁Commodities	-12.2228
▁MOP	-12.2231
▁Far	-12.2231
▁bride	-12.2234
▁crying	-12.2234
▁Santiago	-12.2236
▁servers	-12.2236
against	-12.2237
▁Advice	-12.2237
▁sentencing	-12.2237
▁masses	-12.2241
▁concise	-12.2241
▁jail	-12.2243
▁Scotland	-12.2245
▁breathing	-12.2246
▁beating	-12.2246
To	-12.2248
▁spin	-12.225
▁turmoil	-12.225
▁allocating	-12.2254
▁"97	-12.2255
▁expired	-12.2256
▁attribute	-12.2257
▁quietly	-12.2258
▁AS	-12.2261
▁dispatch	-12.2261
▁beef	-12.2261
▁Andorra	-12.2262
▁Republika	-12.2269
▁departed	-12.2269
.45	-12.2273
▁Revolution	-12.2276
ably	-12.228
▁tripartite	-12.2285
▁par	-12.2286
▁Projects	-12.2286
ration	-12.2288
▁musical	-12.2291
▁"100	-12.2291
▁Our	-12.2295
▁5.2	-12.2295
▁avoidance	-12.2296
▁Abdul	-12.2297
ue	-12.2299
▁layers	-12.2301
▁rapporteur	-12.2305
▁drunk	-12.2307
▁ignorance	-12.2308
AL	-12.2308
ga	-12.2309
▁mile	-12.2309
▁Hassan	-12.2311
▁Nauru	-12.2313
▁pursuan	-12.2314
▁dictionary	-12.2314
▁forcibly	-12.2314
▁Volunteer	-12.2316
proportionately	-12.2319
There	-12.2319
▁seasonal	-12.2321
▁Am	-12.2324
▁forbidden	-12.2325
▁redouble	-12.2327
▁editing	-12.233
▁definite	-12.233
▁drain	-12.2332
▁folk	-12.2333
▁annum	-12.2333
▁Extension	-12.2334
▁En	-12.2334
yan	-12.2338
▁arbitrarily	-12.2343
▁derive	-12.2344
▁expecting	-12.2346
▁parks	-12.2346
chi	-12.2347
▁magistrates	-12.2351
▁269	-12.2352
▁encumbered	-12.2353
generally	-12.2355
▁attachment	-12.2355
▁Santa	-12.2356
▁Lin	-12.2356
▁repression	-12.2356
▁Mid	-12.2358
▁cigarette	-12.2359
▁Institutional	-12.2364
▁fuzzy	-12.2366
▁serial	-12.2367
▁Afro	-12.2367
▁directory	-12.2367
.46	-12.2367
▁opponents	-12.237
▁homeland	-12.2371
▁convince	-12.2372
▁agreeing	-12.2375
▁holes	-12.2376
▁acclamation	-12.2379
▁pesticide	-12.2379
▁rationalization	-12.239
▁"98	-12.239
▁Harvard	-12.239
▁Premier	-12.239
▁expire	-12.2391
▁2.6	-12.2394
▁Ahmad	-12.2397
▁Nobel	-12.2399
ated	-12.2402
▁prudent	-12.2405
▁communicating	-12.2405
▁brackets	-12.2408
▁Wei	-12.2411
▁unsafe	-12.2412
▁vaccines	-12.2413
okay	-12.2413
▁Request	-12.2415
▁consequent	-12.2416
▁177	-12.2416
▁traded	-12.242
▁gang	-12.2421
▁historically	-12.2431
▁conscientious	-12.2435
▁robot	-12.2437
▁264	-12.2437
▁imaging	-12.244
▁Frent	-12.2445
▁fundamentally	-12.2445
▁loaded	-12.2452
▁crowded	-12.2454
▁slower	-12.2454
▁Why	-12.2457
▁Damascus	-12.2457
▁228	-12.2462
▁Disappearance	-12.2462
▁Ibrahim	-12.2463
▁Reintegration	-12.2463
▁joke	-12.2468
ever	-12.2468
▁blank	-12.2469
▁alloy	-12.2472
▁Reconstruction	-12.2473
▁Methods	-12.2474
▁preferable	-12.2474
▁neighbors	-12.2475
life	-12.2476
▁subjective	-12.2476
▁subparagraphs	-12.2478
▁contradiction	-12.2479
▁1958	-12.2482
foreseeable	-12.2484
▁Faculty	-12.2484
▁defamation	-12.2486
▁discrepancies	-12.2489
▁endangered	-12.2493
▁automobile	-12.2493
▁licensed	-12.2495
▁flowing	-12.2496
▁acknowledgement	-12.2497
▁184	-12.2499
reiterat	-12.2501
▁vitamin	-12.2501
▁UNIDIR	-12.2501
AT	-12.2501
▁evictions	-12.2505
▁donation	-12.2505
▁shoulders	-12.2512
▁Nicosia	-12.2515
▁defensive	-12.2515
▁"99	-12.2516
▁poly	-12.2517
▁warplanes	-12.2517
▁grantor	-12.2521
▁Weapon	-12.2522
▁171	-12.2522
▁unforeseen	-12.2522
▁Micronesia	-12.2523
dis	-12.2525
UNHCR	-12.2528
ship	-12.253
▁222	-12.2532
77	-12.2532
▁confused	-12.2533
▁decreases	-12.2535
▁assumes	-12.2536
children	-12.2536
▁Associate	-12.2538
▁tumor	-12.2538
▁Lehman	-12.2541
▁ultra	-12.2541
▁221	-12.2541
▁Con	-12.2544
▁stricken	-12.2545
▁replenishment	-12.2545
▁invoices	-12.2546
▁speeches	-12.2546
eh	-12.2548
▁fierce	-12.2555
▁petitioner	-12.2556
▁prioritized	-12.2558
▁promulgation	-12.2559
▁widest	-12.2559
21	-12.256
ori	-12.2561
▁paradigm	-12.2561
▁interpretations	-12.2562
▁questioning	-12.2562
▁tune	-12.2563
▁SP	-12.2564
▁ranges	-12.2564
▁empirical	-12.2567
▁Facilitation	-12.2568
▁Moon	-12.2568
This	-12.2571
▁rhetoric	-12.2574
sh	-12.2577
▁202	-12.2583
▁frontier	-12.2584
▁UNMOVIC	-12.2586
▁defect	-12.2586
▁Arabs	-12.2588
▁coefficient	-12.2588
▁loop	-12.259
▁upgraded	-12.259
▁painted	-12.2591
▁4.3	-12.2596
▁Challenges	-12.2598
▁psychotropic	-12.2598
▁hydro	-12.26
▁reside	-12.2601
ping	-12.2602
▁overhead	-12.2605
▁Coast	-12.2605
▁INTERPOL	-12.2606
▁End	-12.2606
▁discriminated	-12.2608
▁cautious	-12.2613
▁Azerbaijani	-12.2613
▁matched	-12.2618
▁inspire	-12.262
▁RE	-12.2621
▁Son	-12.2622
▁RMB	-12.2625
▁687	-12.2626
▁inherited	-12.2632
▁orange	-12.2636
▁Fight	-12.2636
▁DVD	-12.2638
▁4,000	-12.2639
▁241	-12.264
▁Six	-12.2641
▁Gas	-12.2642
▁rope	-12.2642
▁Du	-12.2643
▁Four	-12.2644
notwithstanding	-12.2647
▁Transparency	-12.2648
▁neighbourhood	-12.2651
▁prayer	-12.2652
▁entrepreneurial	-12.2654
▁194	-12.2656
▁blast	-12.2656
▁underscores	-12.2657
▁rainfall	-12.2658
bi	-12.2658
▁refusing	-12.2661
education	-12.2663
▁airline	-12.2668
▁battalion	-12.2668
▁contested	-12.2673
▁traveling	-12.2673
▁criminalize	-12.2674
▁Turks	-12.2676
▁Please	-12.2677
▁gentleman	-12.2678
▁compensable	-12.2681
▁dismantling	-12.2681
▁proves	-12.2682
▁shifted	-12.2685
▁drama	-12.2685
ari	-12.2687
▁induce	-12.2688
▁anxious	-12.2689
▁Term	-12.2691
▁persisted	-12.2691
▁lethal	-12.2696
.48	-12.2698
▁antiretroviral	-12.2698
▁recreation	-12.2699
▁query	-12.2701
▁lag	-12.2702
▁pertain	-12.2702
▁hierarchy	-12.2704
▁cognitive	-12.2704
nonproliferation	-12.2707
▁POPS	-12.2708
▁vein	-12.2709
▁administrator	-12.2709
▁varieties	-12.2711
▁diversify	-12.2713
▁3.4	-12.2715
▁condolences	-12.2716
▁retreat	-12.2717
▁sanitary	-12.2722
UNEP	-12.2724
▁chambers	-12.2732
▁broadband	-12.2735
▁mill	-12.2736
▁disputed	-12.2737
▁generator	-12.2737
▁scarcity	-12.2738
▁Instrument	-12.2739
▁shield	-12.2739
▁coating	-12.274
▁preferably	-12.2741
▁Observation	-12.2742
▁oldest	-12.2749
▁scattered	-12.2749
▁stranger	-12.275
ji	-12.2751
▁dispose	-12.2754
▁fishery	-12.2758
▁simplification	-12.276
▁knock	-12.2761
▁trick	-12.2762
▁detecting	-12.2767
▁vicious	-12.2775
▁keywords	-12.2777
law	-12.2777
▁inspected	-12.2777
▁tri	-12.2781
▁respiratory	-12.2781
ini	-12.2782
▁Mobile	-12.2782
▁polling	-12.2782
▁educators	-12.2783
▁asserts	-12.2784
▁explosions	-12.2786
▁Sanctions	-12.2788
▁unstable	-12.2788
▁reprisals	-12.279
▁slope	-12.2791
▁cheese	-12.2791
ence	-12.2792
▁bargaining	-12.28
▁hindered	-12.28
others	-12.2803
▁Yuan	-12.2803
▁Mountain	-12.2806
▁devised	-12.281
60	-12.2813
▁pity	-12.2814
▁Census	-12.2814
▁dull	-12.2818
▁aquatic	-12.2822
▁Anguilla	-12.2822
▁subordinate	-12.2824
▁1964	-12.2824
▁203	-12.2826
ada	-12.2827
▁mounting	-12.2828
▁Which	-12.2828
▁founder	-12.2829
▁precursor	-12.283
▁Confederation	-12.2832
▁acceleration	-12.2832
▁Tong	-12.2833
ising	-12.2834
nor	-12.2836
▁Colonel	-12.2843
being	-12.2845
▁maker	-12.2845
▁husbands	-12.2846
▁ACAB	-12.2846
▁conditioning	-12.2849
▁bowl	-12.285
▁176	-12.2853
▁constructing	-12.2853
▁armoured	-12.2854
18	-12.2854
▁enlargement	-12.2856
▁transforming	-12.2861
▁letting	-12.2862
▁insight	-12.2865
▁IS	-12.2866
▁Notes	-12.2867
▁solitary	-12.2869
▁hills	-12.2869
▁accommodated	-12.287
▁multimedia	-12.2871
▁Enterprises	-12.2874
▁princess	-12.2882
▁ICTs	-12.2882
ors	-12.2884
▁Consultation	-12.2885
▁colonialism	-12.289
▁Cartagena	-12.2891
▁pound	-12.2892
▁indebted	-12.2893
▁Plant	-12.2893
▁planting	-12.2895
▁worsening	-12.2896
▁dropping	-12.2897
▁1.7	-12.2897
▁Up	-12.2898
▁outlining	-12.2898
▁tense	-12.29
▁merchandise	-12.29
▁toilet	-12.29
▁brands	-12.2902
▁ventures	-12.2903
▁Identification	-12.2903
▁Symposium	-12.2903
▁poultry	-12.2903
▁impeded	-12.2903
▁diminished	-12.2905
▁impressed	-12.2906
▁MP	-12.2907
▁hadn	-12.2908
▁Material	-12.2909
▁fold	-12.2912
▁clerk	-12.2914
▁trail	-12.2916
▁beds	-12.2922
les	-12.2925
▁Key	-12.2929
▁advising	-12.2929
iang	-12.293
▁populated	-12.2931
▁forefront	-12.2931
▁Method	-12.2932
▁mindful	-12.2933
▁199	-12.2933
0	-12.2935
▁churches	-12.294
▁projection	-12.2941
▁contacted	-12.2941
▁Gu	-12.2944
▁encompassing	-12.2947
▁clarifications	-12.2948
▁215	-12.2949
▁179	-12.295
▁litres	-12.2951
▁delimitation	-12.2951
▁professions	-12.2952
ure	-12.2953
ze	-12.2957
▁Hon	-12.2957
▁wounds	-12.2957
▁1.8	-12.296
▁Assistants	-12.2961
▁eaten	-12.2963
representatives	-12.2968
▁Securities	-12.297
▁expires	-12.2973
▁lowering	-12.2974
▁dishes	-12.2976
▁Seoul	-12.2977
▁minimizing	-12.2979
ide	-12.2981
▁piano	-12.2982
But	-12.2983
▁Chung	-12.2984
ani	-12.2986
▁deletion	-12.2986
▁addiction	-12.2989
▁ICPD	-12.299
▁fatal	-12.299
▁critically	-12.2992
▁u	-12.2992
▁endless	-12.2993
▁incorporates	-12.2997
▁flee	-12.2998
▁gently	-12.3
▁assertion	-12.3002
prior	-12.3002
▁migrator	-12.3003
au	-12.3003
▁dating	-12.3005
▁Belgian	-12.3006
Australia	-12.3008
▁Television	-12.301
▁pink	-12.3011
▁Stanley	-12.3013
▁famine	-12.3013
▁deliveries	-12.3014
mo	-12.3018
▁ion	-12.3018
▁Waste	-12.3019
▁custodial	-12.3022
▁medication	-12.3023
▁harbour	-12.3026
▁irregularities	-12.3027
▁Import	-12.3027
ud	-12.3028
▁Tome	-12.3028
▁posting	-12.3029
▁deteriorated	-12.3029
▁authoritative	-12.303
▁facilitator	-12.3031
▁featured	-12.3032
▁Ping	-12.3032
▁Cayman	-12.3035
▁Antarctic	-12.3036
▁bedroom	-12.3037
▁impaired	-12.3039
▁electronically	-12.304
▁Goma	-12.304
▁precedence	-12.3041
▁Abuja	-12.3041
▁recognised	-12.3042
▁Susan	-12.3042
▁237	-12.3043
▁professionalism	-12.3045
▁impediment	-12.3047
▁didnt	-12.3052
▁Mai	-12.3053
▁warranted	-12.3057
▁appearing	-12.3059
▁fastest	-12.306
▁butter	-12.3061
off	-12.3062
lying	-12.3062
▁friction	-12.3062
▁landed	-12.3066
▁Real	-12.3067
▁tribes	-12.3071
▁laughter	-12.3071
key	-12.3072
▁noteworthy	-12.3072
▁DPKO	-12.3073
▁sporting	-12.3074
▁refoulement	-12.3075
▁vaccination	-12.3076
▁Fire	-12.3077
▁smoothly	-12.3077
▁Technologies	-12.3079
▁seabed	-12.3079
▁subsection	-12.308
▁commemorate	-12.3082
▁Kyrgyz	-12.3082
▁interrupted	-12.3082
▁regain	-12.3084
▁winds	-12.3086
va	-12.3086
▁discharged	-12.3088
▁Big	-12.3089
▁garbage	-12.3089
▁Associations	-12.309
▁sealed	-12.3091
▁certify	-12.3096
▁Economics	-12.3097
▁endure	-12.3097
▁Eight	-12.31
▁UNSOA	-12.3103
▁outlets	-12.3107
▁analyst	-12.311
▁balancing	-12.3111
▁Tu	-12.3112
▁2.7	-12.3113
social	-12.3113
▁Claims	-12.3113
▁Contractor	-12.3114
.55	-12.3115
▁resin	-12.3117
▁landmark	-12.3118
▁descriptions	-12.3119
▁searches	-12.312
▁reformed	-12.312
▁Yan	-12.312
▁Montserrat	-12.3121
▁Awards	-12.3126
enophobia	-12.3127
▁textile	-12.3127
TA	-12.3128
car	-12.3128
▁mild	-12.313
▁responds	-12.313
▁Strategies	-12.3131
▁footnote	-12.3131
▁Slovak	-12.3132
▁desperate	-12.3133
▁deeds	-12.3136
▁hosts	-12.314
▁Palace	-12.3141
▁Carlos	-12.3142
▁examines	-12.3143
▁acquisitions	-12.3145
▁gotta	-12.3146
▁contradict	-12.3148
▁sentiment	-12.3152
▁affection	-12.3152
▁rat	-12.3153
▁entrust	-12.3154
▁confirming	-12.3155
▁breakthrough	-12.3161
▁escorted	-12.3163
▁reactor	-12.3163
▁panic	-12.3164
▁refine	-12.3166
▁multifacet	-12.3166
▁dispatched	-12.3168
▁bi	-12.3168
▁LEG	-12.317
▁Improving	-12.3173
▁prerogative	-12.3173
▁catalogue	-12.3176
▁chaos	-12.3176
▁Bridge	-12.3179
▁Settlement	-12.318
▁Drafting	-12.3181
▁manages	-12.3183
▁shower	-12.3183
▁Sch	-12.3184
▁buses	-12.3184
▁designer	-12.3186
▁2.	-12.3188
▁breastfeeding	-12.3188
mer	-12.3188
▁GE	-12.3188
▁brokering	-12.319
▁steal	-12.3191
ative	-12.32
▁Palais	-12.3201
▁herein	-12.3203
▁duplicate	-12.3205
▁Texas	-12.3205
▁slowed	-12.3206
▁193	-12.3207
▁IPU	-12.3214
▁voiced	-12.3215
▁eleven	-12.3216
▁nitrogen	-12.3221
▁Governors	-12.3224
▁Class	-12.3225
▁276	-12.3225
▁prescription	-12.3226
▁Wales	-12.3226
▁POPs	-12.3227
whatever	-12.3228
▁verbal	-12.323
▁enduring	-12.3233
▁careers	-12.3235
▁2030	-12.3235
▁outward	-12.3236
▁earning	-12.3238
▁Jin	-12.3239
▁Helena	-12.324
▁superiority	-12.324
[...]
